nep3 1 C 
cutoff 6 4.5 81 48
n_max 8 8
basis_size 12 12
l_max 4 2 0
ANN 50 0
  5.3357318e-02
 -3.8037020e-01
 -1.0090829e+00
  1.2726837e-01
  1.7275378e-02
 -8.3036178e-01
  1.2208234e+00
 -3.3255175e-02
  2.2155173e-01
  1.5708923e-01
  7.2970428e-04
  1.0988504e+00
  7.9659599e-01
 -9.9209361e-02
 -2.4353160e-01
 -1.3870595e-04
  6.3399696e-01
 -2.4308783e-03
  3.1684714e-04
 -6.1146665e-01
  4.2689999e-04
  1.9748550e-02
 -9.2503786e-02
 -3.8496885e-01
  2.2746174e-02
 -6.7175407e-04
  5.7603532e-01
 -3.9211321e-01
 -3.1758073e-01
  3.7489861e-01
  4.3617186e-01
 -2.6864931e-02
  2.4274535e-02
  7.7078221e-03
 -8.9963365e-01
  4.7385205e-02
 -2.7976328e-01
  1.1323737e-01
  2.0964774e-01
  6.5860324e-02
  3.3994500e-02
  6.6029024e-01
  3.5386688e-01
  8.0616929e-02
  2.2704293e-01
 -1.4678997e-05
  1.5093386e-01
  3.8352379e-01
 -5.1562023e-01
  5.8458616e-05
 -1.8346633e-01
 -7.0775795e-01
  1.2712163e-01
 -5.8423881e-05
  1.9177298e-05
  2.9620576e+00
  9.5591545e-02
 -1.1453737e+00
  2.9367292e-01
  1.4459108e-01
  4.1990271e-01
  4.1131723e-01
 -9.3834651e-01
  9.8085156e-06
  5.7033641e-05
  1.4777864e+00
  1.4833002e-01
 -8.7599219e-06
  1.5365691e-02
 -1.7384069e-05
  6.9949454e-01
  4.3662524e-04
 -3.6176357e-02
 -1.1160607e+00
  1.4656250e-01
  3.4170210e-01
 -8.0158852e-02
 -2.7983180e-01
 -1.0878168e+00
 -6.3122511e-02
  8.5384754e-06
  8.1859611e-02
  7.0606805e-02
  2.8958839e-01
 -6.2495464e-01
  1.3736440e-01
 -4.7304517e-01
 -1.0197488e+00
 -1.0273676e-02
 -1.1500946e+00
 -2.1138494e-06
  6.8681860e-01
 -1.5260993e-01
 -6.5063196e-01
 -1.1225232e-01
  7.4605763e-01
 -6.4823371e-01
 -1.4707823e-02
 -4.0480340e-01
  6.5789209e-06
  8.3392930e-01
  9.9328383e-05
  1.6829703e-05
  8.5441543e-06
 -1.9406858e-01
 -4.5838764e-01
  2.2299846e-05
  1.0468200e-04
 -3.7302743e-06
  9.2738765e-06
 -2.4909665e-05
  7.5384960e-06
  5.7168767e-05
  2.7834694e-05
 -1.5382935e-05
  2.8854989e-05
 -2.1813374e-05
 -2.1524493e-05
  4.1733252e-05
 -2.1490519e-05
 -3.7397465e-05
  9.0676676e-06
  1.9057374e-05
 -1.2612782e-05
  2.3245057e-05
  2.9736882e-05
  6.3929074e-05
  1.0345626e-05
  3.1385338e-05
  1.0121461e-05
  5.3444419e-06
 -1.8380859e-05
  2.4247616e-05
  6.7381434e-06
 -5.2741052e-05
  6.7418105e-06
  6.6264860e-05
 -1.8116029e-05
 -2.1628437e-05
 -4.0264433e-05
  3.0818373e-05
  2.8260793e-06
  4.6896857e-05
  4.4329131e-06
  6.3176412e-05
 -1.4605705e-05
 -2.3136625e-05
  1.4829295e-05
 -4.3149530e-06
  1.4678501e-04
 -1.4994544e-05
  4.8712387e-05
  3.5315309e-06
  1.8131104e-05
 -1.3090310e-05
 -1.7336530e-05
 -9.9879042e-05
 -1.5375688e-06
  2.7231445e-05
  5.5180721e-05
 -1.5243008e-05
 -1.7645689e-05
  2.7093720e-01
  2.5642845e-01
  7.4210995e-01
  9.9884707e-04
  3.1934977e-01
 -1.6537153e+00
  3.7041731e-02
 -7.9988295e-01
 -2.4531147e+00
 -1.9363346e-05
  5.7635927e-01
 -1.2764040e+00
  9.0826923e-01
  6.6218579e-01
  1.1585338e-04
 -2.7468029e-01
 -2.7483778e-02
  3.5437333e-05
 -7.9738582e-04
  6.7914210e-02
 -7.2237122e-01
 -1.1954346e-02
  4.7556157e-03
  2.4296699e-02
  5.8474594e-01
 -3.7550595e-01
 -4.8978019e-01
  7.3723221e-01
 -3.6338035e-02
 -1.0634501e+00
 -7.5047809e-01
 -1.6116513e+00
 -9.5380440e-02
 -4.6469341e-03
 -9.2927784e-02
  1.8674709e+00
  1.6666942e-04
 -1.2250254e+00
  4.3444745e-03
 -4.8335123e-01
 -3.7040693e-01
  7.4275899e-01
 -1.1670899e+00
  1.3115248e-01
 -6.4001821e-02
 -2.4438241e-05
 -2.4101147e-01
 -1.0922695e-04
 -4.2861514e-03
 -5.6513702e-05
 -7.1803622e-02
  1.1153387e+00
 -2.6519233e-01
  1.2368348e-05
  8.8521934e-05
 -3.4791583e-01
 -4.7128207e-05
 -4.9040249e-01
  2.1818396e-01
 -4.4501248e-01
  1.1792921e+00
  3.1309587e-06
  8.5558249e-06
  1.2399762e-05
  1.6136029e-05
 -2.3600265e-05
 -4.3913828e-05
 -5.5215473e-04
 -2.2313845e-05
 -1.5616697e-05
  7.5449661e-06
 -1.5600293e-05
  1.6608993e-06
  1.4233743e-01
 -1.5595668e-05
 -1.3287714e-05
 -1.0498476e-04
  5.2718915e-05
  3.0545198e-04
 -1.5452672e-05
  6.5995839e-05
 -2.3678353e-02
 -2.7537301e-01
 -1.4987791e-05
  1.3319869e-04
  1.4691457e-05
 -1.3599367e-04
 -9.2448900e-06
 -1.3427986e-04
 -3.6839947e-02
 -6.5931074e-02
  3.9814063e-06
 -1.3727445e-05
  2.2689326e-05
  4.1797466e-05
  4.0171813e-05
  1.4687687e-05
  1.1794173e-01
 -9.9290346e-06
  2.6160929e-05
  3.7458572e-05
 -2.0759711e-05
 -4.2013948e-05
  8.4129169e-06
 -5.3616555e-04
  1.5130984e-06
  2.6600141e-05
 -8.2534480e-06
 -4.4109202e-05
 -1.3340037e-05
 -6.3702450e-05
 -1.9373931e-05
  5.6515892e-06
 -6.9530665e-07
  3.1738688e-05
  5.2138130e-05
  1.3603114e-06
 -1.8586534e-05
 -2.3810662e-07
  1.3078631e-05
 -1.4851965e-05
  2.0730260e-05
 -6.8005902e-05
 -1.1327465e-04
  9.9708586e-07
 -1.9983825e-05
  7.3685515e-05
 -2.3716143e-06
 -5.2311905e-05
 -1.8327378e-06
  7.9169877e-07
  1.1616836e-05
 -4.2092315e-06
 -8.6184218e-06
  7.1550758e-06
 -7.1233723e-07
  2.8961531e-05
 -1.4389187e-05
  1.2902506e-05
 -1.4374001e-05
  1.4256408e-05
  1.5149564e-05
 -2.4098332e-05
 -7.1969102e-05
 -8.7326198e-06
 -2.5720990e-05
  1.3706922e-05
  3.6331855e-06
  1.0308150e-04
  1.5071675e-05
  2.9189272e-05
  3.1121831e-06
 -5.7463370e-05
  8.2167295e-05
  2.1866092e-05
  4.9917771e-06
  1.3486928e-05
 -4.4462420e-05
  1.7376859e-05
 -1.6140104e-05
  1.0408856e-05
  7.9885594e-06
 -3.4388770e-05
  3.7720078e-05
 -4.8512557e-06
  5.5121227e-06
  6.9364751e-06
  2.4206014e-05
  6.4745805e-06
  3.2229003e-05
  2.8850388e-06
 -2.8204254e-06
 -4.4368528e-05
  5.2936966e-06
  1.6729673e-05
 -2.7994483e-05
 -9.1778265e-06
 -5.2954247e-06
 -1.6469399e-05
 -3.3507786e-05
  4.5336810e-06
 -5.1046703e-05
 -1.7364609e-05
 -7.1245318e-05
  9.8175542e-06
  2.4160026e-06
 -5.8233413e-06
  5.7591285e-05
 -7.8917847e-06
 -4.2479907e-05
 -2.6643593e-04
 -2.6494663e-06
  5.1189782e-06
 -1.4400094e-05
 -9.2288683e-06
 -4.7233676e-05
  7.7772842e-05
  1.5500402e-04
 -9.7809398e-06
 -1.8112876e-05
  1.6286820e-05
  6.0718874e-05
 -2.2374743e-05
 -4.5073784e-06
 -8.5806409e-05
 -5.6833478e-06
  5.4782638e-05
  1.7166567e-05
  1.4362196e-05
 -3.0378269e-06
  6.9795045e-05
 -4.4911299e-06
 -1.6868587e-05
  2.7562712e-05
  5.6115823e-05
 -1.6102669e-05
  4.5896402e-05
 -4.2670556e-05
 -3.1116408e-06
  4.0733767e-08
 -9.5611476e-06
 -5.3527870e-05
 -8.0428417e-06
 -1.0415892e-05
  1.4117239e-05
 -1.6727942e-06
  1.5959062e-05
 -8.6338687e-06
  9.0933518e-06
 -1.4202287e-04
  2.3241966e-05
  1.6233129e-05
  9.0608366e-05
  1.0025494e-05
 -3.1542531e-05
  7.7170727e-05
 -7.1391900e-05
  4.0009745e-05
 -9.7086286e-09
  2.9188823e-06
 -7.8683634e-06
 -3.8858368e-05
 -3.9511950e-05
 -4.1928297e-06
  1.9308134e-05
  5.1344072e-05
 -8.3981950e-06
  1.3646105e-04
 -2.5677073e-05
  3.2036889e-05
 -1.6556404e-04
  4.5273755e-06
  4.4474909e-06
 -8.2730276e-06
  1.0049117e-05
 -1.4627091e-05
 -3.3869379e-05
  2.8234705e-05
 -1.5179229e-05
 -6.9397643e-06
 -3.1197094e-05
 -2.3737586e-05
  1.0257512e-05
 -9.2444670e-06
 -6.5454933e-06
  8.8984307e-06
 -8.8602856e-06
 -7.6533950e-05
 -1.1152547e-05
  1.0704573e-05
 -8.8242741e-05
  4.0058181e-05
 -4.8080365e-06
 -4.9334017e-06
  2.1606593e-05
 -5.5653509e-06
 -1.2454380e-04
 -4.9855148e-06
  7.9839563e-05
 -3.5540147e-06
 -5.8050358e-05
 -9.8020631e-05
  1.8862109e-05
  9.0983613e-06
  1.4845314e-04
 -7.8121553e-07
  5.1151933e-06
 -1.3060790e-05
  4.8953111e-06
  1.8556502e-06
  1.6110180e-06
 -3.9849747e-05
  3.9460258e-05
  6.6519324e-06
 -1.1356637e-05
 -1.4908292e-05
 -3.5878554e-06
  5.8982123e-06
 -2.3425372e-04
  1.9221636e-05
  8.9365312e-06
 -2.1916137e-05
  1.5007071e-06
 -2.9568413e-01
 -3.1008614e-05
  3.9544961e-05
  7.1135219e-05
 -7.3885130e-05
 -3.4510300e-05
 -7.8337907e-06
 -2.2829761e-05
  5.5721694e-06
 -8.8618872e-06
  2.9572686e-07
 -7.7363977e-05
  2.2681346e-05
 -5.6202964e-05
 -2.3114482e-05
 -1.6212716e-06
 -8.4728912e-05
 -1.6818819e-06
  7.1732957e-06
 -3.5896721e-06
 -1.8512510e-05
 -3.4835565e-04
 -4.5864195e-05
  2.9935320e-05
 -1.7827386e-05
  1.0453745e-05
 -6.8153236e-03
  1.3150838e-04
 -3.6656438e-05
 -1.7339753e-02
  2.2156039e-05
  3.5115092e-05
 -5.3092579e-05
 -2.2598004e-05
  2.6865437e-05
 -8.2925177e-04
 -2.8571241e-05
 -7.5840950e-03
  2.3644034e-05
  5.3657712e-03
 -1.1281146e-05
  1.5337432e-04
 -9.3564823e-02
 -9.0898983e-03
 -1.6224313e+00
 -2.3203005e-01
 -1.5265098e-01
  2.5957183e-06
 -2.2168151e-05
  2.9246754e-03
 -6.9749694e-07
 -2.8620216e-05
  5.6083798e-05
 -6.9757306e-08
  1.2027209e-03
 -1.8709592e-05
  3.0181574e-02
 -9.2476526e-05
 -2.8306096e-05
  2.6876241e-05
 -2.2324052e-02
  5.6573113e-05
  3.3838973e-05
  2.0035402e-05
  2.3199456e-02
 -9.8586213e-03
  2.4094477e-05
 -5.2059218e-05
  6.2073756e-05
  1.4827595e-04
  6.7769188e-06
 -1.8945111e-06
 -1.2473301e-04
  1.9144341e-01
 -3.6420715e-05
 -4.7271993e-02
 -1.1550323e+00
  1.1565455e-04
  9.3292797e-01
 -1.4671587e+00
 -9.9061853e-01
 -2.8155375e-01
 -3.6344111e-01
 -9.9934828e-01
 -3.8903909e-05
  9.8808324e-01
 -6.2213808e-01
  6.9108802e-01
  1.0256572e+00
  3.8231112e-02
  4.3155368e-02
  7.4483025e-01
 -4.5506280e-05
  1.9321003e-04
  1.2227854e+00
  6.1455250e-01
 -7.1924217e-03
  2.4138677e-01
 -6.1175340e-01
  1.9917094e+00
  9.6281797e-02
 -2.6376057e-01
  7.4449742e-01
  1.1160765e+00
  8.1486571e-01
  3.0566949e-02
 -3.1308543e-02
 -3.1270152e-01
  6.5933745e-03
 -1.7409948e-01
  6.6210109e-01
  1.3324575e+00
  3.8996717e-01
  5.4270107e-02
 -2.3914552e-03
 -5.7172808e-03
 -1.2440346e+00
  2.2404695e+00
  1.4806448e+00
 -2.5074115e-01
  9.5261341e-05
 -8.2746220e-01
  6.8339814e-06
  3.4094755e-02
  1.1064587e-05
  9.4362341e-02
  2.3290542e-01
 -4.2078397e-01
 -1.1032674e-01
  9.1132260e-06
  2.4514629e-01
  3.2809199e-04
 -9.0219152e-01
  1.4002808e-02
 -9.3463451e-02
  5.7574546e-01
 -2.5793461e-02
  3.8177809e-01
 -2.3305741e-01
 -6.6743109e-05
 -1.3109861e-05
 -7.8691264e-06
  3.9157367e-01
 -2.5082816e-06
 -7.0314964e-06
  3.8959555e-05
 -1.8267967e-02
 -2.5265535e-05
  2.4144310e-01
 -4.0064526e-01
 -4.7966182e-01
  3.2787513e-05
  1.7904319e-01
  6.0121506e-01
 -9.1641203e-02
 -8.2564467e-05
  2.1981476e-01
  9.6440077e-01
 -2.4436311e-01
  1.0038782e-05
 -8.3766568e-01
  7.5639611e-01
 -2.7252206e-01
 -2.1124283e-04
 -9.7725785e-01
  5.3621972e-01
 -2.3572635e-05
 -5.0653255e-04
 -7.9565622e-02
  4.4269580e-02
  1.7593791e+00
  2.6574941e-02
  1.8730442e-01
 -1.9214675e+00
  1.6346381e-05
 -1.1091653e-01
 -5.7221932e-05
 -4.6302655e-05
 -4.3210971e-06
 -1.5799787e-05
 -6.1662686e-06
 -2.6977864e-06
 -5.3832035e-05
  5.8738395e-05
 -6.1031398e-05
 -4.9832585e-01
 -1.4921048e-02
  2.8855029e-01
  8.7621592e-02
 -7.4901295e-01
 -8.0582994e-01
  2.9189468e-04
  6.6280447e-02
  1.0308805e-03
  5.5278879e-01
  1.8762274e-05
 -1.0382405e-01
 -1.3191075e-05
 -2.2114795e-05
 -1.0067118e-04
  3.2140022e-05
 -7.4006505e-02
  4.8747950e-04
  5.0863169e-02
 -9.5187977e-05
 -1.8585689e-04
 -3.8293037e-01
 -2.2633356e-01
  2.0637713e-01
  2.2430193e-05
  1.9724536e-01
 -9.6331887e-02
  3.3314731e-02
  2.1937017e-03
 -7.8371860e-02
  8.1254095e-02
  2.9405764e-01
 -2.5853142e-01
  5.8791739e-01
 -1.2487924e-01
 -2.7953133e-02
  6.8650061e-01
 -2.0771096e-02
 -2.3636720e-01
  6.5040970e-01
 -4.9617077e-04
  9.6276875e-05
 -4.3659426e-02
  2.5280435e-05
  7.5574876e-06
  6.5027212e-05
  1.4691200e-04
 -7.7013237e-07
 -1.6441257e-04
 -5.0728126e-05
  1.7536571e-05
  6.0953149e-05
 -3.9690829e-05
  7.3020826e-03
  1.4942527e+00
 -5.8047265e-01
  6.8457201e-02
  2.4055684e-02
 -3.0048100e-02
  2.3500298e-01
  2.1747695e-01
 -1.0398451e-01
 -3.4385341e-01
 -4.0554118e-05
  5.6069355e-02
 -2.7886483e-05
  7.9806334e-01
  1.6591599e-05
  1.4155658e-01
 -1.8237980e-01
 -2.1161103e-01
 -4.4506337e-02
 -5.2606672e-01
 -8.0539435e-01
 -3.7026189e-06
  1.4216357e-01
 -5.4990339e-01
 -2.2030811e-01
 -9.4690316e-05
  2.3717551e-01
  2.0603743e+00
 -3.0870742e-01
 -1.2515551e-01
  1.7540112e-01
  1.2621629e+00
 -4.8293117e-01
 -1.1431620e-04
  2.6482372e+00
  6.1732819e-05
 -6.5499806e-01
 -5.7157296e-05
 -4.4720581e-01
 -3.0668268e-02
  2.5395191e-01
 -4.1538468e-01
 -3.0506201e-04
 -2.2022176e+00
 -5.1527626e-05
 -5.4042959e-01
  2.2571126e-05
  3.0096253e-05
 -6.9234702e-05
 -1.5168692e-05
  6.4307630e-01
 -1.2299460e-02
 -3.5507062e-05
  2.4829040e-05
  1.1039449e-05
 -1.1626710e-05
  1.8458247e-06
 -1.9437068e-06
  4.8844548e-05
  1.8698833e-05
 -3.0942349e-05
 -5.6216883e-05
  2.5342970e-05
  2.5900559e-05
  9.1016133e-05
 -3.1085499e-05
  1.3193136e-05
  4.4244312e-06
 -7.4937539e-05
  3.1769647e-05
 -4.8666265e-05
  3.6402798e-05
  1.2012950e-05
  5.8549864e-05
  2.2191658e-05
  5.2712912e-05
 -1.1931195e-05
  1.5194434e-05
  4.9639413e-05
 -9.5378900e-06
  5.4226862e-06
 -2.2079325e-06
  7.2034061e-05
 -1.3055025e-05
 -2.9173087e-05
  4.7088542e-06
 -3.8624341e-05
 -1.1216562e-05
 -1.1062231e-05
  2.2635491e-05
 -3.3989407e-05
  2.2834985e-05
  5.7587754e-06
 -4.3834902e-05
 -5.2809602e-05
 -2.7804363e-05
 -5.2771924e-05
 -2.0853679e-05
  5.1495070e-05
  3.4064877e-05
  5.2781430e-05
 -3.2004809e-05
 -6.2994372e-06
  1.6025127e-05
 -1.6242462e-05
 -1.8858183e-05
  1.0789234e-05
  9.3049457e-06
 -5.3671101e-07
 -1.3173448e-05
 -2.2448505e-06
  1.0729538e-05
  3.7626356e-05
 -3.0936695e-05
 -5.5803525e-07
  1.5243430e-05
 -8.4842277e-06
  7.1463481e-05
  2.3355515e-05
 -3.0273728e-05
  1.1560316e-05
  1.2917432e-05
 -2.9646602e-05
  2.7190919e-07
 -1.5279770e-04
  5.4969303e-05
  1.6070682e-06
  2.5170444e-05
  2.4836616e-05
 -1.5062737e-06
 -1.0907330e-06
 -1.7594270e-05
  8.3780242e-07
  4.4985969e-05
 -1.4883676e-05
  2.2300314e-05
  1.9828076e-06
  2.4388189e-06
 -4.3512639e-05
  4.6190653e-06
 -1.8661976e-06
 -6.1137805e-05
 -2.9102002e-05
 -1.8550238e-05
  1.7460312e-05
  9.9011058e-06
 -1.0847699e-06
 -1.0732012e-05
  2.5753183e-05
  1.4382607e-05
 -3.0693165e-05
  6.5949398e-06
 -1.5924410e-05
  1.0851452e-05
  1.1946399e-05
  2.1159078e-05
  3.8356634e-06
  1.8143062e-05
 -1.9572110e-05
  5.1262552e-05
  6.3348802e-05
 -1.7731971e-05
  2.8677125e-05
  2.7210393e-05
  5.8684534e-05
 -8.5009124e-06
 -7.9069960e-06
  5.6348199e-07
  7.1434342e-06
 -1.8995750e-05
 -7.6348450e-05
 -7.0556111e-05
  7.4716827e-06
  1.0126367e-04
 -2.8904537e-05
  1.9080009e-05
  1.7975573e-05
  2.9559847e-06
  2.6488528e-05
  9.6426375e-05
 -1.6205466e-05
  1.5257310e-05
 -7.6799295e-03
  1.4744220e-04
  2.7083061e-05
 -4.0392846e-05
 -1.7214165e-04
 -6.8475069e-06
 -1.1040573e-05
 -4.3559829e-03
 -6.2495155e-06
 -5.5407483e-05
  4.8497895e-05
  1.5243775e-06
 -3.7255812e-02
  6.5782638e-06
 -4.0786567e-06
 -3.2901706e-05
  3.2772873e-06
 -2.0585248e-05
  3.3113476e-05
 -2.1617398e-05
 -3.6352125e-05
  2.3238936e-05
 -9.1366928e-05
  2.5782088e-05
  1.6780672e-04
  2.6506714e-05
 -1.6498554e-05
  1.9908555e-05
  5.7711582e-05
  1.3711158e-05
 -1.2805020e-05
 -7.0773240e-05
  2.7003818e-05
 -3.9676677e-05
 -2.2151010e-04
 -1.1071288e-05
 -6.3289808e-06
  1.7909184e-07
  3.2909807e-05
  1.9973060e-05
  2.0534371e-05
  1.1331072e-05
  2.3428674e-05
 -4.4998187e-06
 -3.5751395e-06
 -1.2675409e-06
 -1.0218007e-05
 -7.3700758e-05
  3.0841060e-05
 -8.9697030e-05
  7.1083799e-05
  4.9509788e-05
 -2.0096332e-04
  1.9507372e-05
  1.9132329e-05
 -4.5796842e-05
  3.1822798e-05
 -5.9461858e-05
  1.2489290e-05
  2.1918473e-05
  9.6140911e-06
  4.5961624e-05
 -4.4787957e-05
 -2.4922988e-06
  3.7034511e-05
  3.9937888e-05
  4.1878546e-05
  3.3325294e-05
 -1.6401602e-05
 -9.8536175e-06
  2.8623208e-05
  1.6670003e-05
  1.6097376e-05
  5.1419092e-06
  2.2119890e-05
 -2.0298417e-06
  1.6640875e-05
  3.8768034e-05
  2.9441482e-05
  1.8916384e-04
 -3.8739679e-05
  1.0752711e-04
 -2.5324989e-05
 -2.2454065e-05
  3.4598634e-06
 -5.4709373e-05
 -4.2004535e-06
 -1.1556511e-04
  1.0148824e-05
 -4.9945782e-05
 -1.7282450e-04
 -6.2254767e-06
  9.1709389e-06
 -1.5010093e-05
 -2.2564182e-05
 -6.3477448e-05
  3.5995163e-06
 -5.3761702e-05
 -3.3772662e-06
 -8.7677523e-07
 -5.2922360e-07
  2.2696895e-05
  1.5897400e-05
 -1.4837173e-05
 -2.0034375e-05
 -1.1975490e-05
  4.2693355e-06
 -3.3238961e-05
  6.9261478e-05
  2.3140521e-05
  2.0091495e-05
 -3.7984682e-05
  1.2199926e-05
  2.6223233e-07
  3.3012104e-05
  8.0951722e-05
  1.5923924e-06
  3.4599754e-05
 -4.3170839e-05
 -1.0961268e-05
  3.8073267e-07
  4.1805270e-05
  1.5545520e-04
  7.4611876e-06
  9.0078101e-05
  8.9843716e-06
 -6.2863967e-07
  1.6146445e-05
  3.7560119e-05
 -6.4808308e-05
  4.0959007e-05
  5.3170184e-05
 -9.3745675e-06
 -2.2362947e-05
 -5.5573651e-05
  1.8178480e-06
  8.6503722e-05
  4.8156335e-06
  4.1729559e-06
 -1.1387197e-05
  1.3412596e-06
 -6.5471701e-05
 -1.5198750e-05
 -9.8790024e-06
 -6.0753850e-05
  1.2372409e-04
  9.2137754e-02
  1.7264792e-05
 -4.0743670e-01
  2.7021602e-01
  1.7851938e-06
  1.2222477e-05
 -4.8284492e-05
  1.2357411e-04
  1.1778709e-04
  1.1626691e-04
  2.1039737e-05
  5.1406957e-02
 -5.3443597e-05
  7.6275510e-06
  1.1181854e+00
 -2.7591076e-02
 -1.6065007e-03
  1.0915844e-04
  1.1003518e-05
  2.8412604e-01
 -2.0073205e-02
  3.1090181e-05
  5.5920449e-05
  3.0877477e-01
  1.2812136e-05
  4.7361173e-05
 -8.5309468e-05
  1.4661480e-05
 -5.3947753e-01
  1.7004833e-04
 -6.1920595e-01
 -1.4525814e-05
 -3.3571814e-05
 -2.6491674e-05
 -1.8780764e-05
  4.9446964e-05
  1.5321519e-05
  4.7110683e-05
 -3.9182458e-05
 -4.2475276e-02
 -3.5294540e-06
 -3.8864109e-04
  5.5012538e-06
 -7.7020795e-06
 -1.0919952e-05
  7.6154101e-05
  1.9084342e-05
 -4.0541723e-05
  3.6255133e-05
  1.9946351e-06
  2.6037445e-05
  5.5831774e-06
 -1.0669963e-04
  6.0488683e-06
  1.8362109e-05
 -7.7371978e-06
  1.4120366e-05
 -2.1936185e-05
  2.1412181e-05
 -3.6894420e-05
  2.9788185e-05
 -2.5405252e-05
 -6.2255320e-05
 -5.1636067e-05
  3.9251365e-05
 -6.1808780e-05
  5.9951384e-05
 -4.5299203e-05
 -2.3679318e-05
  2.9542934e-06
 -1.3046275e-04
  7.6526758e-06
 -5.6749515e-05
 -1.2578434e-05
 -1.0951093e-06
 -6.5413865e-06
 -1.6084006e-05
 -1.6279208e-06
  9.8498182e-05
 -3.2685170e-06
 -4.6766632e-05
  7.6454162e-06
 -6.9523645e-05
  3.3256580e-05
  1.1915865e-06
 -8.7878374e-07
  2.7922351e-05
  3.6481727e-06
 -7.7395067e-05
  1.9774143e-05
  2.9506866e-05
 -3.5891877e-05
 -5.1204229e-06
 -2.4051773e-05
  2.6439533e-05
 -3.1154802e-06
 -1.5840584e-05
 -3.8365768e-05
 -1.1747212e-05
 -3.8545004e-05
  7.0077444e-06
  1.0657352e-05
  5.1545017e-06
 -4.0902758e-01
 -1.8664859e-01
  7.0253968e-01
  9.3678224e-01
  1.6269053e+00
  7.0877743e-01
  2.9607530e+00
 -9.6283352e-01
 -1.6099658e-02
  8.2031867e-05
 -1.4879974e-05
  2.2489111e-01
  1.0570236e+00
  4.5560685e-01
 -2.1584429e-01
 -5.0422268e-06
  5.1303411e-01
  3.5121781e-01
 -2.9706639e-01
 -3.4003177e-01
 -6.7552515e-05
 -2.2208576e-01
  4.1906806e-06
  6.1034864e-01
 -2.7708393e-01
  1.5221302e-01
 -1.8458013e-05
  2.2146599e+00
 -2.5494996e-01
  1.3827300e-01
 -1.7678725e+00
  3.6452806e+00
 -7.3660141e-01
  5.9707427e-01
  7.5743839e-02
  1.6148598e-01
  3.4620938e-01
  3.3486474e-01
 -5.8454561e-01
  1.8475844e+00
 -3.3352792e-01
  2.3444906e-02
 -1.0472426e+00
  1.3717571e-01
 -4.3964860e-01
 -2.5051886e-01
 -7.6269545e-04
 -2.1442660e-05
 -7.9852350e-02
  3.3953609e-05
  5.8038980e-01
 -1.5185473e-05
 -2.3290345e-01
  4.9706934e-05
 -7.7033328e-06
  5.4722164e-05
 -4.0814801e-05
  6.5316941e-05
  8.5894919e-07
 -7.3784532e-04
 -4.2865689e-05
 -1.6515634e-05
 -1.3507392e-02
 -4.5552046e-05
 -2.6279489e-05
 -6.6340617e-06
  5.7853340e-05
  8.7481894e-06
  1.9055937e-05
 -4.9898124e-05
 -2.8724853e-06
 -3.2487562e-05
 -1.9357360e-06
 -1.8246697e-05
  5.5738652e-05
  1.6157530e-05
 -9.4430819e-05
 -4.5933277e-05
  4.3417334e-05
 -5.3099324e-05
  1.7383465e-05
  1.2020986e-05
 -1.4576544e-04
 -1.0759310e-05
 -8.4398569e-05
  1.6533024e-06
 -6.9630923e-06
 -7.1153040e-06
  3.0123223e-05
 -3.0769300e-04
  9.5916675e-07
 -1.7167064e-05
 -5.3777339e-06
 -1.1228320e-04
  8.2251991e-06
 -6.0960287e-05
 -1.7728273e-05
 -3.9279756e-05
  3.2210530e-05
  2.7072469e-05
 -1.7828117e-05
 -4.7559210e-05
  2.1762535e-05
 -6.0453272e-05
 -3.3754641e-05
 -8.5362190e-06
  1.0772177e-04
 -3.5782017e-05
 -6.5275206e-05
  1.0633973e-06
  1.9720215e-05
  5.4948603e-05
  5.2113801e-06
  7.4002642e-06
 -7.8812327e-06
 -1.9165035e-04
  5.9771755e-06
  9.1623508e-05
 -3.0046083e-05
  9.8305345e-06
 -4.8322290e-05
  1.5678228e-04
  3.4359156e-05
  2.2705770e-05
  8.5348956e-06
  8.5049305e-07
  2.7277483e-06
  1.6884120e-05
 -3.3142182e-06
  5.2520831e-05
 -9.3185772e-06
 -7.5965345e-06
  1.3191546e-05
  1.2821930e-05
  3.1096140e-05
  2.5956856e-06
  4.2399852e-06
 -1.1120048e-04
  1.0453053e-05
 -3.1608550e-05
  2.8543950e-06
 -8.3347395e-06
 -5.2200943e-05
  5.3009200e-05
 -2.9578227e-05
  1.8365241e-05
 -1.5838787e-06
  1.4512443e-07
  6.5690901e-06
  6.6383094e-05
  3.7539729e-05
 -1.6391554e-05
  1.1841435e-04
  6.2081658e-06
 -5.2513449e-05
 -5.5509183e-05
 -5.7296220e-06
 -4.2215870e-06
  2.4684000e-06
 -3.6880818e-05
 -5.0394628e-05
  2.3401901e-05
 -1.0843827e-01
  2.2423356e+00
  2.8730240e-01
  1.0073143e+00
  1.8695107e-01
  1.1718341e+00
 -1.6379634e+00
  3.1101757e-01
  6.9630772e-01
  3.5195259e-05
 -2.2682346e-01
 -3.4311241e-01
  3.9567593e-01
  1.5682817e-02
 -1.0928672e-04
 -5.0045137e-06
 -5.6673622e-01
  6.7979240e-01
  2.3119416e+00
 -1.3426825e-01
 -3.4946671e-01
  6.5026283e-01
 -1.5652580e+00
  3.3067853e+00
 -1.3748517e+00
 -1.5292224e-01
  2.9665360e-01
  2.2541513e-01
  4.5386481e-01
 -8.9696312e-01
 -1.9123583e+00
 -2.1515419e+00
  1.5834968e+00
 -5.1580489e-01
  6.8641984e-01
 -1.9304658e+00
 -3.5270467e-01
  8.1836037e-02
  5.5063263e-02
 -6.8861258e-01
 -1.8299605e+00
  9.6031167e-02
 -3.9122248e-01
 -5.1609778e-01
 -1.0036029e+00
 -1.2637393e-05
  1.5809062e-05
 -7.2687137e-05
 -2.8264108e-06
  2.4206191e-01
 -2.7571222e-01
 -1.9831030e+00
  2.3284583e-01
  7.3817497e-01
 -6.0166158e-02
  1.1878544e+00
 -2.6274096e-02
  1.4996912e-01
  1.1386011e+00
 -2.8641152e-01
  5.2057964e-01
  1.6237410e+00
 -4.1998286e+00
  2.8880020e-05
 -4.7132087e-01
  8.7692076e-04
  1.2647212e-01
 -8.1658387e-01
  1.0530502e-01
 -8.8579531e-05
  2.2900542e-02
 -8.4532105e-05
 -5.1303643e-01
  3.5756540e-02
 -4.6022487e-01
  5.1930374e-01
 -6.4556850e-03
 -2.2976466e-03
 -1.3962680e-01
  1.3515317e-01
  1.5774040e-02
 -1.1336257e-01
  2.2231440e-01
 -2.5813427e-02
 -5.2995891e-03
 -1.7254170e-02
  1.0983117e-01
  1.2738189e+00
 -1.3866132e+00
  2.5978145e-01
 -6.1784178e-01
 -8.4400052e-01
 -3.9625639e-01
  1.2812401e+00
  2.3384723e-01
 -3.3771187e-02
 -1.1580051e+00
  3.1596243e-01
 -6.6074885e-02
  3.8410822e-06
 -5.1769678e-02
  5.1237254e-05
 -6.8958369e-05
  1.3222661e-05
 -3.0051833e-02
 -1.8874407e-01
  5.0780294e-03
  1.2808835e-05
  1.2652568e-05
 -2.0033147e-05
  8.1249273e-06
 -1.4402931e-05
  1.8543898e-05
 -2.0202648e-05
 -1.4350670e-04
  5.2558812e-06
 -1.3443531e-05
 -3.2570490e-05
  1.5210859e-05
  1.0672596e-05
  4.3568093e-06
  1.3042500e-05
 -1.3714910e-05
 -3.7881488e-05
  7.7139202e-07
 -5.7085184e-05
  3.7408849e-05
 -1.7789846e-05
 -2.0010602e-05
 -1.8722742e-05
 -3.5032223e-05
  4.2007297e-05
  1.9240200e-05
 -6.3387371e-05
  4.1939071e-05
  4.4728636e-06
  2.0527648e-06
  4.9286165e-05
 -8.9311688e-05
 -1.2057219e-04
 -1.9734517e-04
  6.6399657e-06
  4.9258883e-06
 -6.7353838e-05
 -7.8118239e-05
  1.2978076e-05
  3.8671347e-05
 -2.3759048e-05
  1.0959912e-04
  7.6791373e-05
  8.6477441e-05
  8.7041713e-05
 -4.0376344e-06
 -2.6372959e-07
  7.7912391e-06
  6.2493782e-06
  1.2571101e-05
  4.6228452e-06
  4.7436293e-05
  9.5180709e-05
  6.0278489e-05
 -4.9811292e-06
  6.3252301e-06
 -2.7563419e-05
 -5.4900491e-05
  2.8191896e-05
  8.1986815e-05
 -3.4736848e-05
  6.6456210e-05
  1.0539266e-05
 -8.0948135e-05
  3.5892619e-05
 -2.0619958e-05
  3.5780617e-05
  1.2950989e-05
  1.6134469e-05
  2.4853638e-05
 -1.3121207e-04
 -5.9462177e-06
  2.7755419e-05
  5.7211229e-05
  7.9472404e-05
  2.5398540e-05
  2.6367994e-05
 -1.5981373e-06
  1.7190068e-05
  1.6862092e-06
  6.9920161e-06
 -5.8976325e-06
  2.2017324e-05
  1.5984106e-06
 -2.7961723e-06
 -6.9334812e-05
  5.1051233e-05
  3.1073032e-06
  2.0144995e-05
 -1.6472726e-04
 -1.8607217e-05
 -8.1004900e-06
  8.1464186e-06
  1.6095410e-05
 -4.2405529e-05
  3.0170795e-05
 -3.4762525e-05
 -2.1580699e-05
 -1.0795138e-05
 -2.4088678e-05
 -1.1571744e-06
 -1.4793377e-06
 -1.8552708e-05
  2.5314921e-06
 -1.2919616e-05
 -2.0217878e-05
  1.6389095e-07
  2.7216956e-05
  9.2922096e-07
 -2.4217257e-05
 -1.1664230e-07
 -1.2508158e-04
 -3.2890348e-06
  7.1035902e-05
 -2.0973979e-05
  1.0938023e-05
  7.8401572e-06
 -1.4943173e-06
 -6.5933593e-05
 -5.9809499e-05
  1.2555631e-05
 -1.2758896e-06
 -5.8143141e-05
  1.3579459e-05
 -1.1892062e-04
 -2.0431395e-05
  2.3560237e-05
 -1.4132084e-05
  3.2411768e-05
  9.2936294e-05
  1.8643968e-05
  1.8767543e-06
  1.6753340e-05
  4.9511284e-05
  4.4094424e-05
  1.4656727e-05
  6.7264409e-06
  2.1386179e-01
  2.5494532e-05
  4.8767433e-06
 -2.4452984e-06
 -3.6699719e-05
  8.3108427e-04
  2.0654776e-05
 -3.9681019e-03
  9.3062795e-08
 -2.3017747e-05
  1.5977401e-05
 -7.0630849e-06
 -2.4626532e-05
  5.3847998e-05
  2.0636407e-05
  2.6552082e-04
  1.0611377e-05
  2.6320027e-05
  9.4109282e-08
  6.7457207e-05
  1.9272111e-06
  2.7286605e-06
 -5.1792627e-05
 -4.9370256e-06
 -2.5013231e-05
  2.1752336e-05
  4.5434070e-01
 -1.1064659e-01
  6.0944337e-01
 -1.6819328e+00
  1.2326300e+00
  1.0580180e+00
 -3.4500161e-01
  3.3431745e-01
 -1.1039785e+00
  6.7906576e-06
 -1.2280203e+00
  5.2659285e-01
 -2.9121646e-01
 -9.1168809e-01
 -2.9957409e-03
 -8.8303736e-05
 -3.4847084e-01
  1.1180701e-03
 -1.4608040e-01
 -1.0322292e+00
  2.4686437e+00
 -7.5043446e-01
 -4.0541857e-01
  6.4904034e-01
 -2.4699008e+00
  4.8350328e-01
  2.9854506e-01
 -9.0362021e-04
 -1.7421094e+00
  1.8178021e+00
 -4.7037646e-01
 -7.8073107e-02
  1.2598318e+00
 -1.2442484e+00
  8.7883607e-02
 -5.6160921e-01
 -1.7821714e+00
 -8.2215250e-01
  1.2002196e+00
 -4.8538038e-01
 -5.2178335e-01
  1.4003620e+00
 -1.7359348e-01
 -9.5914453e-02
  3.7931238e-04
 -4.0773102e-05
 -5.6914989e-05
 -1.2380603e-01
  8.7703647e-06
 -6.1915384e-06
  1.3699988e-01
 -8.7690596e-06
  1.0265771e-01
  1.6192201e-04
 -2.9068624e-05
 -1.2449361e-01
 -3.6718006e-06
 -6.1534995e-01
 -3.1606457e-01
 -1.8048597e-02
  3.2215145e-01
  2.2400591e-01
 -3.2555051e-02
 -1.7119728e-05
 -2.5343700e-04
 -1.6532245e-05
  1.3957851e-05
  4.3603849e-01
  6.2498184e-05
  6.4315500e-05
  8.2881093e-02
 -5.1265187e-04
  1.0834374e-01
 -6.8528838e-02
 -3.0609446e-02
 -1.3181111e-03
 -9.4909032e-05
  3.8120404e-03
  9.2244488e-01
 -3.2180288e-01
  1.2921874e-05
 -2.6843056e-02
 -9.4376200e-01
 -3.7144557e-01
  4.7359168e-05
 -1.8284694e-04
 -1.2037276e-01
 -1.3919128e-01
  7.3367348e-03
  2.4641147e-01
  3.2363915e-01
  4.6960720e-01
 -1.8021373e-01
 -2.4128172e-05
  2.8231081e-01
  8.0645390e-02
  2.4333234e-01
  2.1563049e-02
 -6.6341095e-02
  3.0413770e-05
 -6.4162187e-02
 -3.2786324e-05
 -6.3174106e-05
  7.7170998e-06
  1.3277572e-04
  2.1130687e-05
 -4.9560772e-06
  1.0571156e-05
 -1.0607288e-03
  9.8819524e-01
  1.2340743e-01
  3.7809709e-01
 -9.9440508e-02
  8.0332175e-02
  7.9404175e-01
 -2.0757219e-01
  4.7056541e-01
 -3.1142834e-05
  6.3725398e-05
 -9.8972337e-04
  2.0689426e-02
  4.1775755e-03
  2.7023736e-01
  4.4176188e-05
  2.4481462e-02
 -2.2437239e-04
 -2.5389940e-05
  1.3881948e-02
  1.5118552e-02
  1.1532542e-01
  2.4033219e-01
 -2.8224926e-05
  3.1985170e-01
  1.7533308e-02
  2.0002244e-05
  8.0888815e-02
 -5.7542950e-01
  1.3181195e-05
  1.6780796e-05
 -1.2269309e-01
 -6.6279717e-05
 -3.3572412e-01
  6.3938792e-06
  1.6542424e-01
  4.7873160e-01
  1.8774705e-01
 -2.9091712e-03
 -5.4988363e-06
  5.0856197e-01
  1.3051831e-02
 -4.8993769e-01
 -3.9277863e-02
  5.9156600e-02
 -3.2662006e-06
 -5.5405735e-03
 -1.4366678e-05
  2.4331685e-02
 -4.3128435e-05
  2.5040389e-03
  2.4845047e-01
 -1.3543533e-01
 -3.2876630e-04
 -1.4679012e-01
 -1.2023358e-01
  2.9177081e-02
  1.2780592e+00
 -9.8231286e-01
 -2.9937031e+00
 -1.4497609e+00
  1.2158863e-02
 -4.5470586e-01
 -4.2567975e-05
 -7.6477104e-01
  1.9082959e-03
 -6.5945649e-01
  1.8585179e-05
 -2.6117709e-01
 -2.1298635e-01
 -2.3062921e-01
 -5.7518780e-01
 -4.8384553e-01
 -3.6802506e-01
 -1.4849865e+00
  6.3106060e-01
 -1.5090561e-05
  1.1878132e+00
  2.4733511e-01
 -1.1728207e-01
 -1.8129927e-04
  6.5363556e-01
  1.7594639e+00
 -4.0846354e-01
  3.4385029e-02
  6.1074281e-01
 -1.7872769e-01
  1.1342264e+00
  1.4708695e-04
 -2.1504614e+00
 -3.2243162e-01
 -1.2154640e+00
 -3.8928539e-01
 -5.8184361e-01
  6.7813766e-01
  8.5010004e-01
  1.8643262e-02
  4.0758017e-01
 -1.1696850e+00
 -5.1873889e-02
  9.2193572e-05
  3.8865364e-05
 -3.0352452e-01
 -1.6580807e-05
 -1.5277553e-02
 -4.4978129e-05
 -7.6724485e-02
  6.1835919e-05
 -1.0669361e-04
 -5.4567558e-01
 -7.6547260e-03
 -1.1829661e+00
  1.0856558e+00
  1.7472178e+00
  7.5068182e-01
  9.8955399e-01
 -8.3179243e-02
 -4.6456184e-06
  1.4329292e-01
  8.0821101e-06
  2.4625777e-05
  4.2571296e-06
 -7.7573335e-05
  2.5118119e-03
  7.6513614e-05
  5.3052690e-02
  3.9885439e-05
  7.7444851e-02
  6.4062810e-01
 -6.2019756e-04
  4.0154254e-01
 -2.6233351e-01
 -1.1596992e+00
  2.8791851e-01
 -3.5070821e-05
  9.0376806e-01
 -2.9718850e+00
  1.1839296e+00
  3.9747190e-01
  8.8531590e-01
  3.5545263e-01
 -1.0480655e+00
 -1.3023800e-02
 -1.4461596e+00
  2.1252938e-02
 -1.6750345e-01
  2.7526933e-01
 -1.5395420e-03
  1.0196219e-01
  3.6569977e-01
 -1.4032748e+00
  1.3796940e-01
  1.9485693e-05
 -2.3530835e-04
 -5.8855388e-05
  4.2616241e-05
  1.1155582e-05
  4.4577413e-05
  1.1367990e-04
 -6.4013863e-01
 -7.3195355e-05
  1.4135292e-05
 -1.9268594e-04
 -2.2009544e-06
  2.8916769e-05
  7.0069887e-05
 -4.2772626e-05
 -7.4233118e-05
  1.1544544e-06
 -7.8125659e-06
  1.2669663e-05
  9.1214970e-05
  4.6226352e-05
 -2.3493943e-05
  1.1132341e-05
  1.2241324e-05
  3.6984962e-05
  4.4637283e-05
  7.4692747e-05
 -1.1564432e-06
  4.0951554e-06
  6.5520231e-05
  6.5632626e-06
  7.2321734e-07
 -2.9509581e-06
  1.0131966e-05
 -3.5155648e-05
  1.1717429e-05
 -2.6660835e-05
 -1.1224024e-05
 -1.1872853e-05
  1.6987299e-06
 -1.1544889e-05
 -5.6662325e-06
  1.0543222e-05
 -1.2778517e-05
  5.2766286e-06
  3.0874635e-05
  2.0849402e-06
  5.1673102e-05
 -5.9211920e-06
  1.0087571e-05
 -3.3408985e-05
  9.6868853e-06
 -3.3591466e-05
  1.0993553e-05
  3.8918271e-05
 -2.3099294e-05
  3.4458724e-06
  1.4024571e-04
  2.0496083e-05
 -4.5735287e-05
  1.6079971e-06
  3.7445636e-05
 -1.3560225e-06
  3.3876986e-05
 -1.6015565e-01
 -1.1605545e+00
 -4.1437939e-02
 -1.3164884e+00
  1.8754112e+00
 -4.8828915e-02
 -3.6453164e-01
  8.4429353e-01
 -1.5613165e-01
  1.4591700e-05
  1.1198233e-01
 -6.3250272e-04
 -3.6203915e-01
 -3.5227938e-05
 -5.4251015e-01
  2.0010364e-01
  1.5003510e-05
 -3.9933110e-03
  7.3656578e-05
  1.6585018e-01
  4.3160859e-01
 -8.5634731e-02
 -4.4535373e-05
 -3.7334937e-01
 -3.9433308e-02
  2.5352958e-01
  5.5036518e-05
  5.4304802e-01
  1.4729437e+00
  3.3812012e-05
  5.0076789e-05
 -1.8963346e+00
  1.1123489e-02
  1.8406124e+00
 -8.3395712e-02
 -1.1803294e+00
  6.9436675e-01
  9.9254364e-01
  3.0816449e-05
 -3.1909179e-02
  1.1417728e-01
  2.7405522e+00
 -2.0049821e-01
 -3.3493754e-01
 -7.8427929e-01
 -3.4284863e-06
  1.2012214e-04
 -9.8380551e-06
 -3.9380975e-05
  1.3034258e-05
 -3.4265951e-04
 -3.1422782e-01
  1.3883500e-03
  4.0212444e-06
  3.3027474e-05
  6.6420926e-06
 -1.9085826e-05
 -1.3332254e-05
 -6.0150604e-05
  2.2192318e-05
  3.3733886e-06
 -6.6481865e-05
  3.7870974e-05
  8.9285550e-06
 -7.6758042e-05
  1.3546016e-05
  1.1639308e-05
 -4.4804339e-05
 -1.3145970e-04
  6.4545761e-06
 -3.7626658e-05
  4.2414067e-05
  1.2186955e-04
  1.0106141e-06
  1.7275541e-07
  9.8837263e-06
 -1.3682251e-05
  3.2209402e-05
  2.1476630e-05
 -7.9788806e-06
  2.3692141e-05
 -3.0868872e-05
  3.9043106e-02
  7.1332062e-05
 -3.8502989e-05
 -2.0784531e-05
 -4.7804820e-05
  4.9610826e-06
  4.7171479e-06
  1.2395560e-01
  2.2570139e-06
  6.5025961e-05
  8.9482564e-06
 -1.2583777e-05
 -7.8785226e-05
  1.0790872e-04
 -5.2325708e-05
  4.4968933e-06
 -3.4845143e-06
  4.3436485e-06
  6.1894782e-05
  6.3320454e-06
 -8.0918153e-06
  6.0723596e-07
 -5.3827080e-06
 -3.7503829e-05
  1.8528103e-06
  5.3706426e-05
  1.5101832e-03
 -1.0398604e-03
 -5.4961983e-03
 -2.4019493e-02
  1.5331477e-02
  1.5225012e-03
 -6.8998352e-02
  2.6806421e-03
  9.4741881e-05
  2.9520050e-01
  2.5311096e-03
  8.4188590e-03
 -2.5184337e-02
 -1.0985066e-01
 -7.8897610e-02
 -3.7103217e-02
 -7.5839974e-02
  1.8855186e-02
  1.0945447e-03
 -1.7395273e-02
  5.3937249e-02
  1.3630233e-02
 -6.2353607e-02
 -1.2165002e-01
 -1.1898855e-01
  1.5475106e-02
  6.3634947e-02
 -2.2933191e-02
  1.0679683e-03
  1.2267255e-01
 -6.7045209e-03
  1.3344121e-03
  3.2042821e-03
  1.6301103e-02
 -8.5562237e-02
  1.0411426e-03
 -2.0039602e-01
 -1.0082302e-01
  3.7551019e-02
 -3.4885426e-04
 -1.2015756e-01
  1.4872655e-02
 -7.2529889e-03
  4.4650991e-02
  7.5285994e-02
  9.9341124e-02
  9.2137113e-02
  4.3045003e-02
 -4.8164248e-01
  1.5618420e+00
 -1.6200585e-02
 -1.5743221e-01
  8.7925181e-02
  1.1000935e+00
 -2.3900497e-05
  8.3103232e-06
 -9.8452338e-06
  3.3440210e-05
  1.0241028e-05
  1.7682994e-05
  8.7510372e-05
 -7.2101020e-06
 -5.8290716e-06
  7.6006199e-06
  1.1223484e-05
  5.7922089e-06
  7.1742674e-05
  1.8085006e-05
 -1.2052341e-05
 -4.2262782e-06
  1.7117527e-06
  5.8534257e-05
 -1.3193709e-05
 -6.3780340e-06
  5.6468934e-06
  1.7055874e-05
 -4.1003686e-06
 -4.0913888e-05
  1.1035634e-05
 -2.7667404e-05
  1.2210883e-04
  3.7869311e-05
  1.1636806e-05
  2.3743472e-05
  2.6205871e-05
  9.2708899e-05
 -8.9329689e-05
 -5.7432902e-05
  5.9407569e-07
 -3.9832084e-05
  6.8147827e-05
  3.1555275e-05
  6.2439096e-05
  1.9731942e-07
  1.0155773e-05
 -9.7302370e-07
 -3.3335062e-05
 -1.7614228e-07
 -4.2058648e-05
 -3.6471724e-06
  7.1396471e-06
 -3.1155163e-05
 -1.5606743e-06
  8.4471067e-05
 -1.4870950e-06
 -4.6472742e-05
 -6.2614595e-06
 -1.4844794e-05
 -1.1136106e-02
 -7.3738915e-01
  9.4009471e-01
  7.2207980e-02
  1.4855801e-01
  5.9090757e-01
  6.6075200e-01
 -6.9232695e-02
 -1.9626275e+00
 -1.7362585e-05
  1.4410016e-05
  7.7717137e-01
 -7.1583752e-05
  1.3636895e-01
 -6.4710025e-06
 -1.0661151e-04
 -7.3821918e-04
  4.4550212e-05
  2.4303606e-02
  1.7708231e+00
  2.5856670e-04
 -1.1767670e+00
  4.3425796e-05
  1.7347775e-01
 -1.9702602e-06
 -4.1883969e-01
 -2.9479891e-01
  1.0584898e-02
  1.4135247e+00
 -9.4384819e-02
  2.5362104e-01
 -1.3738450e-02
  4.1759899e-01
 -8.3376455e-01
  7.9375133e-02
 -1.3216043e+00
  3.4723966e-05
  8.6639649e-01
 -3.6121026e-01
 -1.0923955e+00
 -1.0256830e+00
 -8.8152796e-01
 -8.2031250e-01
 -5.9017920e-01
  1.5967786e-01
  3.4025688e-05
 -1.7079282e-01
 -7.5782067e-05
  4.0931613e-04
 -1.0523525e-05
  2.1087033e-04
  1.5016046e-01
  2.4252480e-02
  5.1319046e-05
 -7.2504827e-06
  5.6455396e-05
 -2.0724775e-04
 -2.3160499e-05
  1.3135068e-05
  2.7546856e-05
 -1.1750254e-04
  4.4042699e-05
 -8.7243912e-05
  1.2241060e-07
 -5.2169933e-05
  6.9339323e-05
  4.0611030e-05
 -1.4187456e-05
  3.8004055e-05
  9.6190692e-05
 -2.1294172e-05
  6.0579594e-05
 -2.3488157e-05
 -5.1009923e-05
  4.3914290e-05
  6.8136702e-05
  4.9565983e-06
 -5.8286521e-05
 -5.4021977e-05
  7.5356227e-05
 -5.0754288e-06
 -3.2942378e-05
 -1.6198632e-05
 -1.5641912e-05
  3.5101246e-05
 -6.0519146e-06
  2.2808608e-05
  2.1525613e-05
  1.6266154e-05
  9.2018436e-06
 -4.1947911e-05
  6.5690918e-05
 -4.3756108e-06
  8.8392926e-07
  1.1346739e-05
  7.9800584e-06
 -7.7685554e-06
  2.0517841e-06
 -1.2323854e-05
 -1.1141189e-05
 -6.5780579e-05
  4.9959031e-05
  7.2947834e-05
  3.0877014e-05
 -6.4757464e-06
  1.4891723e-05
 -4.6391051e-06
 -1.1444245e-05
  1.6386768e-05
  9.7830860e-05
  5.5252895e-06
  7.2132956e-05
  7.2217490e-06
  4.1851406e-05
  7.2869495e-02
 -1.2432513e-01
  1.1875872e-05
 -1.6331491e-04
 -1.3013644e-04
 -3.7562928e-05
  4.6026122e-05
  2.8751208e-03
  1.6598776e-04
  7.5701137e-06
  2.5619590e-04
  9.8550654e-06
  5.0713124e-06
 -1.2400206e-05
 -3.8756580e-06
 -2.1557467e-02
  3.7059761e-04
 -4.4863707e-05
  6.7313027e-05
 -7.2923070e-04
 -5.2443406e-06
  3.4871196e-06
 -1.7501772e-03
 -2.2344336e-04
  1.1068379e-05
 -4.1167947e-05
  6.8802841e-02
 -5.3241156e-02
  1.7887021e-05
  7.8687473e-05
  3.4211087e-03
  2.9448009e-05
 -9.6118994e-05
 -1.9238453e-04
 -6.8704876e-06
  3.7438233e-05
  7.6411081e-05
 -5.7610511e-03
  3.1566738e-05
  3.7824007e-06
 -4.7376281e-05
 -6.2483377e-07
 -1.6003880e-05
 -4.2969314e-05
  3.8702157e-05
  1.9819733e-04
  9.8643708e-05
 -1.4639905e-04
  3.7399818e-06
 -7.2669623e-05
  1.7661256e-04
  2.6858115e-06
  4.3089167e-06
  7.0462841e-07
 -6.0706034e-06
  4.0424700e-05
  7.4176382e-06
  4.7877031e-05
  6.3507546e-06
 -3.6501395e-05
  1.4553471e-05
  1.7408878e-05
  6.7843604e-05
  4.2249962e-05
 -2.1283115e-05
  2.1841784e-04
 -5.5578246e-05
  1.2424699e-04
 -6.2519262e-05
 -3.7448237e-05
  6.8318882e-06
  1.1281798e-05
  1.2036933e-05
  2.1326146e-05
  2.0025464e-05
 -4.5094948e-05
 -4.0979576e-05
 -6.0538485e-05
  4.2840802e-06
  3.4996348e-05
 -1.7712860e-05
 -9.2723845e-03
 -1.1004420e-05
  1.3241549e-06
 -5.8633650e-06
 -1.2915827e-05
 -1.4908707e-05
  9.8667078e-06
 -1.2703773e-05
  3.2577929e-05
 -3.2020303e-05
  4.0064306e-06
  1.5449456e-05
 -1.4971763e-05
  1.9909987e-06
 -5.6192537e-05
 -2.9314187e-05
 -3.8252099e-05
  3.2951026e-05
  1.7215993e-06
  4.8838447e-06
 -2.0154428e-05
  1.5890331e-05
 -7.7146273e-05
  1.0011850e-06
  2.2186667e-05
 -1.0030995e-04
  2.8472229e-07
  6.4679161e-06
 -3.8403700e-06
  4.9352548e-06
 -8.0348000e-06
  2.4097967e-06
  1.3313910e-05
  1.7554858e-06
  1.6879637e-06
 -7.1734241e-05
 -2.6868202e-07
 -2.2736020e-05
  2.2730268e-05
 -5.9081300e-05
 -3.1163974e-05
 -2.1186046e-05
 -1.0503782e-05
 -4.5302764e-05
 -1.7246828e-05
  8.1125974e-05
  6.0708458e-05
 -1.9125026e-05
 -9.3321423e-06
 -1.1993233e-04
 -2.6610032e-05
  1.3135934e-04
 -1.1209104e-05
 -1.3291552e-05
  7.4411737e-06
  2.2476083e-06
 -4.3884658e-05
  1.1942471e-05
 -4.5967536e-06
 -6.7588799e-06
  6.7360288e-06
  5.4743632e-05
 -1.7305651e-05
 -2.6870359e-05
 -9.0527301e-06
  7.9811412e-07
 -2.5444047e-06
 -4.9418013e-06
 -9.8005776e-06
 -4.9825553e-06
  2.1908336e-05
 -5.2385836e-05
 -1.4947658e-05
 -8.3778999e-05
  2.1487582e-05
 -8.6172768e-05
  9.9549825e-06
 -7.3481215e-07
 -5.9872320e-05
  7.5959993e-06
  7.1035480e-05
  1.2259935e-05
 -4.8371649e-06
  8.7636188e-05
 -1.2443276e-04
  2.4592716e-06
 -5.8919140e-06
  4.2257852e-07
  2.2140299e-05
  1.2319283e-04
 -4.5370623e-05
 -2.5772988e-05
 -3.2421183e-05
  1.9735695e-05
 -2.5047797e-05
  7.6109163e-06
  1.0616047e-06
  6.4692422e-06
  2.9039873e-05
  3.7339618e-05
 -1.8844055e-05
  6.5243421e-06
 -3.0094041e-05
  4.2197877e-05
 -4.9617272e-05
 -2.4579365e-05
  7.9530419e-06
 -6.6070243e-07
 -1.2156279e-04
  2.2250113e-05
  2.7198481e-05
 -1.1556749e-05
  1.3424415e-05
 -2.5149593e-05
 -1.6386156e-06
 -9.8890041e-08
  2.1226908e-05
 -9.1369848e-06
  6.9149384e-05
 -2.1381652e-06
  6.3415049e-05
  2.6948151e-06
 -2.0328052e-05
  7.3781503e-06
  1.7156053e-05
  3.9336413e-05
  5.2918034e-07
  2.0360030e-05
 -1.1834783e-05
  7.8774692e-06
  7.3326562e-05
 -5.6932354e-06
 -7.4879763e-06
  4.0367602e-05
  1.9476640e-05
 -5.7012458e-06
 -1.9962612e-05
  1.5105726e-05
  4.1730268e-06
 -5.1893050e-05
 -1.1234870e-05
  2.0474447e-05
  8.4656764e-05
  3.3391767e-05
  2.4256564e-05
 -2.8426879e-05
  1.6640638e-06
  2.7618385e-06
  4.1270082e-06
 -4.6195157e-05
  9.1340726e-06
 -1.6823402e-05
 -5.2027049e-06
  3.9939881e-05
 -1.1438478e-05
  4.5376863e-05
 -2.1626265e-05
  6.6679320e-05
 -6.1941668e-05
 -7.5491744e-06
 -1.0443527e-05
 -7.3225856e-05
  4.0252900e-05
 -3.8646507e-05
 -3.9398092e-06
 -7.5919747e-06
 -1.0365246e-04
 -4.4594850e-05
 -3.5943285e-06
 -3.6825539e-05
 -1.2829127e-04
 -3.9588085e-05
 -5.5300488e-06
 -3.4257007e-06
  2.2536997e-05
 -5.4319781e-07
 -3.7559905e-05
 -2.3021472e-05
  1.4360794e-05
  1.1490866e-05
  1.1337164e-05
 -8.8269015e-05
  3.5121790e-05
  3.8728868e-03
 -2.6495293e-02
 -1.6261436e-01
 -3.7308973e-01
  1.4988400e-01
  5.5238381e-02
 -3.7169608e-01
  2.1460476e-04
 -4.9335044e-02
  3.9650694e-01
  6.2311059e-03
 -2.5118754e-04
 -1.2625238e-01
 -2.0396936e-01
 -5.9692562e-02
 -3.7802703e-04
 -4.2738076e-02
  5.2871037e-02
  4.0632644e-04
 -5.1115756e-03
  2.6263371e-01
  1.0791441e-03
 -1.5068416e-02
  1.8155381e-02
 -8.9830048e-02
  2.7795410e-02
  3.6013070e-02
  1.6833162e-03
  3.0733388e-02
  7.4814931e-02
  1.5705088e-02
  3.2472845e-02
 -4.0884915e-01
  4.5911402e-01
 -1.0244139e-01
  3.2920989e-01
 -4.2742911e-01
  9.8747082e-02
  1.0744419e-01
 -1.3740313e-02
 -1.3760048e-01
 -5.1157631e-02
 -1.3752431e-03
  9.1256788e-03
  7.7873975e-02
  2.6827678e-04
  1.8384585e-01
 -1.3213514e-05
  2.7081503e-03
  7.4352637e-02
 -3.1492509e-02
 -7.4310049e-02
  8.9684024e-02
  9.7304992e-03
 -1.4757662e-05
 -5.2343057e-06
 -3.8147726e-05
  5.3786905e-05
  2.6259942e-05
 -3.2223159e-06
 -5.0088211e-06
 -3.1437539e-05
 -4.1052976e-05
 -5.9888353e-05
 -4.0717412e-05
 -7.0654096e-06
 -7.4246556e-05
 -3.8837698e-05
  2.5463266e-06
 -1.8897399e-05
 -1.1828144e-05
  6.0471270e-06
  2.4860537e-06
  1.1028785e-06
 -1.7923992e-05
 -1.8912145e-06
  2.3360786e-05
  3.5080448e-05
  2.7895652e-05
  2.8188836e-06
  1.9419895e-07
 -4.2321939e-05
  4.3739252e-05
 -7.2396483e-06
  1.8700379e-05
 -9.5734204e-06
  2.2146971e-05
 -6.8675792e-05
  9.7665608e-05
 -4.2085394e-05
 -1.5429828e-04
  5.9645972e-05
  4.0100644e-05
  2.9353194e-05
  5.1519137e-06
 -7.1941201e-07
  4.5891880e-05
 -1.7853382e-06
 -9.7077464e-06
  1.0575582e-06
 -6.7061323e-05
 -2.3141782e-05
  7.7196264e-06
  1.7827088e-05
 -1.0782217e-05
  2.6833788e-05
 -7.5072632e-05
 -1.6272779e-05
  8.8529468e-06
 -1.2630440e+00
 -6.1243379e-01
 -8.0520099e-01
  1.7070352e-01
  1.1530532e+00
  1.1623597e+00
 -1.3441643e+00
  1.1955439e-01
 -2.3710454e-05
 -5.0763931e-05
  2.9328701e-01
 -1.4637775e-05
 -2.2149163e-05
 -1.1710078e-05
 -2.6390153e-05
  3.0213091e-01
 -3.1014039e-05
  3.8661223e-05
 -1.9488988e+00
  4.2961350e-05
  7.6275664e-06
 -2.3575753e-04
 -3.6286139e-01
 -1.2027278e+00
 -3.9161503e-01
  8.2917754e-03
  6.1893904e-01
  4.1646370e-01
  3.9323857e-01
 -5.4813898e-01
 -3.4345382e-01
  7.4133915e-01
  1.6030846e-02
 -1.7039417e-01
 -1.1506497e+00
 -2.3717113e-01
 -5.3775630e-06
 -9.0588093e-02
 -2.4795318e-01
 -6.6870513e-07
 -4.4640893e-01
 -4.4757152e-01
 -2.4548763e-02
  2.2045057e-05
 -3.8741513e-05
  1.3690689e-04
 -9.3882172e-06
  6.6268134e-05
  9.5246778e-06
 -1.0432769e-04
 -1.9887506e-05
  2.5687182e-01
 -1.5517226e-05
 -1.2094915e-04
 -4.3644166e-05
 -2.3363395e-05
  5.7684949e-05
 -1.8652021e-05
 -5.5040800e-05
  1.9104442e-05
  1.0794314e-05
 -6.0721242e-05
  1.3004959e-05
 -1.7194889e-04
  1.4315562e-05
  1.4337509e-05
  5.4711984e-07
 -7.3935407e-05
  1.2635482e-05
 -5.1514721e-06
  1.2375592e-05
  1.2138755e-05
 -3.2882417e-05
  1.4151180e-05
  1.1691686e-05
  6.8620255e-05
 -1.2633809e-05
 -3.9879411e-05
 -3.2067746e-05
 -2.6847634e-05
  1.5452981e-05
 -1.0513850e-06
  2.3177627e-05
  5.8752139e-06
 -5.3924746e-06
 -1.3627080e-05
  4.6064950e-05
 -2.4427379e-06
 -2.4628795e-05
 -3.7192516e-05
 -1.1469895e-05
  2.2299816e-06
 -1.0020047e-05
 -1.9271556e-05
 -1.0753824e-05
  6.3186453e-05
 -1.6912248e-06
 -6.9387126e-05
 -6.4562769e-06
  2.4720926e-05
  9.1413669e-05
  8.5245974e-06
  3.9462930e-07
  6.8569439e-06
  1.2622141e-05
  1.5407906e-05
 -1.2962519e-04
  1.4068862e+00
 -7.2329789e-01
  5.0870940e-06
 -2.2756858e+00
  9.9097490e-01
 -1.0423007e-04
  5.1862121e-06
 -1.1084201e-04
 -6.1275632e-06
 -9.4309568e-01
  1.4512260e-01
  3.7523377e-01
  1.0862116e+00
  1.2832059e+00
 -4.6535065e-06
  3.4547578e-05
 -6.3962259e-05
 -9.6845899e-05
 -1.2830793e-05
 -4.7559123e-02
  5.0123695e-06
  3.2671590e+00
  2.5749111e-04
 -5.0542760e-05
 -2.5316474e-01
 -1.6692737e+00
 -2.4445630e-05
 -4.7158323e-05
  3.3908664e-06
  1.0034819e+00
 -3.0216706e-01
  5.5369234e-01
 -7.2052598e-01
 -1.1256802e+00
 -1.2634086e-04
  2.2568085e+00
  6.6439607e-05
 -3.4636952e-02
 -5.5053166e-05
  4.5053819e-01
  2.4621746e-05
  2.9121162e-03
  4.1217972e-06
  4.4751760e-06
  1.5310941e-05
 -1.5694079e-05
  6.4050525e-01
 -7.9321901e-05
  5.6868905e-01
 -5.2495168e-05
  1.7258055e+00
  3.5271004e-01
  3.7027472e-05
 -2.8708186e+00
  2.7318540e-01
  6.4886968e-05
 -2.5960003e-06
  3.8808175e-05
 -1.4881195e-01
  2.5608277e-01
 -4.9360898e-01
 -3.4685132e-01
  5.0664055e-01
 -2.1018091e-01
  1.5294587e-05
 -1.9811230e-05
 -3.1914938e-02
  9.1396617e-03
 -3.5744579e-05
 -2.1693516e-01
  3.1555220e-02
 -5.6615907e-01
  4.4025175e-04
 -6.4939663e-06
  9.1208547e-01
  6.5912402e-01
  3.9996943e-03
 -2.8882025e-06
  1.2877788e-01
  1.2511798e+00
 -4.9707019e-01
 -4.6017426e-01
 -3.7224659e-01
  2.5213233e-01
 -2.0111467e-05
  4.0065297e-01
  1.1264633e-01
  3.1764309e+00
 -5.2593143e-05
 -4.4301274e-01
 -1.8368041e-02
 -2.5821760e-01
 -8.8901393e-02
  3.8194754e-05
 -2.0167645e-05
 -1.0753133e-06
  9.8444360e-01
 -1.0089445e-05
  2.5094548e-01
 -4.6236761e-05
  3.1365056e+00
 -9.1932863e-02
  8.3306077e-08
  9.8988935e-02
 -1.3528900e-01
 -5.2758873e-01
  1.2991968e-01
  4.6879148e-05
 -4.9210948e-01
  6.9301826e-04
  2.2594631e-01
  1.0723163e+00
 -2.6984753e-02
 -5.5429886e-05
 -2.3660712e+00
  4.5632944e-01
 -7.0764530e-01
 -9.0243101e-02
  9.9141318e-01
  5.7859027e-01
  6.3074239e-02
  2.3647051e+00
  1.9294944e+00
 -1.4530519e+00
 -8.1107950e-01
  1.4589020e+00
  8.6542565e-01
 -1.1396313e+00
  1.8723314e+00
 -1.2508623e-01
 -7.6737988e-01
  1.8320747e-01
 -5.4192718e-02
 -6.3637131e-01
  3.4377147e-03
  1.8591551e+00
 -2.0348293e-01
  2.1885194e-01
 -1.0553520e-01
  4.0342897e-01
 -4.0479639e-01
  3.0029738e-01
  2.2103949e+00
 -1.5150524e+00
 -1.4660974e+00
  2.5840291e-01
  2.1662400e+00
 -9.9366027e-01
 -2.9946429e-01
 -1.7801847e-01
  5.6199789e-01
 -1.3054909e+00
 -5.4995930e-01
  1.6769645e+00
  2.1193497e-01
 -7.9631561e-01
  2.9139094e-02
 -8.3828240e-04
 -6.1915243e-01
  8.6185032e-01
  1.2911682e+00
  3.5211951e-01
 -7.5186563e-01
 -5.6506568e-01
 -9.8313278e-01
 -1.0268025e+00
 -1.9477636e-02
  1.0234020e-02
 -9.7377110e-01
  1.9709730e+00
  4.0026803e+00
 -8.8174075e-01
 -2.5006976e+00
 -2.4079449e+00
  6.3687247e-01
  1.0449407e+00
  6.8129510e-01
 -4.9251056e-01
  1.0196371e+00
  9.7397625e-01
  3.8274184e-02
  1.6726781e-02
  8.3481622e-01
  1.1387100e+00
 -1.9233236e-01
  7.2073287e-01
  6.2457871e-01
  4.4801004e-02
 -1.9409667e+00
 -1.6607428e+00
  2.2641511e-01
  1.5201696e+00
  3.6386570e-01
  2.1990016e+00
 -2.4994314e+00
 -4.1289163e-01
 -7.1711493e-01
 -7.2087735e-02
 -4.6246353e-01
  1.1420972e+00
  1.1299096e+00
 -1.5962821e+00
 -1.0837654e+00
  7.3696369e-01
  6.0491997e-01
  3.9553165e-01
  1.0642564e-02
  5.8074161e-02
 -7.7116293e-01
  3.9661577e-01
  7.9507488e-01
  9.0291166e-01
  1.0808066e-01
 -8.5909802e-01
 -9.3939481e-03
  1.4175704e+00
 -1.1882805e+00
  6.9629988e-03
 -1.2356257e+00
  3.1336870e+00
 -2.7865565e+00
  1.5041702e+00
  2.4548671e+00
  4.4256714e-01
  9.6454954e-01
 -1.9108159e-02
  5.9963894e-01
 -1.4091142e-01
  1.5871157e-01
 -1.4018151e+00
  2.9390052e-01
 -3.4396622e-01
 -1.6821301e-01
  3.5546608e+00
 -1.0445229e+00
 -1.8829100e+00
  1.3765529e+00
  1.9986151e+00
 -1.0773932e-01
 -3.5891876e+00
 -4.9212503e-01
  7.3914772e-01
 -3.2944429e-01
  2.8390431e-01
  1.6002346e+00
 -1.2750648e-01
 -1.7584904e+00
 -1.5123736e+00
  1.4075189e+00
  7.1602517e-01
  1.9422096e+00
  2.8602725e-01
 -1.6478156e+00
  2.1280742e+00
  2.3878784e+00
 -9.8023838e-01
 -4.2277887e-01
  1.4355254e+00
  2.0434868e+00
 -2.5296209e+00
 -9.3879968e-01
  1.1429497e+00
  8.4139699e-01
 -1.8013619e+00
  1.3548775e+00
  3.6885384e-01
 -1.7010144e+00
  5.9418427e-03
 -1.9929444e+00
 -1.4604968e+00
  4.6838155e-01
  2.8833270e-01
 -1.0258754e+00
 -1.9469498e+00
  3.7866979e+00
 -8.9179665e-01
 -6.9889784e-01
 -2.5727355e-01
 -8.2963669e-01
  1.7809872e-02
 -1.2838296e+00
  1.8648982e-01
 -1.0033599e-01
  1.3390403e+00
  8.1695622e-01
  8.9398158e-01
 -1.6916321e-01
 -5.2479077e-02
  3.6499248e+00
 -1.6084124e+00
 -1.4990447e+00
 -3.2093735e+00
 -2.2480881e+00
 -1.0916396e+00
 -1.0264584e+00
 -1.0418319e+00
  7.2325760e-01
  2.0292418e+00
 -1.6808560e+00
 -1.0509267e+00
  8.9992583e-01
  1.2552768e+00
  5.2775365e-01
  1.2700404e+00
  1.9360437e+00
 -2.7382668e-02
 -1.1500529e+00
 -7.3268342e-01
  4.2523474e-02
 -4.7454801e-01
 -1.2154584e-01
 -8.0883992e-01
 -1.4766645e+00
  7.6008874e-01
  4.1882148e-01
 -1.5996497e+00
  1.7982568e-03
 -1.4244986e+00
 -2.0682664e+00
 -5.5481702e-01
  1.2761676e-01
  7.2775036e-01
  2.4049737e-01
  3.2944064e+00
 -2.6303167e+00
 -1.4690585e+00
  2.3375840e+00
 -4.6155906e-01
 -1.3945240e+00
  6.1109006e-01
  1.6464162e-01
 -1.1734750e+00
  1.0198224e+00
  1.4661322e+00
  4.0763649e-01
  1.5028077e-02
  1.5028077e-02
  1.5028077e-02
  1.5028077e-02
  1.5028077e-02
  1.5028077e-02
  1.5028077e-02
  1.5028077e-02
  1.5028077e-02
  1.1229536e-02
  1.1229536e-02
  1.1229536e-02
  1.1229536e-02
  1.1229536e-02
  1.1229536e-02
  1.1229536e-02
  1.1229536e-02
  1.1229536e-02
  6.6791838e-03
  6.6791838e-03
  6.6791838e-03
  6.6791838e-03
  6.6791838e-03
  6.6791838e-03
  6.6791838e-03
  6.6791838e-03
  6.6791838e-03
  7.6475670e-03
  7.6475670e-03
  7.6475670e-03
  7.6475670e-03
  7.6475670e-03
  7.6475670e-03
  7.6475670e-03
  7.6475670e-03
  7.6475670e-03
  5.1767980e-03
  5.1767980e-03
  5.1767980e-03
  5.1767980e-03
  5.1767980e-03
  5.1767980e-03
  5.1767980e-03
  5.1767980e-03
  5.1767980e-03
  1.6870162e-03
  1.6870162e-03
  1.6870162e-03
  1.6870162e-03
  1.6870162e-03
  1.6870162e-03
  1.6870162e-03
  1.6870162e-03
  1.6870162e-03
