nep3 1 C 
cutoff 8 4.5 155 48
n_max 8 8
basis_size 12 12
l_max 4 2 0
ANN 50 0
  1.5779395e-02
 -1.6774759e-02
 -4.9259949e-02
  7.4881077e-04
 -4.1203976e-02
 -2.0274092e-03
  4.0319874e-03
 -2.9372236e-02
  1.4014980e-02
 -4.7912616e-03
  2.6684306e-03
  6.4379210e-04
 -3.4664035e-02
  1.9489519e-02
 -3.4202980e-03
 -2.4359273e-03
 -1.7673042e-02
  5.2261706e-03
  8.6538754e-03
 -2.5525510e-02
 -1.6189827e-02
  9.3033891e-03
  2.5906682e-02
 -1.6865483e-04
  1.4384663e-02
 -2.5068771e-02
  2.3258736e-02
 -1.9823350e-01
 -1.9059338e-02
 -9.2977444e-03
  1.8654972e-02
  9.2038363e-03
  1.4821829e-02
  7.7047665e-04
 -2.4957824e-03
  1.8334385e-02
  2.6613144e-02
  1.5109332e-02
  1.1601048e-03
  5.9389556e-04
 -9.6867764e-03
  4.2792670e-03
 -1.4171103e-02
  1.2550732e-03
 -1.9963332e-02
 -1.6766470e-02
  1.8567167e-02
 -7.5876135e-03
 -1.7138058e-02
  5.7594557e-03
 -5.8165938e-04
  1.9841585e-03
  6.6924836e-03
 -4.5088264e-03
 -8.9362115e-03
  1.8127009e-02
  1.8988410e-02
 -2.0214547e-03
 -9.8955622e-03
  1.9403108e-03
 -3.3737183e-02
 -5.0135283e-03
 -4.4861268e-03
  3.0870171e-02
 -2.1037277e-02
 -2.6882000e-02
  9.7883893e-03
  2.3327794e-02
  1.1769906e-02
  4.5868745e-03
  1.3548626e-02
  6.0206610e-03
 -1.3795960e-02
 -1.0234466e-02
 -5.9909360e-03
  6.8078926e-03
  4.9282522e-03
 -2.1403147e-02
 -1.1876983e-02
 -2.6757751e-02
 -1.4052523e-02
 -1.4667969e-02
  1.1156151e-02
  5.0968481e-03
 -1.8807430e-02
 -4.4525699e-03
  1.4479621e-03
  1.7184995e-02
  1.9135743e-02
  2.2679936e-02
  2.7173432e-05
  1.2254905e-02
  1.9456413e-02
  5.6639714e-03
  2.1892851e-02
 -7.1000233e-03
 -4.6939631e-03
 -3.4280650e-03
 -9.9052656e-03
  1.1995955e-02
  9.8170722e-03
 -5.0648404e-03
  9.6052233e-03
 -1.6992055e-02
 -2.2060160e-02
  8.3916988e-03
  1.8137870e-03
  4.9916278e-03
  2.0815317e-02
 -1.1449285e-02
 -2.1922933e-01
 -3.1983964e-02
 -5.5299662e-03
 -2.9628292e-02
  1.2299470e-02
  4.0170299e-03
  6.3661769e-02
 -2.9789302e-02
  4.2922762e-03
  1.4297578e-02
 -1.0936856e-02
 -8.0480138e-03
 -1.2925033e-02
 -8.0064833e-03
 -1.5415431e-03
 -2.2290517e-03
 -2.2398116e-02
  2.0542657e-03
  1.8166568e-02
  3.3848062e-03
 -8.9988677e-04
  1.0916727e-02
  6.2860581e-03
 -1.6261645e-02
  2.1367276e-02
  6.9969490e-02
  1.0310443e-02
 -2.3509096e-03
  1.6789837e-02
  5.6082699e-03
  3.0473247e-02
  8.7645836e-04
 -2.8173723e-03
 -3.9863591e-03
 -9.2348740e-02
  2.0274129e-02
  6.1849318e-04
  1.2427715e-02
 -8.7643405e-03
  2.5310903e-05
 -6.8490878e-03
 -1.2755509e-02
 -6.9050514e-04
  1.3649244e-02
  3.3049311e-02
  1.4121619e-03
  1.2182904e-02
  7.9705156e-03
 -3.6012940e-02
  7.3324698e-03
  1.8756140e-02
  3.0945182e-02
  1.7708172e+00
  1.9747732e-02
  2.9384816e+00
 -2.3984461e-01
  5.8837557e-01
 -7.5258207e-01
 -3.7652469e-01
 -2.8809865e+00
 -8.6110765e-01
 -3.4853616e-03
 -2.8920934e-02
  1.1062404e-01
  9.6567795e-02
 -1.1390833e-01
 -9.3137687e-01
 -1.1652440e-02
 -2.4015760e+00
  1.3711470e+00
 -4.8956320e-02
  7.9051036e-01
 -2.6059523e-01
  4.1206411e-01
  2.5941784e+00
  2.9162332e-01
  2.4796993e-02
  3.9621514e-01
 -8.8483685e-01
  1.5819004e-01
 -2.7781527e-03
 -9.9924707e-01
  6.8139559e-01
 -4.4308862e-01
  5.3123873e-01
  1.1261882e+00
  2.5306585e-01
 -7.5549269e-01
 -9.6445060e-01
 -1.0475396e+00
  1.0265476e-01
  3.5387400e-01
 -1.4107277e-02
  4.4470102e-01
  1.5605800e-01
 -3.8595769e-01
  2.3880443e-02
  2.2090931e-01
  1.0684078e-02
  5.3916438e-03
  1.4101850e-02
 -1.0856915e+00
  6.9186352e-02
  9.4142025e-03
  1.0772662e+00
 -2.3273788e-03
 -3.4176536e-02
 -1.5069324e-02
  4.1843560e-02
 -2.3890012e-03
  7.5069346e-02
 -2.1891256e-03
  3.8319849e-03
 -2.8400706e-02
 -1.5654927e-02
 -2.3230866e-01
  9.0249097e-03
 -2.1255421e-03
 -3.3544820e-02
 -1.1133160e-03
 -1.6867146e-02
 -1.9360751e-02
  1.5068315e-02
  2.3334963e-02
 -5.0813805e-02
  9.2681441e-03
 -1.4622363e-02
 -1.7939733e-02
 -8.9432613e-04
  2.4791593e-03
 -3.4666341e-02
  1.4503019e-02
 -3.4655660e-02
  1.4680351e-01
  1.7443499e-02
  2.6585622e-02
 -1.7369514e-03
 -1.2103360e-01
 -2.7882054e-02
 -1.1901816e-02
 -2.0190234e-01
 -8.5223420e-04
 -1.0589739e-02
 -5.1172297e-03
  5.7696542e-03
  2.4579074e-02
  7.2271578e-02
  1.6863400e-03
 -6.2566702e-03
  1.2201117e-02
 -6.5108938e-03
 -2.8191973e-03
 -1.8152185e-02
 -8.9841709e-03
  3.3008994e-03
 -5.4792490e-02
  3.0663878e-02
 -3.4434013e-03
 -4.3049365e-02
 -1.6116090e-03
 -1.5978116e-01
  2.4787259e+00
  1.1195565e+00
 -5.3095069e-02
  2.4256265e-01
  5.3783157e-03
 -3.1106594e-01
  4.2148390e-01
 -5.5712301e-01
 -2.0632898e-02
  2.6785713e-01
 -1.4006960e-01
  5.8213063e-04
  2.9865447e-01
  9.9494290e-03
  8.1982668e-03
 -6.0768463e-02
 -3.1967512e-03
 -6.5495200e-02
  8.4585939e-03
 -4.8787227e-01
 -5.8290827e-01
  3.2226098e-01
 -3.6947754e-01
  3.0528137e-04
  2.7410811e-01
  4.2164934e-01
  4.9316153e-01
 -2.0231378e-01
  8.1333436e-02
  1.3322295e-02
  1.4582548e+00
 -1.5879552e-01
 -9.6850616e-01
 -3.1670432e+00
 -8.1382644e-01
 -1.2686474e+00
 -1.3321546e-01
 -1.4044675e-01
 -1.9827023e-01
  2.5127246e-03
  1.4781021e-02
 -1.0059414e-02
  3.6553320e-02
 -3.1855527e-02
  2.4523411e-02
  5.0774482e-03
  1.9184401e-02
 -5.1797857e-03
  6.8238252e-03
  2.0585819e-03
 -2.4850423e-02
 -6.6102063e-04
  6.2770201e-03
 -1.7311060e-01
  2.3211003e-03
  5.3318185e-01
 -2.1149263e-01
 -7.9969101e-02
  5.8666253e-03
 -3.7837851e-01
  9.6807754e-01
  9.0344328e-01
 -2.4838775e-02
 -5.0597352e-01
 -3.1273389e-01
  1.3317249e+00
 -4.2360377e-01
  2.3324025e-01
 -1.0325933e-02
  1.9176739e+00
 -1.0230477e-01
  6.4275287e-02
 -7.8147501e-01
  8.3000821e-01
  2.0931664e+00
 -2.5901878e+00
  1.3569224e+00
  6.7133784e-01
 -1.4761739e+00
 -3.3331105e-01
 -2.8552074e+00
 -6.0430404e-02
 -5.9947753e-01
 -7.9486277e-03
 -4.1486895e-01
 -6.4950794e-01
  1.1590755e+00
  9.6380031e-01
  2.6931572e+00
  1.4030566e-02
  3.0203936e-01
  2.7272165e-01
  4.8694663e-02
 -1.4825455e+00
 -2.4985816e-01
  1.0331931e-01
  3.7296034e-02
  9.1409504e-01
 -6.3315749e-01
  9.9325599e-03
 -1.3859796e-03
 -1.2652113e-03
  1.2703303e-01
  1.3556080e-01
  1.5125187e-02
 -6.9998389e-01
  5.7417877e-02
  4.2010630e-03
 -6.3520703e-03
 -8.5187906e-01
  2.9277695e-02
  3.3675544e-03
  4.2405720e-03
  5.3352593e-03
  3.9279275e-02
 -6.5717464e-03
 -9.9711884e-03
 -3.8945349e-03
  1.6208423e-02
  1.0769889e-02
 -5.9059709e-03
 -5.9204968e-03
  6.7258039e-03
 -3.5004024e-03
  2.2635585e-02
 -2.5414177e-03
  9.6727647e-03
 -1.6169676e-03
  1.3930064e-02
  9.2109013e-04
 -1.8928194e-02
  8.1924554e-03
  5.4483977e-03
  8.2895281e-03
  5.0622267e-03
  1.1581229e-02
 -4.5123897e-03
  1.2529651e-02
  3.3537000e-03
  8.1210723e-03
  1.7347513e-02
  1.4477515e-02
 -3.1355839e-02
  4.3631939e-04
 -7.6059997e-03
  3.4431674e-02
  5.0672619e-03
  1.9011896e-02
  5.5120178e-03
  6.1426979e-02
 -4.2742412e-03
 -2.7202535e-03
 -2.7599405e-02
  2.1407460e-03
 -3.4332413e-02
 -6.2786760e-03
 -4.3561837e-01
  7.0257159e-03
 -6.0242955e-03
  5.5626191e-02
 -1.0121614e-05
 -9.2899933e-02
  9.3004964e-03
 -5.0045514e-01
  2.4765240e-01
  8.6561833e-03
 -3.8676152e-01
  2.5722650e-01
  1.7273749e-01
 -2.6828324e-02
 -1.6384153e-02
 -8.9199934e-03
 -4.5891693e-03
 -5.5186618e-02
  9.5124990e-03
  1.1245966e-02
 -4.8417553e-02
  3.6672447e-03
  1.7009953e-01
  3.2414939e-02
  1.1663761e-01
  1.4885896e-03
 -3.8213421e-02
  2.6788386e-02
 -6.7909365e-03
 -1.1432692e-02
  4.3651903e-01
  3.3589911e-02
 -1.4418441e+00
  4.9845213e-03
  6.7351438e-02
  1.1492576e-02
 -1.9459261e-01
  1.4141232e-02
 -7.3390044e-02
 -1.6412403e-01
 -1.1092586e-02
  4.1290589e-02
  5.8828755e-03
  3.9006770e-02
  2.8690089e-02
 -7.2189063e-02
 -8.1078411e-04
  2.5432390e-01
  1.5031667e-01
 -4.6171569e-03
  2.1448951e-02
 -1.4261804e-02
 -1.3669419e-01
  8.5542500e-03
 -1.7686738e-02
 -1.2808464e-02
  7.5258883e-03
 -8.5631460e-03
 -3.2371390e-03
  8.1210146e-03
 -1.3548634e-02
 -3.2632069e-03
  4.1199541e-03
 -1.1846286e-03
  1.0385589e-02
 -2.6268456e-03
  4.8609138e-02
 -1.0803714e-04
  8.7243514e-03
 -9.6937991e-04
 -1.6193909e-03
 -2.0059664e-03
  3.4330446e-02
  2.3666036e-03
  9.6981702e-03
  3.2366868e-03
 -8.2298005e-03
 -6.3376208e-03
  8.0051441e-03
  8.8720042e-03
 -1.9429625e+00
 -2.3597954e-03
 -1.9013586e-03
 -2.8862925e-03
  1.4891812e-03
  1.9091040e-02
 -1.2725999e-02
  2.1585433e-02
 -1.0075949e-02
 -1.2209913e-02
  2.1598570e-02
  2.2058839e-01
 -2.0921679e-02
 -2.4295803e-02
 -6.4841635e-03
  1.1202927e-02
 -3.6567152e-03
 -1.5124840e-02
 -3.5319687e-03
  3.6288893e-03
 -4.3008486e-03
 -7.2511244e-03
  1.7399511e-03
 -1.7834361e-01
 -1.3300837e-02
 -1.2480223e-02
  3.4567095e-02
 -8.4323520e-03
 -5.5185236e-02
 -2.2336217e-02
  1.7390965e-04
 -4.3755728e-03
  8.5285539e-04
 -6.0344690e-01
  7.2912729e-01
  1.0299681e+00
 -1.7262526e-01
 -3.2257915e-01
 -3.9691663e-01
  4.7734195e-01
  2.4630989e-01
 -6.4286220e-01
 -2.3400502e+00
  1.2009837e-01
  1.4783567e+00
 -1.2930030e-01
  1.8115411e+00
 -5.3129137e-01
 -1.5792699e+00
 -4.0414849e-01
 -2.3697596e+00
  1.5169079e+00
  2.5201820e-02
 -6.7589593e-01
  3.2148483e-01
  1.9423003e-01
  1.0909904e-03
 -4.4523902e-02
  3.0930896e+00
  6.3703817e-01
  1.5489063e+00
  2.2022631e+00
 -7.8614587e-01
 -2.8956711e-01
  8.4191847e-01
 -1.4358798e+00
  9.0054357e-01
 -2.9213047e+00
 -8.2055295e-01
 -1.7705727e-01
  1.2310394e+00
 -1.0786548e+00
 -4.1434973e-01
 -6.5318212e-02
 -5.2481645e-01
 -1.8227746e-01
 -5.2075738e-01
 -1.6174713e+00
  3.5945181e-02
 -4.9796182e-01
 -1.1869953e-01
 -1.7657710e-02
 -2.7301993e-02
  1.2700204e-02
 -2.3612000e-02
  1.4119703e-01
  7.2041748e-04
  2.3437604e-02
 -1.1224548e-02
  8.3062006e-04
 -1.0071571e-03
  2.5113650e-02
  6.8504228e-03
  8.1509184e-03
  5.1993751e-03
 -8.2289118e-01
  1.4604900e-02
  1.0012950e-02
 -6.8741017e-03
 -9.4205095e-03
 -2.7925579e-02
 -6.7057917e-03
 -5.0400078e-02
  1.7353024e-02
  3.9327424e-05
 -1.3946986e-02
  1.3945132e-02
  1.6097665e-02
 -9.7421249e-03
 -2.6212009e-03
 -5.8978762e-02
 -2.1267524e-03
  1.2978990e-01
  3.9158133e-03
 -9.8536432e-02
  8.2246270e-03
 -1.0481142e-02
  4.3776855e-03
 -4.6584655e-02
 -1.1191968e-02
 -3.1322378e-03
  9.2943450e-03
 -1.9114254e-02
  2.2223782e-02
  2.7497476e-03
 -1.1664850e-02
 -1.0906172e-02
 -5.2727163e-03
  8.7743364e-03
  5.3975888e-02
  2.0261373e-02
  9.4915950e-04
  2.0325478e-02
 -2.0419981e-02
  1.2572204e-02
  1.2528293e-02
  3.8411790e-03
  1.2320360e-03
  1.2596541e-02
  5.5866479e-03
  1.7719500e-02
  8.4202755e-03
  4.5196384e-02
  2.0742986e-02
 -4.6302896e-02
 -6.4609751e-02
  5.6237397e-03
 -6.3230833e-03
  6.3873775e-02
  2.0208785e-02
  6.3391682e-03
  7.8925118e-03
 -1.5156828e-02
  2.3109263e-02
 -2.9775931e-02
  5.9307162e-03
  5.6457547e-03
  1.0009883e-02
 -9.6538654e-03
 -8.9650649e-01
  6.3895458e-01
 -7.2909580e-03
  4.5821676e-03
  4.4807205e-03
  1.4567003e-02
  9.6340273e-03
 -1.5359081e-02
 -9.4163287e-03
  1.5704815e-01
 -2.4384470e-03
 -7.7993418e-03
  6.8053813e-03
  1.8709263e-02
 -2.4473760e-02
 -2.9543019e-03
  5.5315066e-02
 -5.3530501e-04
  1.3504867e-02
  3.1704083e-05
  1.3131254e-02
  1.8806459e+00
 -5.5088200e-02
  9.3063163e-03
 -1.5600690e-03
  2.0638441e-03
  1.5820257e-02
  2.4661109e-01
 -4.0340917e-03
  1.0263717e-03
 -5.8633150e-03
 -1.2591250e-02
 -1.1779206e-02
 -1.9589784e-03
 -1.7795975e-03
  1.0572643e-03
  3.6771510e-02
 -2.9127630e-03
 -1.0334417e-02
 -3.5871018e-03
 -2.3843214e-02
 -2.6697200e-02
  1.4223556e-02
  4.0822048e-03
 -7.6337177e-03
 -8.9442544e-04
  8.5831722e-03
 -3.0134123e-02
  1.4437265e-02
  4.9379487e-03
  2.3950897e-03
 -1.4395998e-03
  2.3439720e+00
  3.0995384e-03
 -2.8122518e-02
  2.5015902e-02
 -2.0430448e-02
  1.4158357e-03
 -9.3637872e-03
 -6.8602306e-03
 -1.6233033e-02
  6.1582970e-03
  1.2233700e-02
 -7.4230647e-04
  2.5444387e-02
  1.2824447e-02
 -6.5330956e-03
 -5.9698582e-02
  6.1851140e-02
 -2.0061154e-03
 -5.3723566e-03
  3.0213436e-03
  3.4329847e-01
  2.4973668e-02
 -4.5225420e-03
 -5.1948815e-03
 -2.1763425e-02
 -2.1172099e-02
 -5.7072984e-03
 -1.9383028e-02
 -1.9693544e-02
  5.9128380e-03
 -6.7231967e-03
 -1.7820199e-03
  1.5576626e-02
  1.2006792e-02
  2.6821975e-02
  5.7716593e-03
  3.5059571e-03
 -1.1056872e-02
  2.5128575e-02
 -1.9059959e-03
  5.5531212e-03
 -5.1150341e-03
  4.6044118e-03
  2.4606599e-02
 -1.5888637e-03
  1.3044225e-03
  5.0898939e-03
  1.2136042e-02
  5.6022322e-03
  1.4887481e-03
  1.3044115e-02
  2.2798946e-02
  9.0687498e-03
  3.5640355e-03
  1.5856434e-02
  1.7181478e-02
 -7.0807026e-03
 -2.8852676e-03
  4.9649375e-03
 -5.5566221e-04
  2.8485632e-02
 -8.5306009e-03
  1.5019501e-02
 -4.9805179e-02
  4.6806206e-05
 -1.7890732e-03
 -3.1655524e-03
 -1.2640320e-02
  8.7075885e-03
 -1.6579344e-03
  1.0586876e-02
  1.2373228e-02
 -4.7290898e-03
 -2.3904944e-02
 -5.1479228e-02
 -2.2457261e-04
 -7.3177135e-04
 -7.0183738e-03
 -2.8427970e-03
 -1.6024284e-02
  1.2699819e-02
 -2.7877007e-02
  9.0457238e-03
 -1.1188312e-02
 -2.2243924e-02
  5.8295969e-03
 -1.0563280e-02
 -4.5083683e-02
 -1.4267885e-02
  2.6577124e-02
  1.6441515e-02
 -1.5626781e-02
  9.2513068e-03
 -3.1404203e-01
 -3.0969992e+00
 -3.6123735e-01
  6.3094646e-01
  1.8223256e-01
 -1.1320726e+00
 -1.2588865e+00
  8.6101496e-01
  4.0921879e-01
 -3.5654587e-01
 -1.8640969e+00
  1.2492228e+00
 -1.5377681e-01
  5.1319712e-01
  7.6606381e-01
 -6.6830212e-01
  1.1732635e+00
 -1.4563093e-01
 -1.4753057e-02
  5.2849585e-01
 -1.3253445e-02
  7.4294400e-01
  1.3969390e-01
  2.6301938e-01
  6.0867526e-02
  5.2950257e-01
  3.6653206e-01
 -1.1536758e+00
 -5.8483917e-01
  3.8168731e-04
 -1.0616955e+00
 -7.4658853e-01
  9.5063365e-01
 -5.3567481e-01
 -8.0822307e-01
 -6.4722396e-02
 -1.5818945e-01
  7.2758466e-01
 -3.6938884e-03
 -7.9780012e-01
  9.2262757e-01
 -1.6609510e+00
  8.5292524e-01
  5.0385922e-01
 -1.0849779e-01
  6.6379361e-02
  6.7559785e-01
 -5.9813648e-02
  1.1787106e+00
 -3.0653808e-02
 -1.9796424e-02
 -8.5114062e-02
 -6.5571076e-01
 -9.4518205e-03
  3.1129327e-02
 -2.4579120e-01
 -1.2811357e-02
 -4.0432611e-03
 -4.6002202e-02
  2.6377575e-03
 -9.2856163e-01
 -5.5884498e-01
 -5.7392523e-02
  5.0227529e-01
  1.0795239e-01
  1.1716000e-02
  1.7355686e-02
  1.0249319e-02
  2.9617227e-03
 -1.3889261e-03
  4.3625988e-02
 -4.7906939e-02
  2.3647167e-02
 -2.5654390e-02
 -3.6099046e-01
 -4.4339079e-01
 -2.9434288e-01
 -1.9389939e-02
  2.0629700e-01
 -2.0565657e-02
 -5.9747237e-01
 -8.3830673e-06
 -2.6604867e-02
 -2.2783127e-02
 -7.8805530e-01
 -6.9687953e-03
 -1.5423902e-02
 -1.2024677e-02
 -1.8909588e-02
  5.0148696e-01
  1.4417378e-03
  1.5622932e-02
 -8.7251812e-03
  1.3114029e-02
 -4.0630970e-02
  3.5194802e+00
 -4.7160891e-01
 -4.5909197e-03
  4.7309332e-02
 -5.3254347e-02
  1.0071336e-02
  1.7478725e-02
 -4.4985819e-03
  1.9175224e-02
  1.9206654e-02
 -1.3225349e-02
  1.5321687e-02
  4.9224310e-03
  6.0488039e-04
 -2.6332611e-02
  1.5526218e-02
 -1.4319398e-03
  2.1134794e-02
 -5.9226612e-03
 -4.6802331e-03
 -9.1270609e-03
 -2.7824149e-02
  3.7261464e-03
  1.8360861e-02
 -5.8338242e-03
  3.7108583e-03
  6.2956463e-04
  3.0680320e-01
  1.1126478e-02
  2.9208086e-02
  2.1870065e-02
 -9.9266190e-03
  3.9392016e-03
  3.1074392e-02
  8.2947221e-03
 -3.1201150e-02
 -2.7902249e-02
 -5.6515238e-03
 -5.7727847e-02
  7.0676886e-02
  1.3181145e-02
 -2.9909050e-03
 -1.4124522e-02
  2.0859843e-01
 -1.0800245e-01
  1.4330101e-02
 -3.2138792e-03
  6.6451253e-03
  1.5535162e-04
  1.1834951e-02
 -4.0650222e-02
 -7.2219409e-03
  1.0284649e-02
  1.8910305e-03
 -3.6061298e-02
 -2.4419786e-02
  8.7903254e-03
 -6.9709811e-03
 -7.3435493e-03
  5.1424183e-02
 -1.2688871e-02
 -4.2475709e-03
  8.5584968e-03
  1.3386594e-02
  9.8476950e-03
  2.3069037e-02
  3.1056765e-01
  1.1363502e-02
 -1.9596488e+00
  4.3966372e-02
 -9.8577398e-01
  1.7896174e+00
  4.4876304e-02
 -5.4630226e-01
  1.2465464e-01
  9.6710837e-01
  4.0336624e-01
 -8.3346978e-02
  5.1766355e-03
 -1.4150015e+00
 -5.3966250e-02
  2.3609067e-01
  1.6668878e-02
  1.0647219e-02
 -2.7296591e-01
 -4.3320084e-01
  1.4221293e-01
 -5.0732926e-03
 -1.0935276e+00
 -9.0999473e-03
 -3.4125406e-01
  1.7204868e+00
 -1.2735352e-01
 -1.8158622e+00
  1.6839464e-01
 -4.9256819e-01
 -6.1196363e-01
 -1.3886900e+00
 -1.9049059e-01
  5.0207621e-01
  1.2519689e-01
 -1.6846742e-01
  1.4519666e+00
 -7.0634401e-01
 -4.5421427e-01
 -4.9674302e-01
 -3.0333186e-02
 -1.4594613e+00
 -1.3835301e+00
 -1.7023275e+00
  1.1040719e-02
 -5.6067288e-01
  1.2599908e-02
  6.3037924e-03
  4.5259050e-03
 -3.9600649e-01
  1.0775976e-02
 -6.7011318e-03
  4.1738946e-02
 -8.8123633e-03
 -5.2008713e-03
 -1.7469365e-02
  2.1689383e-03
  1.2107449e-02
  1.3967794e-03
 -2.1417964e-02
  4.8915381e-03
 -8.2766498e-03
 -2.0162685e-02
  1.8733080e-02
  5.1522795e-03
 -7.0588524e-03
 -5.1965518e-04
  1.6421137e-02
  2.1205358e-03
 -1.3141579e-02
 -3.4002261e-03
 -5.8737351e-03
 -1.1885319e-02
  2.7975628e-02
 -1.6312030e-03
 -2.6982618e-02
  2.1393497e-02
 -3.5039451e-02
 -4.7729281e-03
  1.3888718e-02
 -4.3008933e-03
 -4.6059411e-02
 -3.3464562e-02
 -6.8123378e-03
 -1.7023211e-02
  1.1851764e-03
  2.8566923e-05
 -1.1553324e-03
  2.4225879e-02
  9.5449844e-03
  1.2334927e-02
 -6.5328674e-03
 -1.0618302e-02
  5.6974951e-02
  4.0492299e-03
  1.8450109e-02
  4.0455613e-02
 -6.8064365e-03
  9.0451946e-04
  1.7991003e-02
 -9.6131368e-03
 -6.6307816e-03
  2.7223239e-03
  2.5185405e-03
  6.6415546e-03
  6.8446747e-03
  2.0112751e-02
  1.2398884e-02
 -5.4027677e-01
  7.3632603e-03
 -9.3460493e-03
 -3.4059992e-01
  1.8598793e-01
 -4.6587434e-02
  4.6899384e-01
  1.7903641e-01
 -1.6107833e-01
 -6.7794407e-03
 -1.2901587e-02
 -1.4829995e-02
 -2.7705705e-02
 -1.0670773e+00
 -4.6314530e-02
 -6.0265917e-01
  4.2893998e-02
  6.0950732e-03
 -9.7465534e-03
  3.3535600e-02
 -1.6559148e-02
 -3.1214999e-02
 -4.5906454e-01
 -1.7246272e-02
 -1.4967945e-01
  5.0668395e-01
 -1.2253393e-02
  1.1318223e+00
  1.5417702e-02
  1.1030600e-02
  3.0634771e-03
 -9.3317705e-01
 -2.5242092e-03
 -4.1645423e-02
 -5.4078817e-01
  2.5761952e-03
 -4.0501487e-03
  1.8178893e-02
 -3.3405352e-02
 -2.6677928e-03
 -1.5931780e+00
 -3.4592502e-02
 -3.7019596e-01
 -3.0228075e-01
 -2.3415759e-02
 -2.3941293e-02
 -3.1804717e-03
 -1.3436367e-02
  3.1881053e-02
 -8.1253741e-03
  5.4615363e-03
 -9.3672993e-03
  1.8759495e-02
  1.2312072e-02
  8.6827725e-01
  1.4686387e-02
 -1.1130005e+00
 -1.2803707e-01
 -2.1462861e-01
 -4.8223826e-01
 -4.2899713e-01
 -5.4591542e-01
  3.8025491e-02
  3.3435816e-01
 -8.7776847e-02
  1.8387517e-03
  2.7617929e-03
 -1.4853845e+00
 -1.9281849e-02
 -2.5658086e-02
 -8.0835842e-02
 -2.6703355e-01
 -4.9674857e-01
 -3.1998134e-01
  7.2058022e-02
  2.8227346e+00
 -6.9892222e-01
 -3.5757502e-04
  6.3653439e-01
 -2.4638748e-01
 -2.2432157e-01
 -2.3984735e+00
  4.9592074e-02
 -3.5718223e-01
  5.8257300e-01
 -5.2492911e-01
  1.8989280e-02
 -4.1192722e-01
  4.8831201e-01
  2.0055400e-02
 -8.4619261e-02
 -3.1368807e-02
  6.1948247e-02
  1.1149784e+00
  8.9136429e-02
  8.9120364e-01
 -9.6862726e-02
  5.1167786e-01
  1.8603585e+00
 -1.0377745e-01
 -1.8250432e-02
 -1.3862012e-02
 -1.6856147e-02
 -7.5605586e-03
  1.6355893e-02
 -2.2306298e-03
  3.3436749e-02
  7.0394523e-02
  6.8520188e-02
 -4.2005153e-03
  5.4726610e-04
  2.9134681e-03
  1.6246331e-03
 -1.8460250e-02
 -1.0565176e-02
  1.5905803e-03
  9.5111039e-03
  1.7272555e-03
  2.0529022e-02
 -7.4820481e-03
 -1.7656111e-03
 -8.5984189e-03
  2.8189125e-02
 -1.6841171e-02
  2.0141529e-02
 -1.1144481e-02
  7.2400516e-04
  3.2793023e-03
  1.5158808e-02
 -8.9735202e-03
 -1.5073644e-02
  4.1399812e-03
 -2.1575507e-02
 -4.5477026e-03
 -6.6106627e-03
  1.2328173e-04
 -1.8776875e-02
  1.9849114e-02
 -3.5669331e-03
 -1.5194470e-02
  1.1948115e-02
 -1.2734142e-02
  3.2284167e-02
 -8.9568291e-03
  3.6486192e-04
  2.0142829e-02
  2.7716483e-03
 -2.4940495e-03
  3.4927174e-02
  2.5520632e-02
 -3.9911410e-04
  2.3497395e-02
 -3.8526233e-02
 -1.8160738e-02
 -8.9628249e-03
 -6.3288612e-03
  1.5359020e-02
  1.4221118e-02
 -7.3530143e-03
  2.8712600e-02
  4.6594162e-02
 -1.4762240e-02
  4.9796239e-02
 -3.4609396e-02
 -4.0249471e-02
 -8.6881872e-03
 -1.1800765e-01
  1.0307539e-01
 -1.0651086e-02
  3.8402894e-01
  1.1543695e-01
  2.9617371e-02
 -1.2424975e-03
  4.3694705e-02
 -6.5175989e-03
  1.3684377e-03
 -2.3557864e-02
  1.9897366e-02
  7.8372250e-04
 -8.4437188e-03
  3.6292791e-02
 -1.3526992e-03
 -1.4306495e-02
  3.5771944e-02
  4.6236604e-02
 -1.4971893e-02
  1.0834175e-02
 -2.2200432e-01
  7.1785962e-03
 -5.6647286e-02
 -1.7925693e-02
 -1.3588515e-02
 -8.6510163e-03
  5.6502682e-01
  2.7426048e-03
 -3.6576282e-02
 -1.6130941e-01
 -1.3980221e-02
  1.1200624e-02
 -5.6971977e-03
 -4.1281590e-03
 -6.7890640e-03
  7.1068758e-01
 -3.5048805e-02
 -4.0650138e-01
 -2.2063773e-02
  7.6843370e-03
 -8.0077071e-03
 -2.0048937e-03
  2.5485340e-03
 -4.8236176e-03
 -1.0053396e-02
  8.3343601e-03
  2.4168005e-03
  1.1943916e-02
 -5.8537489e-03
 -4.2485780e-01
 -4.9616215e-03
 -4.4581406e-03
  5.4611519e-02
 -4.9844240e-03
  1.2224721e-02
 -1.3389271e-03
 -1.5891453e-02
 -5.4428447e-03
 -4.0520146e-02
 -1.1809250e-02
  2.2792413e-03
 -3.1947659e-03
 -9.3134828e-03
  2.1323901e-02
 -5.1317057e-03
 -1.9833373e-02
 -4.2294580e-02
 -7.4047362e-03
  3.8208645e-02
  2.0080764e-02
 -1.4517496e-02
 -1.8518787e-02
  2.1075143e-02
  1.7027501e-02
  7.6527134e-02
 -9.0733320e-03
 -6.4039037e-02
  8.8039804e-03
  1.7573964e-03
 -3.8073941e-03
 -1.5977426e-02
  3.0411996e-02
 -3.0991865e-02
  8.3518866e-03
  1.0720512e-02
 -3.3584259e-02
  4.1229487e-03
 -8.0442736e-03
 -2.3816396e-02
  1.3787741e-02
 -3.4080534e-03
 -3.3014972e-02
 -3.7799094e-02
  7.6077725e-03
  4.6559330e-04
  1.5733840e-02
  1.8192948e-03
  8.0173342e-03
  8.0145244e-04
  2.1092701e-03
  1.7817648e-02
  1.9155227e-02
 -2.1976342e-03
 -2.5828343e-02
 -1.7962668e-02
 -3.2347319e-01
 -1.6955240e-01
  4.0639278e-01
 -3.8320276e-01
  7.7765301e-02
  4.7648404e-02
 -4.2802356e-02
  2.1316800e-01
 -4.0694004e-01
 -5.2759629e-01
 -4.7892030e-02
  3.8696250e-01
 -6.4989164e-02
  6.9834940e-02
 -4.6122786e-01
 -1.3987693e-01
  1.5997492e-01
 -1.4977026e-01
 -1.4976345e-01
  3.6131039e-01
 -2.0533718e-01
 -1.2304946e-02
 -2.0394740e-03
 -1.6362598e-04
  8.6191297e-03
  1.0680110e-01
 -6.3748193e-01
  9.1493875e-03
  7.9820934e-04
 -7.5439215e-01
  2.3175957e-02
 -1.8421420e-01
  7.2188288e-01
  2.5887635e-01
  8.3077705e-01
 -1.6245730e-01
 -5.7890568e-02
 -1.0897647e-02
  3.1744549e-01
 -8.9721061e-02
 -6.0265243e-01
  1.8247257e-01
  2.1766681e-02
  8.2286447e-04
  1.2537208e-01
  7.4135927e-03
 -5.4858174e-02
  9.2069077e-01
 -2.8116286e-02
  3.6312835e-03
  2.1886623e-02
 -1.4523085e-02
 -2.9772839e-01
  7.3364554e-03
 -1.9000946e+00
  3.1724548e-01
  2.5347540e-01
  2.6517195e-01
  2.2044089e-01
 -1.7466726e+00
  1.7968099e+00
  1.0968024e+00
 -8.2005955e-02
 -3.1878614e-01
  1.0212138e-01
  9.1648835e-01
  1.7163310e-02
  1.5670767e+00
  2.5917098e-01
 -1.0600576e-02
 -2.0236583e-01
 -3.2280478e-01
 -2.0332082e-01
 -7.4162936e-01
  1.7756462e-01
  2.0311457e-01
 -5.3884256e-01
  1.2235291e+00
  1.0920469e-01
  7.5797677e-01
  2.9689804e-01
  1.1617320e+00
 -1.2997761e-01
 -5.7996905e-01
  7.2527058e-02
 -3.1064370e-01
 -2.1406302e+00
  2.5573191e-01
  2.8445312e-01
  3.0122712e-02
 -5.6057137e-01
 -6.0164458e-01
  6.8665200e-01
  9.2079090e-03
 -6.6114414e-01
 -3.2836631e-01
 -3.2061803e-01
 -7.6789618e-02
  5.5377549e-01
 -1.5490612e+00
 -3.0572107e-01
 -4.5251673e-01
 -2.8442794e-02
  1.4627172e-01
 -1.5236833e-03
 -6.5007154e-04
  3.9984528e-03
  1.1857105e-02
  2.5001414e-02
 -8.3798831e-03
  2.6757454e-02
 -2.0561762e-02
  1.2189169e-02
 -7.5859753e-03
 -2.1668021e-02
 -4.8710899e-03
  1.8516185e-02
 -5.0588057e-04
 -5.2707708e-03
 -1.7257819e-01
 -1.0134306e-02
 -6.7435396e-03
  7.0829745e-03
  2.9500315e-02
  5.4792287e-03
 -5.9646433e-03
  1.3387270e-03
  1.0607205e-02
 -8.7420288e-03
  2.9010820e-04
 -1.7893292e-02
  3.9971460e-02
 -6.9905794e-04
  1.8678971e-03
  1.8167133e-02
 -5.9319288e-04
  3.2881599e-02
 -2.7251769e-02
 -1.4518823e-02
  8.8598523e-03
 -8.3556361e-03
 -3.2346109e-03
  8.9471834e-04
 -2.1286044e-02
 -8.3760768e-03
 -1.2119680e-02
 -9.1581773e-03
 -1.9629497e-02
  2.9586190e-02
 -2.4489430e-04
  9.4499961e-03
 -2.4067070e-03
  1.2089508e-02
 -2.5089649e-02
  2.0676671e-02
  2.7037710e-03
 -1.9008609e-02
 -1.0264975e-02
  5.1886961e-04
  3.2304204e-04
 -1.3435245e-04
  3.7222683e-02
  2.5556933e-03
 -1.0157207e-02
  1.7680763e-04
  3.3729412e-03
 -1.0429440e+00
  7.1070582e-02
 -7.7008875e-03
 -1.2017532e-02
  1.2195113e-02
 -6.8676546e-02
  3.3677965e-03
  1.3232764e-03
 -2.2167135e-02
  1.5088956e-02
  1.4150434e-03
 -3.9685201e-03
  4.6806051e-03
  4.2636720e-03
  2.0710494e-02
 -3.0191138e-03
 -1.5468898e+00
 -4.3569906e-03
  1.0571831e-02
  5.9896171e-02
 -5.4415180e-03
  8.6460728e-05
  1.1706684e-02
  1.3434285e-02
  1.5132796e-02
 -1.6799429e-02
  1.4242372e-02
  3.3197589e-03
 -1.6470913e-02
  5.7853139e-03
  2.7541557e-02
  8.3219178e-04
 -1.1727959e-03
  1.1096603e-02
  5.3583225e-03
 -5.5382536e-03
  1.5765905e-02
  2.0607375e-03
 -1.7687321e-02
 -2.2469079e-03
 -3.0128655e-01
 -2.6779875e-02
 -5.2690506e-04
 -1.3766296e-02
  5.8108792e-03
 -1.7737942e-02
  2.1239853e-02
  2.7382211e-04
  8.1921831e-02
  1.3965901e+00
  1.3111152e-01
  1.7044741e-01
 -3.9091989e-02
  7.4285495e-01
 -5.6003070e-01
 -5.9122879e-02
  1.5483180e+00
  1.4482047e-01
  7.6549719e-03
 -6.9187726e-03
  7.1515422e-03
 -1.8549980e-01
  2.5723493e-03
  3.3833036e-01
 -1.1668875e+00
 -4.4346032e-01
  3.5351598e-01
 -9.7971060e-04
 -5.3167313e-02
  1.9061626e-01
 -7.5472468e-01
 -4.1897040e-02
  7.9139709e-02
  3.3893402e+00
 -5.2374423e-01
 -2.3496201e+00
  2.3348966e-01
 -1.1113755e+00
 -2.2243217e-03
  3.6021963e-01
  1.8649599e-01
  9.2860311e-01
  3.6690003e-01
 -3.6823326e-01
  8.8031727e-01
 -2.2963029e-01
 -2.6731083e-01
  9.3719667e-01
 -7.4486291e-01
  3.1068418e-03
 -6.1712080e-01
 -4.1643086e-01
 -1.9186612e+00
 -3.7830140e-02
  2.9541260e-01
 -1.8328801e-04
 -5.4561391e-02
  7.8356020e-02
 -1.8956722e-01
  9.5902784e-03
  1.0060040e-01
  9.3110651e-04
 -4.9740826e-03
 -5.8710170e-03
  4.1134868e-02
  5.5350508e-03
 -1.0970150e-03
  1.0537538e-02
 -2.0698154e-02
 -8.7396190e-02
 -6.4773420e-03
 -3.4298063e-03
 -1.5472705e-02
  4.1268170e-03
  9.1330511e-03
  2.6657127e-02
 -1.1666394e-03
 -1.5357474e-02
 -3.6165722e-02
  1.4960303e-02
  7.4242959e-03
 -6.3976655e-03
 -7.3925285e-03
 -8.8639809e-03
  5.6898859e-03
 -1.0738326e-02
 -5.9768734e-03
 -7.7904998e-03
 -1.3434916e-03
 -1.8757126e-01
  1.6533963e-02
 -1.7306021e-03
  1.1772907e-03
  1.1359775e-02
 -1.7780857e-02
 -8.8574253e-03
 -9.4525695e-02
 -1.9822732e-02
  3.1233695e-03
  1.3047325e-02
 -6.0101127e-04
  5.7627331e-03
  1.8642481e-01
 -2.3303196e-02
  1.6201617e-02
 -1.3238679e-02
  1.0042308e-02
  2.2281259e-02
  2.1735735e-02
  7.0370836e-03
  1.4797495e-02
  6.5157139e-03
  5.4748766e-03
  1.5365016e-02
 -1.2367396e-02
 -2.6007617e-02
  8.5251682e-02
  1.0156750e-01
  5.4334122e-01
 -3.0778104e-01
  5.5988818e-01
 -1.4927556e-02
 -7.3281145e-03
 -4.3040055e-01
 -3.4362723e-03
 -4.6374397e-03
  1.6841145e-02
 -1.3912801e-03
 -1.8974902e-02
 -1.4562818e-02
 -8.0488138e-03
  4.0492080e-03
 -2.5885459e-03
  2.4223400e-03
 -1.5374638e-02
 -2.1947535e-02
 -3.7743333e-01
 -8.4355190e-02
 -1.8645789e-02
 -3.7758946e-02
 -7.7104919e-02
  8.6661883e-02
  2.4400274e-03
 -1.0131733e+00
  4.6320863e-02
  3.2876038e-03
 -8.9666042e-03
 -3.1964520e-01
 -9.3679782e-03
 -1.0503160e-02
 -1.9468181e-02
  3.3134429e-03
  1.9764768e-02
  7.8223180e-05
  7.9054032e-03
 -4.1931593e-03
  3.6560506e-01
 -5.1094763e-02
  3.4145562e-03
 -1.1210901e-01
 -2.3571674e-03
 -2.2041373e-02
 -4.3172278e-03
 -4.2515088e-02
  5.1871806e-02
 -1.8451412e-01
  2.8571561e-02
  1.9808862e-02
  2.2840517e-02
  1.0425320e-02
 -3.3867449e-04
  2.0525237e-03
 -1.6204342e-02
 -8.2920855e-03
 -2.4115115e-02
 -3.7918452e-02
  1.0978990e-02
  1.4052980e-02
 -4.0322891e-03
  2.7172236e-02
 -1.3390863e-02
 -2.4890121e-02
  1.2101016e-02
  3.2699162e-03
  1.1003859e-02
  1.4385504e-03
  8.1373332e-03
 -2.8737299e-03
 -1.1841134e-02
 -1.2868404e-02
  2.5636077e-02
  4.8779459e-03
 -2.4692917e-02
  4.8965779e-03
  2.3690125e-03
  2.4522310e-03
 -1.1636317e-04
 -6.7115487e-03
  3.4286960e-03
 -1.6166931e-02
  9.0093929e-03
 -4.0520527e-03
  2.5788447e-02
  4.2486098e-03
 -4.6109136e-02
  4.1091226e-02
 -1.0579868e-02
 -5.4199728e-03
 -2.8052486e-02
 -1.4027379e-02
  2.5305722e-02
 -9.5684873e-04
  1.0266593e-02
 -3.3399370e-02
  3.3516192e+00
 -3.4384109e-02
 -8.6080488e-03
  2.0554499e-03
  1.8849598e-02
 -1.7088935e-02
  2.3602657e-02
  1.9365365e-02
 -5.0490675e-04
 -3.5683703e-02
 -2.0286756e-02
 -1.0716699e-02
  5.8711809e-01
 -2.5786592e-02
  3.3940956e-02
 -9.4154932e-02
  8.8276446e-01
 -1.8981792e-01
 -1.1185039e-01
 -7.1791946e-03
 -2.0012561e-02
 -1.9441199e-02
 -5.4404391e-03
 -1.5275363e-02
  3.6144094e-04
  1.4926808e-02
  6.2178705e-02
  1.1305460e-01
 -2.5042880e-02
 -1.7484868e-02
 -4.1754972e-02
 -6.1527949e-02
 -1.7498390e-01
 -1.6615374e-02
 -1.2348987e-02
 -3.5227486e-04
 -1.9676471e-03
 -6.8132949e-01
 -1.2641633e-01
  1.7344039e-02
 -1.6039684e-02
 -7.1409740e-02
  1.3761561e-03
 -1.5742125e-01
 -1.5594785e-01
  8.4405327e-03
  1.4632765e+00
 -1.9870048e-02
 -7.2432845e-04
 -1.0577568e-02
 -1.3862268e-02
  7.6414403e-03
  6.6632172e-04
  4.1002452e-02
 -8.4143151e-03
 -8.1997663e-03
 -3.9367244e-02
 -8.7506315e-03
 -5.6582000e-03
 -4.6242690e-03
 -1.0886736e-02
  9.6966053e-04
  7.1370089e-04
  7.8850873e-03
 -7.6133198e-01
 -1.6517075e-02
 -8.5609686e-01
 -6.7617536e-02
 -7.2891885e-01
  2.2933764e+00
 -9.6341693e-01
  2.6005802e+00
  2.2078819e+00
  9.4172642e-02
 -3.8218028e-03
  9.0130612e-02
  8.9889420e-03
  2.5078733e+00
  2.7425455e-02
  4.2243496e-01
  1.7915944e+00
 -7.0710677e-01
 -6.9414047e-03
  1.2836479e-01
  1.0259388e-01
  1.3813910e-01
 -1.2027105e+00
  1.2132742e+00
  3.1939146e-01
 -5.2036922e-02
 -2.5238642e-01
  7.0974492e-02
 -2.0239091e+00
 -7.8795618e-01
  4.0329974e-02
  1.2675836e+00
  6.2829119e-01
  1.0030273e+00
 -1.9320955e+00
  1.4268183e+00
  1.2691971e+00
 -1.6525209e+00
 -1.2998987e-02
  1.2208301e-01
 -5.9028435e-01
 -4.2109227e-01
 -6.7077982e-01
 -9.2655368e-02
  1.5180569e+00
 -4.3246876e-02
  2.2660339e-01
  8.0939287e-01
 -8.9546852e-02
  2.6700351e-01
 -5.5649966e-02
  1.6206542e-02
  4.9019471e-01
 -3.1440508e-02
  2.3715007e-03
 -2.7209643e-02
 -6.8609896e-03
 -2.7767988e-02
  8.4367553e-03
 -1.9979127e-02
 -1.2072886e-02
  2.3024853e-03
 -2.7224746e-02
  2.0750301e-02
  1.0200750e-02
 -2.7862428e-02
 -9.4266478e-03
  1.8255163e-02
  9.2117321e-03
  6.9953960e-01
  4.8439698e-03
  7.1764723e-03
 -5.5118250e-03
  7.7125533e-03
 -5.5068446e-04
  1.8308410e-02
 -1.0768260e-03
  3.5456475e-02
  5.2442453e-03
 -1.8585557e-02
  1.1587204e-02
 -9.9197566e-04
  8.1527897e-04
  5.1133111e-03
 -1.7897544e-02
 -6.7616925e-03
  7.2193784e-03
  1.4704064e-02
 -5.0335322e-03
  9.2043467e-03
 -3.5709969e-03
 -1.8798510e-02
 -4.5204745e-03
 -1.5948344e-02
 -3.7265595e-02
 -1.0516127e-01
 -7.4196719e-03
 -1.0658577e-03
 -3.8627602e-02
  7.7607948e-03
 -1.7371229e-03
  3.0625856e-03
 -1.4504061e-02
 -1.1322092e-02
 -3.3354480e-03
  9.6470751e-03
  2.0729238e-04
  5.5742045e-03
  2.4227718e-02
 -1.9875111e-01
  6.9352520e-01
  1.2756390e-02
 -1.1171440e+00
 -3.7143519e-03
  7.8501815e-01
  8.0676264e-01
  1.2087014e-02
 -1.3210096e-03
  5.7018638e-02
  7.6907977e-02
 -2.2873718e-02
  2.4746986e-01
 -4.2315727e-01
 -1.5505919e-02
  9.8448957e-04
  5.0223559e-01
  3.8471725e-02
 -1.9493353e-02
 -5.1372480e-03
 -1.2562092e-02
 -5.8078961e-03
 -8.7985873e-02
  3.9113155e-03
 -5.7666294e-02
 -3.3256933e-01
 -3.0434728e-01
 -3.8430676e-01
 -5.8265101e-02
  1.5884019e-02
  1.5134716e+00
 -7.5317868e-03
 -1.3339804e-01
  5.3809314e+00
  1.9749222e-02
 -7.1837866e-01
  3.1153243e-02
  1.7748377e-01
  8.9191395e-04
 -1.4623817e+00
  6.1864376e-02
  7.1866703e-03
 -4.2931318e-01
  2.0986834e-01
 -7.9552062e-02
  3.3762569e-03
  1.2550606e-01
  1.9948088e-02
 -2.4530903e-01
 -1.5113510e-02
 -5.3109688e-04
 -6.9683967e-03
  4.6075147e-04
  5.0559686e-03
 -1.9823760e-02
 -7.9301116e-04
  4.4593870e-04
 -7.5027421e-03
  1.0040894e-02
  6.5731225e-03
  9.4154011e-04
 -1.2183335e-02
  2.7612001e-03
  8.7001091e-03
  4.0434869e-03
 -5.9754611e-03
 -5.3286338e-03
  7.5919041e-03
 -1.3122931e-02
 -1.0907723e-02
 -1.2753243e-02
  1.0731369e-02
 -7.1964394e-03
 -3.5765667e-02
  2.9389717e-02
  5.1210575e-02
 -8.6209644e-03
 -6.0894573e-03
 -4.1450989e-02
  9.1129718e-03
 -5.6553977e-03
 -2.8135846e-03
  2.4604268e-02
 -5.1547871e-03
  1.0038679e-04
 -1.3182825e-02
 -2.4806719e-02
 -1.7563699e-02
 -2.0686619e-02
 -9.1494275e-03
  2.7113786e-02
  1.2323354e-02
 -4.9967058e-03
  2.0555269e-02
 -7.4230507e-03
  4.9295932e-02
 -9.7431215e-03
  2.5033494e-03
 -6.8278587e-03
  4.8233778e-03
 -3.0832496e-03
 -1.1603488e-02
  8.5590426e-03
  1.6462764e-02
 -1.1609703e-02
  1.1824800e-03
 -4.8503216e-02
 -8.1877196e-03
  1.8645814e-03
 -2.3698444e-02
 -5.6693847e-03
 -2.3642532e-03
  1.6769934e-02
  2.0832352e-02
 -7.2704908e-03
  6.3082399e-03
  4.8561580e-03
  3.8080882e-02
 -5.8030867e-04
  2.7046502e-03
 -1.2637309e-02
  1.2461944e-03
  5.5128625e-03
 -9.3398811e-03
 -9.9639194e-03
  1.9468465e-03
 -1.3468827e-02
  1.5259022e-02
  9.8484457e-03
 -1.3760850e-02
  3.6076244e-03
 -2.9957257e-02
 -1.0075420e-03
 -3.9210529e-03
  1.6130490e-02
  6.7187408e-03
 -3.3499892e-03
 -6.2949499e-03
 -1.0960088e-02
  1.0044875e-02
 -1.6423195e-03
 -5.6998068e-03
 -1.7273527e-02
 -1.1843830e-02
 -4.6804097e-02
 -3.1310786e-03
  3.4599859e-02
 -2.2801096e-03
  9.6602710e-03
 -4.4937138e-03
 -1.2563034e-03
  1.0036784e-02
 -7.2632395e-03
  4.5275055e-03
  8.8593764e-03
  1.3364918e-02
  3.7262582e-03
 -6.6613303e-03
  2.5700284e-02
 -3.3802425e-03
  2.4459593e-02
 -4.4073496e-02
 -5.8786431e-03
 -5.3846808e-03
 -3.6735512e-02
  1.7210865e-02
  1.0283207e-02
  1.2204577e-02
  1.8995013e-02
 -4.5754019e-02
  2.0340062e-03
  1.0771995e-02
 -5.3796601e-03
 -1.9014488e-03
  3.5445396e-02
  2.9528907e-02
 -1.6317131e-02
  9.8881470e-03
 -2.4705871e-03
 -9.8142419e-03
 -1.8154457e-02
 -4.2154058e-03
 -3.0533440e-02
  2.5876150e-01
  2.5355853e-03
 -7.2325421e-03
  1.3915123e-04
  1.0139694e-02
  6.2389009e-02
  6.6139176e-03
 -1.8328831e-03
  1.8213289e-03
  5.1246939e-04
  1.8750118e-02
  1.6009200e-02
  3.8222712e-02
  5.1471745e-03
 -1.7143528e-03
 -4.7902921e-03
  1.6251992e-02
  1.0521616e-03
  8.4780203e-03
 -6.8973340e-03
 -1.2689843e-02
  6.0411170e-03
 -2.3212835e-02
  2.6469585e-05
  1.1252233e-02
 -8.4181903e-03
 -8.1984214e-03
 -5.2431673e-02
 -3.0515622e-03
  4.3142587e-03
 -2.3964327e-04
 -3.8424686e-03
  1.6300093e-03
 -8.3562592e-03
 -8.2297260e-03
 -1.4588476e-02
  1.1579783e-02
 -6.7932144e-02
  2.1595804e-03
 -1.2884088e-02
 -2.2331776e-02
 -2.7750572e-03
  1.8900838e-03
 -1.3619932e-02
 -1.4509659e-02
 -9.9382061e-04
  9.6360166e-03
 -7.2045960e-02
 -2.4086088e-02
  1.6985081e-02
 -1.2579915e-03
 -2.7827267e-02
  8.3022304e-03
 -9.4417250e-03
 -1.0014669e-02
  1.4661507e-02
  1.6909650e-03
  4.5883828e-03
  2.2513207e-02
  5.9601627e-03
  9.6169710e-03
  6.0245311e-03
 -7.5301202e-03
  1.0950040e-02
 -1.4697479e-02
 -6.5698791e-03
 -6.4790910e-03
  7.4496781e-03
 -3.6335590e-03
 -5.4933638e-03
  3.7497445e-03
 -1.1742282e-02
  6.0910951e-02
 -4.4254258e-02
 -9.5667839e-03
  6.4847998e-02
  5.5094329e-03
  1.3739903e-02
 -4.9305502e-03
 -9.5582493e-03
  3.8330927e-03
  5.0436934e-03
  7.5829132e-03
  3.8228082e-03
  2.9758832e-03
  6.9994689e-03
  8.8103663e-04
 -1.4600327e-02
 -3.5825321e-03
 -1.1497219e-02
 -1.5237045e-02
  7.8164332e-04
  1.9216092e-02
  1.3301995e-02
 -9.9265426e-03
 -7.6048179e-03
  2.0252729e-02
  6.5753218e-03
  1.3260941e-03
  1.0335246e-02
 -3.7696652e-02
 -1.0454943e-02
 -2.2455327e-02
  1.1207126e-02
  4.2359480e-03
  2.0414442e-03
  9.6418699e-03
  1.1284731e-02
  1.4889419e-02
 -1.4230820e-02
  1.0496188e-02
 -1.4968736e-02
 -8.5196450e-02
  8.3075128e-03
  1.2543431e-02
  1.3317149e-03
  2.2501053e-02
 -7.7731526e-03
 -1.0626544e-02
  7.7472623e-03
  1.0309678e-02
  2.5710789e-02
  8.0250772e-03
  2.1961752e-02
  2.3421869e-03
 -1.5752304e-02
 -9.0069240e-03
  1.9589409e-03
  4.2214356e-03
 -1.3193077e-02
  3.3102728e-02
 -1.0044787e-02
  1.3229353e-02
  2.5017583e-03
  4.3776333e-03
  2.9787801e-03
 -6.0154255e-03
  1.8260401e-02
 -5.5773683e-02
  1.3790472e-02
  2.2317028e+00
  1.7048011e+00
  1.1274335e+00
 -5.9372002e-01
 -8.0160117e-01
 -7.9149073e-01
  8.3762360e-01
  1.3964120e+00
 -1.8931779e-01
 -3.0991060e-01
  2.9173782e+00
 -8.7855645e-02
 -2.6315758e+00
  3.5865450e-01
 -1.9712309e+00
 -1.0993133e+00
  2.4035713e-03
  9.8879594e-01
 -1.5073582e+00
  4.9224520e-01
  1.9380313e-01
 -1.7471333e+00
  2.5279334e+00
  3.1476799e-01
 -5.5241936e-01
 -5.9745723e-01
  1.6499765e-01
  2.4626898e-02
 -3.5108405e-01
  2.1243145e+00
 -1.3341516e+00
  1.3532844e+00
 -1.0296320e+00
 -7.1875393e-02
 -7.6232934e-01
  8.4752953e-01
  7.8383082e-01
  7.8860110e-01
  1.2715751e+00
  1.1325749e+00
  5.1846254e-01
  6.8012543e-04
  9.3270427e-01
 -1.0669512e+00
 -5.6065977e-01
  6.2755585e-01
 -1.2921512e+00
 -1.3883274e+00
  3.5195312e-01
 -1.4788066e+00
  5.7136558e-02
 -1.5131296e+00
 -1.2589526e-01
  4.5707107e-01
  5.7286326e-02
 -4.9309981e-01
  1.1012765e+00
 -2.6216626e-01
 -7.3666677e-02
  5.7910895e-01
  1.8023299e+00
 -2.6704004e-02
 -1.2100081e+00
 -7.8754477e-02
  4.2152135e-03
  7.2149682e-01
 -4.8229467e-02
 -1.7613435e+00
 -1.7369550e-02
 -1.4630075e-01
  7.2772944e-01
  2.0027854e-02
  4.1894382e-01
 -2.8961122e-01
 -4.0685916e-01
 -4.3166742e-01
 -2.1936062e-01
 -4.4558743e-01
 -9.1021573e-03
  8.1211969e-02
 -1.0795257e+00
  2.7285566e+00
  3.1409671e+00
  1.0315620e+00
 -6.8335594e-03
 -1.4825544e+00
 -9.2342585e-01
  7.6973569e-01
 -4.8066148e-01
 -3.6464769e-02
 -1.9070714e+00
 -2.5474980e-02
 -1.4412806e+00
 -3.2301730e-01
  7.2213143e-01
 -1.0511982e+00
  2.4680342e-01
  5.3468460e-01
 -5.6914907e-02
  3.5720384e-03
 -5.3458534e-02
 -1.6208258e-01
  2.2190170e-02
 -1.8862846e+00
  3.3924938e-03
  8.0502732e-03
  6.8466090e-02
  2.7714111e-02
 -1.7039147e-03
  1.8897291e-02
 -1.2985141e-02
 -5.4510441e-03
  1.6675217e-02
  3.9027100e-03
 -2.2577733e-02
 -3.3970117e-03
 -6.2943264e-03
 -7.6923203e-03
 -5.9017818e-03
 -2.5354489e-03
  8.5041104e-03
  1.9415183e-02
  4.3451078e-03
  1.1234012e-02
  1.5023664e-03
 -7.8531099e-04
 -4.3388963e-02
  6.1315842e-02
 -8.8100834e-04
 -3.6420338e-02
  5.2707285e-01
 -4.3444639e-01
 -7.3048621e-03
  4.5184612e-02
 -5.6129225e-02
 -1.5670372e-02
  8.5324766e-03
 -1.6125150e-02
  7.6416172e-03
 -4.8342613e-03
 -9.2792986e-03
 -1.4119933e-04
  1.3502289e-02
 -1.6468180e-02
 -1.1838109e-03
 -1.1116550e-03
  2.2841033e-03
  1.7343946e-02
  1.0651515e-02
 -1.5022620e-03
  2.1780653e-02
 -2.8466021e-03
 -1.9725319e-03
  6.6859329e-01
  1.3669357e-02
 -5.1287170e-03
 -4.8301462e-03
 -2.8390966e-02
  2.0099990e-03
 -1.3534069e-02
 -5.6576612e-03
 -9.9042635e-03
 -5.1457067e-03
  3.3275437e-02
  3.7253058e-01
 -5.7419771e-03
  6.2035453e-03
 -1.9802539e-02
 -9.7901934e-01
  8.9928246e-01
 -8.3459690e-02
  1.5692492e-03
  4.7387569e-03
 -7.0089726e-03
  7.2867163e-03
 -3.5741366e-05
  6.8606162e-03
 -4.7573779e-02
 -3.5377368e-03
  1.8851198e-02
 -6.5186687e-02
 -1.6784994e-02
 -8.0064405e-03
  4.2649722e-03
 -1.0458419e-01
  1.2062328e-02
 -4.5065753e-02
  2.4843569e-01
  1.2314151e-02
  2.5102821e-01
  4.6436694e-03
  8.5923932e-03
 -4.0009506e-03
 -7.3085926e-02
 -1.2046993e-02
  1.8288153e-01
 -1.1319835e-01
 -1.8878121e-02
 -1.3603971e-03
 -5.6611304e-04
 -2.0104093e-02
 -1.3171430e+00
  4.4508368e-02
  6.4038277e-02
  4.8959912e-03
  1.1334498e-02
 -2.2941385e-03
  1.9736879e-03
  5.0378107e-03
 -5.5968333e-03
  2.0742385e-02
  1.1289997e-02
  4.0504918e-02
 -1.2579445e-02
  1.1333628e-02
 -2.0057319e-03
 -8.5464603e-01
 -1.2417196e+00
  9.4379437e-01
 -1.1760019e+00
  2.4607255e+00
  4.7501409e-04
 -1.6811806e+00
 -3.0451491e+00
  5.4151446e-01
  1.7492275e-01
 -7.6912463e-02
 -1.0528087e-02
  2.1077082e-01
 -2.4526806e+00
  3.7741348e-02
  2.4782628e-01
 -2.1202640e-01
  1.3724849e-01
 -2.2186503e-01
 -2.3579809e-03
  4.3595397e-01
 -1.8501688e-02
  2.4754968e+00
  4.5321189e-02
 -1.6610222e-02
 -3.7228271e-01
  2.4865569e-01
 -7.8760874e-01
  8.9498246e-01
  1.4365005e+00
 -5.5184118e-03
  5.7408291e-01
  1.5660988e-02
 -9.5071512e-01
 -3.3388832e-01
 -9.6952671e-01
 -3.4814483e-01
  4.7437981e-01
  1.1754043e+00
 -8.6882627e-03
  4.7230646e-02
 -2.3630337e-01
 -1.2084489e-01
  3.1338543e-01
 -1.3957303e-03
 -1.2768358e-02
 -4.5071915e-03
  8.0096833e-02
 -4.0218639e-03
 -1.2658778e-01
 -7.1630697e-04
 -1.5131769e-02
 -6.8567600e-03
 -1.5899342e-01
 -9.1805458e-02
 -1.2815297e-03
 -1.6982458e+00
  3.6519253e-01
  3.7756595e-01
 -1.9105975e-02
  2.0452595e-01
  3.3696729e-01
  2.4510914e-01
  1.4751379e-01
 -6.4216077e-02
  1.5846549e-02
 -2.6780546e-02
 -5.1379156e-01
 -1.0329398e-02
  3.7457886e-01
 -6.9938409e-01
  5.7207095e-03
  8.7305397e-02
 -8.9385711e-02
 -7.2655291e-04
  3.3110896e-01
  4.4750023e-01
  3.5989007e-01
  2.8491148e-01
 -3.1924792e-02
 -3.4403995e-01
 -7.1399552e-01
 -2.5071278e-03
 -2.7435291e-01
  2.0710178e-02
  3.7349874e-01
  1.9366476e-01
  8.5763663e-01
  8.9402795e-02
  1.9927011e-01
 -3.0115393e-01
  9.6763350e-02
 -1.4597692e-01
  3.8740184e-02
  3.1282923e-01
  2.1434599e-01
 -5.6362349e-01
 -1.0042024e+00
  5.8969401e-02
 -3.6275956e-01
  1.5063968e-01
  1.3150561e-01
 -5.7747895e-03
 -3.5844151e-02
 -1.3291192e-02
  5.6369347e-05
  5.9576880e-04
  7.8340461e-03
 -1.5698818e+00
  2.5140639e-02
  8.5986570e-02
  3.1292892e-01
  9.9642001e-02
 -2.1881253e-01
 -2.8273847e+00
  3.4251681e-01
 -1.1299146e+00
 -5.4614808e-02
 -1.5283124e-02
 -2.3357730e-02
  6.3679598e-02
 -1.8828203e-01
 -1.3422675e-02
 -8.6177085e-03
 -9.0836687e-03
  1.6709520e-01
 -1.4841655e-01
 -1.9709319e-02
 -6.1503655e-01
 -1.9027284e-01
  1.3476137e+00
 -2.4313799e-01
 -3.9430708e-03
  5.6423366e-01
  5.0187096e-02
 -1.5077227e+00
  1.6948670e-01
  4.3669644e-01
  2.2373304e-02
 -1.4720422e+00
 -7.8241861e-01
 -6.4819002e-01
  3.2943857e+00
 -3.6185469e-02
  2.5184431e+00
 -7.9320688e-03
 -2.6987407e-01
 -1.0092685e-01
 -2.3890261e-01
 -1.3037607e-02
  3.4335145e-01
 -7.2066002e-03
 -1.6744886e-01
  1.5337846e-02
 -1.9934697e-02
 -8.9567304e-02
  1.5336523e-02
  7.2241160e-03
  3.2397069e-02
  2.0089637e-02
  6.3033938e-02
 -3.6328990e-02
 -5.7831281e-03
  1.6171154e-02
  2.6712954e-02
 -5.0217621e-03
 -9.0711201e-03
  2.8193317e-02
  7.8535061e-03
  1.7695624e-02
 -1.1078457e-02
  2.9630193e-02
 -1.6023503e-03
 -1.6443914e-02
 -1.9398946e-03
 -1.7539614e-03
  2.4271542e-03
 -9.6214004e-03
 -1.6649280e-02
  4.2022321e-02
 -7.5907554e-03
  1.5139079e-02
  1.3126474e-03
 -2.7779965e-02
 -3.8073328e-03
 -2.5035348e-05
 -1.8966556e-02
  4.0355943e-02
 -9.4674975e-03
 -1.1066275e-03
  5.4923189e-03
  2.3436673e-02
  2.0438066e-02
 -6.1578616e-03
  1.9299047e-02
  2.2711253e-02
  6.7070806e-03
 -2.9847462e-02
  6.3327905e-03
  4.0258104e-03
  1.9975215e-02
  3.2498412e-02
  1.6309395e-02
  4.7143279e-03
  3.4601935e-03
  4.3413714e-03
  5.0873714e-03
  1.2341896e-02
  5.7132589e-03
 -8.1292940e-03
 -5.4442249e-03
 -1.5059205e-02
  1.4361128e-02
 -4.3187756e-02
 -1.7055580e-03
 -1.5083041e-02
 -3.4605168e-02
  2.9302537e-03
 -1.0215647e+00
 -2.7372656e+00
 -3.8056195e-01
 -8.6827809e-01
  2.2836839e-01
  1.3733941e-02
  5.6523269e-01
  1.1166503e-02
  1.7354445e+00
 -2.0235969e-02
 -3.9671071e-02
  2.4324344e-02
 -1.2149397e-02
 -9.7523224e-01
 -2.9410028e-01
 -2.3812655e-02
  4.4503620e-01
 -3.2225672e-02
 -3.2431519e-01
  4.0220648e-01
  2.4986188e-03
  3.3441058e-01
 -1.5599086e-02
 -1.4205194e+00
  1.5032899e+00
  9.5737940e-03
  1.7187540e-01
  2.3226370e-01
 -9.6799098e-03
 -1.4639146e+00
  7.4843800e-01
  5.7147291e-02
  3.0545849e-01
  4.3255584e-03
  1.2547351e+00
 -8.7614590e-03
  4.8293830e-03
 -2.6087182e+00
 -1.2619388e-01
 -5.3705992e-03
 -7.4766630e-01
  1.1547163e+00
 -9.2493439e-01
  4.5739904e-01
 -3.1769159e+00
  1.6114393e+00
  2.4563859e-01
 -1.2518160e-02
  2.9562693e-02
  2.7079450e-03
  1.5546244e-01
 -1.2670585e+00
 -1.3848722e-01
 -2.1673182e-01
  2.1004913e+00
  5.3763473e-03
 -3.2977340e-01
 -6.0371682e-03
 -5.4826343e-01
 -8.0923975e-02
  8.6630806e-02
 -5.0906092e-02
  6.2461819e-02
  1.2780601e+00
 -2.2073366e-01
  8.6776331e-02
  1.3816776e+00
 -9.3961777e-03
 -1.6958819e-01
  9.3780971e-01
  8.1279632e-03
  1.8008098e-01
  5.6650367e-02
  1.7159688e+00
  2.2339206e+00
 -5.0339270e-02
 -7.2191261e-02
  5.6333673e-01
 -5.6962058e-02
 -2.3833783e-01
  1.7747946e-02
 -1.7766045e-01
  4.6321499e-01
 -2.6095020e-02
  1.7641558e-01
 -3.2325007e-02
 -1.9613538e-02
  5.1491447e-03
 -7.9812706e-02
  4.0918421e-02
 -1.8081475e+00
 -2.8669697e-01
 -9.6007995e-02
 -1.3587910e-01
  9.5291567e-01
  1.3944604e+00
 -2.5123650e-01
 -2.0830370e-03
  3.0016384e+00
 -9.2610586e-01
 -3.9617900e-02
  3.2732564e-01
  1.5029315e+00
 -6.7841756e-01
 -1.3634524e+00
 -1.3831428e-02
  2.0604355e+00
  7.8451806e-01
  1.5149309e-01
 -8.9009553e-01
 -1.3119913e+00
 -9.5936224e-02
  1.2850111e+00
  1.0396475e+00
  4.5700357e-03
 -5.6543607e-01
 -1.6038417e+00
 -1.1221614e+00
  4.4810224e-02
  9.1917682e-01
  1.8983217e-01
  2.9395539e-01
  3.4922832e-01
 -1.0398030e-01
 -1.2450237e+00
 -7.4734342e-01
  9.0305567e-01
  2.8569355e+00
 -2.3336786e-01
  9.3694180e-02
 -5.8028646e-02
  1.6464950e+00
  9.3216193e-01
 -2.1917312e+00
 -1.2015073e+00
 -7.2522694e-01
 -1.2523885e+00
  7.9473847e-01
  3.9849499e-01
 -1.9094790e+00
 -2.7052770e+00
  2.0284805e+00
 -2.4477926e-03
  1.3197433e+00
 -1.4725841e+00
  3.6641103e-01
 -3.7937489e-01
  1.5413342e+00
  1.2403708e-02
  7.4045002e-01
 -6.7774218e-01
  1.1823218e+00
 -1.7782735e-02
  1.6251824e+00
 -1.2501551e-01
  1.5671947e+00
  3.9533000e-02
  5.9111822e-01
 -9.6391910e-01
  2.2817114e-01
  2.7808183e-01
  9.1557008e-01
 -2.0659604e+00
 -3.5244670e+00
 -5.8194739e-01
 -7.6024389e-01
  1.2330969e-01
 -5.4610997e-01
  1.3171334e+00
 -5.3422111e-01
  8.1830047e-02
 -5.1548451e-01
 -4.7078809e-01
 -4.0652540e-01
  7.8575730e-01
  2.3596899e-01
  1.5244625e+00
 -1.5208800e+00
  3.4422304e-02
  1.5051937e+00
 -8.5664260e-01
 -2.0812224e-01
 -1.0524515e+00
  4.4324845e-01
  8.1397480e-01
  8.2659870e-01
 -2.6845343e+00
  4.2371395e-01
  3.9333923e+00
  1.3484812e+00
  6.1740106e-01
 -1.8117027e-01
 -2.0224855e+00
 -5.5309302e-01
  1.0572568e+00
  1.5050480e+00
  1.0705676e+00
 -4.3174073e-01
  7.7663159e-01
 -2.9182929e-01
  4.5060268e-01
  5.3109860e-01
 -1.0911462e+00
  2.6047102e-01
  6.0301071e-01
 -1.8902595e-01
 -8.3859652e-01
  1.4943694e+00
  2.5148192e-01
 -9.9075568e-01
  2.8988507e-01
  5.6765896e-01
  1.8022819e+00
 -9.5382825e-02
 -1.4397948e+00
 -6.5995634e-01
 -2.6921585e-01
 -6.1986744e-01
  4.0027132e+00
 -2.9326195e-01
 -2.8773389e+00
  1.0087235e+00
  9.0501934e-01
 -1.8149499e+00
 -1.5934300e+00
  9.0766090e-01
  2.2249933e-01
 -8.9290619e-02
  9.7311847e-02
 -7.8709744e-02
  6.1678416e-01
 -4.1258836e+00
  4.7459087e-01
  1.0375433e+00
  3.3293840e-01
 -2.0718839e+00
 -6.1640000e-01
 -6.2218118e-01
  1.8346123e-01
 -8.4143376e-01
  7.5307566e-01
  5.2161610e-01
 -2.1854267e+00
  4.6593744e-01
  2.3665113e+00
  2.9276645e+00
  1.4692156e+00
  1.1342946e+00
  2.2093694e+00
 -6.4817381e-01
 -1.1539448e+00
  3.2943714e-01
 -1.1791594e+00
 -2.7521276e-01
 -1.2175861e-02
 -1.0298499e+00
  1.2149858e+00
 -4.9233180e-02
  6.9567060e-01
  2.5023124e+00
  1.2050261e+00
  2.7368357e+00
 -9.9777460e-01
 -1.5337436e+00
  1.6217723e-01
  1.9315101e+00
 -5.4066539e-01
 -2.4928348e-01
 -5.6368089e-01
 -1.0637368e+00
  6.9078392e-01
  3.7869257e-01
 -6.1329103e-01
 -1.6708232e+00
  1.7210752e+00
  8.9872402e-01
 -2.3489096e+00
 -2.7369779e-01
  2.0633380e-01
 -2.6785880e-01
 -7.8728952e-02
  6.9144726e-01
  1.5405490e-01
 -1.8549598e+00
  1.4545057e+00
  4.3258697e-01
 -3.7009120e-01
  8.4705907e-01
  9.7964150e-01
 -8.3923817e-01
  1.6088367e+00
  9.4035602e-01
  3.1177623e-03
 -1.3367487e+00
 -2.2604296e+00
 -2.9238391e+00
  3.6426446e+00
  9.3542385e-01
 -1.3699062e+00
 -7.7660424e-01
 -2.9315904e-01
  1.4589505e+00
  2.5043538e+00
  1.2740529e+00
 -6.2078959e-01
 -9.9486369e-01
 -1.3636769e+00
  3.9672065e+00
  2.8127737e+00
  8.4907955e-01
  5.1460630e-01
 -2.8285909e-01
 -3.0214505e+00
  1.7572873e+00
 -4.8383474e-01
 -4.8587865e-01
 -3.1004713e+00
 -9.2303795e-01
  3.2459584e-03
  1.1577390e+00
 -1.2017305e+00
  1.6656570e-01
 -1.9493471e+00
 -2.4584756e+00
 -7.9575711e-01
  1.3222773e+00
 -2.1722882e+00
 -4.5300085e-02
  3.3340652e+00
  2.3430789e+00
  6.7759091e-01
  3.9295241e-01
 -1.1957465e+00
  7.1780132e-03
  7.1780132e-03
  7.1780132e-03
  7.1780132e-03
  7.1780132e-03
  7.1780132e-03
  7.1780132e-03
  7.1780132e-03
  7.1780132e-03
  1.1229538e-02
  1.1229538e-02
  1.1229538e-02
  1.1229538e-02
  1.1229538e-02
  1.1229538e-02
  1.1229538e-02
  1.1229538e-02
  1.1229538e-02
  6.6791815e-03
  6.6791815e-03
  6.6791815e-03
  6.6791815e-03
  6.6791815e-03
  6.6791815e-03
  6.6791815e-03
  6.6791815e-03
  6.6791815e-03
  7.6475660e-03
  7.6475660e-03
  7.6475660e-03
  7.6475660e-03
  7.6475660e-03
  7.6475660e-03
  7.6475660e-03
  7.6475660e-03
  7.6475660e-03
  5.1768012e-03
  5.1768012e-03
  5.1768012e-03
  5.1768012e-03
  5.1768012e-03
  5.1768012e-03
  5.1768012e-03
  5.1768012e-03
  5.1768012e-03
  1.6870151e-03
  1.6870151e-03
  1.6870151e-03
  1.6870151e-03
  1.6870151e-03
  1.6870151e-03
  1.6870151e-03
  1.6870151e-03
  1.6870151e-03
