nep3 3 Cs Pb Br 
cutoff 5 4 17 9
n_max 8 4
basis_size 10 8
l_max 4 2 0
ANN 50 0
  9.6339643e-01
 -1.2100300e-05
 -1.1798202e+00
 -1.0916225e-06
 -3.2274833e-01
 -1.6817392e+00
  3.6814427e-01
  4.6672997e-01
  8.4609115e-01
 -2.4698251e-01
  5.3790681e-02
  3.3555612e-01
 -1.3320249e-01
 -4.8667324e-01
 -3.5400161e-01
 -5.8404422e-01
 -9.0475374e-01
  1.3357917e-05
 -3.4824427e-02
 -4.0918624e-01
 -9.8095760e-03
 -1.0967262e-01
  2.6526420e-06
 -7.3717691e-02
 -3.9877366e-02
 -1.8010549e-01
  3.0106908e-01
 -2.1112111e-01
 -4.1320294e-05
 -1.4374286e-05
  5.9338614e-02
 -3.3643076e-01
 -2.1481799e-01
 -5.9153412e-05
  6.3335201e-06
  6.5290733e-06
 -6.7731139e-06
  9.4325360e-06
 -3.0486110e-05
  8.9328851e-06
 -1.2300334e-06
  4.4157314e-06
  5.4484058e-06
  1.3330620e-05
 -1.7858323e-05
  3.1209431e-06
  1.0770660e-05
 -1.2843326e-05
 -1.1759373e-06
  1.9437861e-05
  8.1130202e-06
 -7.4198388e-06
 -8.6958323e-07
 -2.3691795e-05
 -6.9114644e-06
  3.5398278e-07
  1.2807010e-05
 -4.4406297e-06
 -1.6372294e-05
  2.1253061e-05
  8.8010411e-06
  1.6042053e-05
 -1.4088136e-05
 -1.2468955e-06
 -1.5534288e-05
  2.6928392e-06
 -1.7596962e-05
 -4.1431631e-06
 -3.2855132e-06
 -3.8665316e-06
 -1.1131112e-05
  3.7727441e-06
  1.3342553e-05
  4.4482135e-06
  1.1609654e-06
 -8.6650625e-06
 -5.4857020e-07
 -4.5107581e-06
 -2.1122120e-05
  8.7430662e-06
  2.4773883e-05
  8.7352255e-06
  1.3091295e-06
 -2.6389214e-06
  1.7569799e-04
 -4.1726366e-07
 -1.9198294e-05
 -3.5461653e-06
  7.5788826e-06
  1.4897832e-06
 -8.5248348e-06
  3.4728532e-06
  5.5998080e-06
 -1.9522140e-06
  1.8645091e-05
 -9.0977619e-06
 -1.3891356e-06
  7.1880783e-07
  2.0186708e-05
 -1.7014429e-05
 -9.8833084e-07
 -8.7016115e-06
 -1.9550855e-06
  2.7863516e-06
  1.5365043e-07
 -4.1955764e-06
 -5.8711052e-05
 -1.6785491e-05
  1.1188598e-05
  1.0954536e-05
  5.2258310e-06
 -9.8152159e-06
 -1.0049711e-05
  6.1923965e-06
 -2.2200527e-06
  4.5871693e-06
 -1.0974321e-05
  8.4056774e-06
 -4.1845751e-06
  5.6762788e-06
 -2.3824850e-06
 -1.6166115e-06
  2.8233831e-06
  3.8681312e-05
  1.4442519e-05
  8.1917706e-06
 -4.2077895e-06
 -3.0434148e-05
 -1.9785944e-06
 -2.9933501e-05
 -2.0996024e-05
  3.7503338e-05
  4.5094530e-06
  2.6617705e-05
 -2.9423886e-06
 -5.8310766e-06
 -1.5267815e-06
 -2.7312351e-06
  1.7291304e-06
  9.6922722e-06
  2.2382857e-05
  6.7942545e-07
  1.9446600e-06
  1.1598827e-05
 -8.3310233e-06
  4.3324044e-06
  5.8358596e-06
  9.6507620e-06
  1.9635759e-06
 -1.3634883e-06
  1.2287701e-06
 -1.2542831e-06
  2.3968996e-05
 -6.1357497e-07
 -5.9421113e-06
 -5.8532640e-07
  7.5324397e-07
 -2.1562400e-06
  6.7769309e-07
  1.2664045e-06
  5.5335386e-06
  5.9613512e-08
 -7.4796248e-05
  7.1100408e-06
  1.3626059e-06
 -2.3728180e-06
  1.2610641e-05
 -4.4232997e-06
 -1.6605145e-05
  2.2408787e-05
  7.1082849e-07
  1.7338038e-05
 -1.9094466e-07
 -9.7138345e-06
 -2.4087065e-06
 -3.9166739e-06
  2.9466155e-06
 -3.4803430e-05
  4.4361855e-06
 -2.6485802e-06
  3.4315444e-06
 -3.7374964e-05
 -5.0301691e-07
 -6.6153343e-06
  1.2865787e-05
 -7.9451706e-07
  1.2504628e-05
 -4.1821764e-07
 -2.2658114e-05
 -1.6128396e-06
  7.2022281e-06
 -1.0273681e-05
 -1.6815344e-06
 -4.6220630e-06
  1.7531187e-05
  2.2716737e-05
 -1.7882703e-05
  6.5009692e-07
 -1.0691948e-05
 -4.8106136e-07
  3.3721385e-06
 -1.2089181e-05
  8.8243032e-06
  3.0519320e-06
 -3.0148904e-06
  3.3089630e-06
 -6.5926356e-06
  1.9428307e-06
 -1.0134446e-05
  2.4537380e-06
 -1.1330369e-05
 -8.4286685e-06
 -5.6820350e-06
 -9.9753188e-06
 -4.2734564e-06
 -2.3985690e-06
 -8.7726103e-06
  2.1729837e-05
 -2.0726609e-05
 -5.5766582e-06
 -3.5864257e-05
 -1.8770415e-06
 -1.3525029e-06
  6.6505811e-07
  7.5936960e-06
  2.5635039e-05
 -9.2438222e-06
  2.4241790e-06
  9.5975702e-06
  1.0294157e-05
 -4.2169145e-06
 -5.4986008e-06
 -4.0711388e-06
 -7.3179081e-09
  7.0817937e-06
  9.3378803e-06
  4.1454919e-06
 -9.4386423e-06
  8.0589693e-05
  8.4372596e-07
  1.3648585e-05
  9.1657012e-06
 -4.1198737e-06
 -1.7483486e-05
  4.6209570e-06
 -3.2262619e-07
 -6.4813767e-06
  1.6842741e-05
 -2.7097931e-06
  1.4343870e-05
  5.5738440e-07
 -3.0164183e-06
  5.6810886e-06
  2.7765498e-06
 -3.2744540e-06
 -3.1509660e-06
  1.1677894e-05
  3.1203890e-06
 -7.5404000e-06
 -3.7824907e-06
  5.1418383e-06
 -3.6056545e-06
  4.9186574e-06
  4.7883190e-05
 -4.5713000e-06
  2.7413203e-05
  1.3926760e-06
 -3.0742456e-07
 -1.1176030e-05
 -5.0258814e-06
  4.0939525e-05
  3.1755856e-06
 -1.1214036e-01
 -1.1264562e-05
  2.7989137e-01
 -1.2114175e-05
  1.3583992e-05
  5.2544018e-03
 -2.1020962e-01
 -7.9777265e-06
 -1.3786942e-01
  1.1004906e-01
  6.9739199e-03
 -8.0676703e-03
  3.6462389e-02
  5.7797302e-02
  1.7070031e-01
  1.8499052e-02
 -4.5309574e-03
 -1.1602735e-04
  3.4719096e-03
  1.1467624e-01
  3.4496736e-02
  7.3574879e-04
 -1.1976632e-01
  2.7764894e-05
  1.6658370e-04
  5.7811059e-02
 -2.3647022e-05
  1.7582262e-05
  1.0837912e-04
 -1.7418669e-04
 -7.3454913e-04
  7.2155352e-05
  1.6379955e-01
 -1.4726053e-05
  1.4523338e-05
  6.8649119e-06
 -4.9017585e-06
  1.3995102e-05
 -1.1337737e-05
  2.8565009e-06
 -6.1332016e-06
 -1.5975040e-06
  1.0900874e-05
  1.0271181e-05
 -2.8191815e-05
 -3.0072154e-06
  3.8619669e-06
 -1.5906181e-06
 -1.7552929e-06
  1.0391150e-05
  9.6710096e-07
 -8.0907121e-06
 -2.1552737e-06
 -3.3403884e-07
  2.9718176e-06
 -8.2843080e-06
  6.6182707e-05
 -7.8397443e-06
 -5.9418140e-05
  9.0476833e-06
 -4.3186524e-06
 -2.1551459e-06
 -6.6946836e-07
  1.0013070e-05
  4.5539923e-07
 -1.1293049e-05
  1.8044226e-05
  8.8567799e-07
  5.2007763e-06
 -6.4315150e-06
  5.5644006e-05
 -7.8162373e-07
 -1.1975326e-06
 -1.4547361e-05
  5.6654362e-06
 -6.6414691e-07
  1.2014201e-05
  9.7764644e-07
 -6.4309834e-06
 -1.0822413e-05
 -8.1750595e-06
 -1.0180433e-06
 -4.6902878e-06
  2.2227227e-05
  3.9506831e-06
  4.0939349e-06
 -3.9487929e-07
 -1.3502748e-05
  1.1410604e-05
 -1.2611225e-05
  2.2348681e-06
  4.1700541e-06
 -5.9358936e-06
 -1.7650831e-06
 -3.0256604e-06
 -9.5182031e-06
  1.3347246e-05
  5.8492647e-06
  4.7212611e-06
  3.1373185e-07
 -8.4653266e-07
  2.4940498e-05
  3.8391971e-07
 -5.9622876e-06
  7.6189831e-02
 -1.2525079e-06
  1.8511011e-05
  2.4892841e-04
 -3.9495371e-02
  1.3682078e-06
 -7.3150630e-05
  5.2741393e-07
 -3.4435187e-03
  2.9127124e-01
  2.7964481e-05
  1.9248458e-02
  1.3076773e-05
  3.6858786e-02
 -4.3959254e-03
  8.8553288e-06
  6.0211787e-05
 -5.9476520e-06
  6.9797942e-03
 -2.4395126e-01
 -8.9146495e-05
  3.6378640e-07
  4.2709573e-05
  6.2922366e-02
 -9.5376624e-03
 -4.6998234e-06
  1.6962683e-04
  1.2440064e-05
  9.7376005e-06
  7.9036523e-05
  3.4121644e-05
  1.1030159e-05
  6.0905186e-05
 -8.1913940e-06
 -1.1337354e-01
 -2.8539357e-06
  1.3044028e-05
  7.1462786e-01
  4.3704867e-01
 -5.7475883e-01
  6.0286762e-05
 -6.4359151e-06
  4.2900094e-01
  1.4690046e-01
 -2.6997039e-05
  1.8447911e-02
 -1.5895155e-04
  3.2477352e-01
  2.5002185e-01
  2.4985678e-05
  2.9527124e-02
 -1.3271938e-05
  4.8398390e-02
 -1.5480776e-01
 -6.8354607e-06
  9.0203757e-05
  1.9549484e-06
 -1.1174782e-05
  3.9597911e-01
  7.6510314e-06
 -3.1280364e-05
 -1.2962601e-06
  2.8051797e-01
  5.5484339e-03
 -8.5796807e-03
 -5.1326788e-05
 -3.8751623e-01
  7.9973624e-06
  3.9941895e-01
 -3.1107025e-05
 -1.5253636e-01
 -3.6766753e-01
  3.4713943e-03
  1.4862727e-01
 -6.6475627e-06
  4.4022985e-05
 -1.0272074e-02
  1.1340994e+00
 -4.3800251e-06
  9.0401598e-05
 -1.1279438e-05
 -9.3305826e-02
  7.7463841e-01
  2.5502160e-01
  2.8665179e-05
  1.7178139e-05
 -7.3237441e-02
  4.7644886e-01
  2.9264924e-01
 -1.2123412e-05
  1.5878765e-06
 -1.5408872e-01
  4.8148137e-05
  8.0265681e-06
 -2.0602092e-06
 -4.8435536e-06
  4.6177235e-02
  1.7114557e-05
 -6.2016729e-04
 -2.1177017e-05
 -4.7096496e-06
  2.4312374e-06
 -1.0510042e-05
  7.2055673e-06
 -1.2673281e-06
 -1.1084922e-05
 -8.5495785e-06
 -3.8975954e-06
  1.3947452e-05
  3.6858344e-06
  1.0944225e-05
  6.2451822e-06
 -2.7074691e-05
  7.1824716e-06
  2.1558641e-05
 -1.5252007e-05
  8.3553632e-06
 -9.6973463e-07
 -1.2417078e-06
 -1.1633022e-05
  8.8282504e-06
 -2.0630723e-06
  1.0678117e-05
 -2.1403660e-06
 -2.2612198e-06
  1.1727805e-05
  4.5043735e-06
  9.7893853e-06
 -1.6052745e-06
  7.3073147e-06
  6.2454984e-07
  1.5709400e-06
 -5.6778536e-06
 -5.9565332e-06
 -1.8216360e-07
 -5.9189433e-06
  2.2033008e-05
  1.6784939e-05
  1.8639148e-06
  7.1465188e-06
  6.5963836e-06
 -8.8615971e-06
  4.0327395e-06
 -7.3203461e-07
 -4.4583267e-06
  2.7638871e-06
 -1.7290304e-05
 -1.6436803e-05
 -1.4786478e-05
 -4.2463114e-05
 -4.7725325e-06
 -5.2671571e-06
 -5.0282897e-06
  6.5725312e-06
 -1.0849028e-05
 -3.6116302e-02
  1.0647517e-05
 -4.9663277e-06
  1.2970410e-05
  3.3209371e-06
  1.0985376e-05
 -6.8317913e-06
 -1.4053397e-05
 -2.8659506e-05
 -2.1464464e-05
 -6.6137345e-06
 -1.6550021e-05
 -3.1283739e-06
 -9.9614488e-07
  1.1927859e-05
  1.8659701e-05
  4.0795592e-05
  1.6480484e-05
 -1.2145859e-05
 -9.9635172e-06
 -9.6612866e-06
  3.7889000e-05
  5.0338667e-06
 -3.1290826e-06
  1.5156664e-05
  9.7750288e-08
 -7.9456777e-06
 -3.4444247e-07
  6.5834627e-07
 -1.1972129e-06
 -1.5425661e-06
  2.7026244e-05
 -6.9720063e-06
 -1.0105175e-05
  6.6090824e-06
 -4.3191276e-06
 -3.8333692e-06
  3.7955929e-06
 -6.2422109e-06
 -3.5857868e-06
 -5.5471392e-06
 -3.8603171e-06
 -2.2735465e-05
  3.5201247e-06
  1.1600590e-05
  1.1053345e-05
  1.4920030e-05
 -1.6716443e-05
 -1.2503036e-05
 -2.6301479e-05
  4.4223716e-06
  1.1238320e-05
 -1.3829610e-06
 -1.6989831e-06
  6.0936086e-06
 -2.1493106e-06
 -1.6097662e-05
 -4.2039986e-07
 -9.3268281e-06
  3.3615920e-06
  4.6332900e-08
  1.6410229e-05
 -2.1077585e-06
  2.8553204e-06
  1.7643619e-05
  3.4324232e-06
  4.9102277e-07
 -2.5042452e-06
 -6.2288686e-06
 -1.6365519e-05
  1.1547872e-05
 -4.0080904e-06
  1.1836755e-05
  2.1448836e-06
 -4.3970422e-06
  1.0856684e-06
 -1.7832326e-07
 -4.8520832e-09
 -4.5375309e-06
  1.1085880e-05
  6.7046142e-07
 -7.4479266e-07
 -8.6781292e-06
  1.3551243e-06
  8.2999040e-06
 -8.1913413e-07
 -8.2492437e-07
 -4.7144247e-05
  7.0432811e-06
 -3.9641491e-06
  2.9904445e-06
  5.2551637e-05
 -1.5487431e-05
  6.0194843e-06
  1.0964230e-05
  1.7488188e-05
 -4.5237630e-06
  4.9960531e-06
  1.8702242e-05
 -1.7223394e-05
  1.1762372e-05
 -5.7451589e-06
  1.8229370e-05
 -6.7874572e-07
 -4.2616675e-06
  1.9398085e-05
 -2.3635216e-06
 -7.7610258e-07
  7.0183100e-06
  1.6562944e-07
 -1.1807488e-05
 -5.2055002e-06
 -1.0248426e-05
 -1.2450673e-06
  4.7140935e-07
 -1.2396407e-02
  2.6259017e-05
  1.1286781e-01
  2.0895661e-06
  2.4884355e-05
  1.2593440e-04
 -7.3367171e-02
  2.7182612e-05
 -7.5134267e-05
 -1.9226689e-05
  2.1676766e-03
 -3.7634555e-02
  5.5282758e-06
  3.6545596e-05
  1.1560795e-03
  1.7769549e-02
 -1.6984813e-02
  2.1358119e-06
  1.6632707e-06
 -9.1945303e-06
 -3.2327691e-05
  1.0061073e-05
 -3.0922489e-03
 -6.9764110e-06
 -1.7557289e-06
  3.6242757e-02
  3.2084442e-06
  7.6931638e-06
  1.1110965e-04
  3.7502105e-08
 -1.2759496e-02
  8.1333355e-06
  1.9504252e-05
 -1.5756610e-05
 -1.0260414e-06
 -6.8382119e-06
  1.9887555e-05
  2.0736292e-05
 -9.6404437e-06
 -7.5864534e-07
  8.0896116e-06
 -8.1573398e-06
 -3.0027991e-08
 -9.2526316e-06
 -5.7609886e-06
  1.0874230e-06
 -3.6960193e-07
 -1.5743090e-05
  7.4808272e-06
 -2.9904809e-06
 -2.8160330e-05
 -5.0291187e-06
  7.7888426e-06
 -2.0698265e-06
 -5.4551413e-07
 -1.1790538e-06
 -5.4719726e-06
  1.8352164e-06
  6.1389351e-06
  4.7152321e-06
  1.3923484e-05
  1.6981523e-05
  3.0150143e-06
  9.2237528e-08
 -1.9611452e-05
  2.8454120e-05
 -2.4583067e-05
  2.1575092e-05
 -3.6749668e-08
 -1.1030289e-05
  1.2168857e-05
 -2.1372911e-05
 -6.8207924e-06
 -2.7417504e-05
  8.8139786e-06
 -2.2313639e-06
 -1.6190828e-05
  8.1377202e-06
  6.3559605e-07
  7.1025020e-06
 -9.9242652e-06
  1.2568156e-05
  4.9065297e-06
 -2.6880593e-07
  1.4861371e-05
  1.7128855e-08
  1.6554219e-06
  1.2337792e-06
  6.6385372e-05
 -1.1700689e-06
 -4.2645161e-07
  1.4620025e-07
  1.6071752e-06
  1.7295175e-05
 -8.1583003e-06
 -1.8012073e-05
  4.2050829e-07
 -5.7255875e-06
  8.4452931e-06
 -5.4656421e-06
  4.9622304e-06
 -1.2107221e-06
  2.8655228e-05
  7.9851952e-06
 -1.7208902e-05
 -9.1349584e-06
  2.4530041e-06
 -2.0540174e-05
 -6.5691455e-07
 -1.8938977e-08
  9.7951615e-06
  1.6546705e-05
  1.7764351e-06
  2.2393784e-05
  2.1335880e-05
 -9.9446206e-06
  2.0350104e-05
 -4.3033651e-05
  1.2537689e-05
  1.2952665e-05
  1.4040010e-05
  9.3975405e-06
  1.5449867e-05
  3.7366856e-06
 -3.1084237e-06
 -9.2078039e-07
  7.9875063e-06
 -1.5387568e-05
 -1.7459049e-06
 -3.6969002e-06
  2.0880387e-05
 -3.1404845e-06
 -3.5664721e-06
 -2.2035643e-05
 -2.0147979e-08
 -5.0902952e-07
  1.6340768e-05
  3.0067881e-06
  1.1102395e-06
 -2.2680737e-05
  4.4151916e-06
 -1.6677834e-05
 -1.4131662e-06
 -7.5287147e-07
 -8.4203339e-06
  1.9717384e-06
  6.6622380e-07
 -1.6411297e-05
  9.3139374e-07
 -5.5519308e-06
 -7.6154965e-06
 -5.6002436e-06
 -3.9023089e-07
  8.5609890e-06
 -3.3838994e-06
 -1.5560979e-06
 -2.0699442e-06
  6.4778644e-05
 -3.6293766e-06
 -2.0907633e-05
  8.6699320e-06
  1.2308525e-05
  9.6934154e-06
 -2.4351457e-05
  3.1632846e-06
 -3.2673979e-06
  2.7880344e-05
 -1.1443631e-05
 -1.8677181e-06
 -6.0291645e-06
 -6.6649973e-06
 -2.0381785e-07
  1.0019069e-02
 -1.2889475e-05
  7.8218932e-07
 -1.8184777e-01
 -4.6615904e-05
  4.7467075e-02
  1.4124846e-05
  1.5949970e-05
 -1.2786934e-01
 -2.6411816e-01
  2.7403557e-06
  9.5015803e-06
  1.3060817e-05
  2.3493364e-03
  3.4388334e-02
  7.9736483e-06
  5.6283723e-05
  5.1325105e-06
 -3.8264880e-05
 -6.7749584e-01
 -1.9334769e-03
 -6.2979493e-06
  1.3659267e-06
 -2.2217291e-06
 -2.2395098e-01
  2.1818139e-05
  6.5651902e-06
  1.4505345e-05
  1.1756674e-05
  3.5502086e-05
  8.9413300e-07
 -2.1622025e-05
 -1.1565931e-05
 -1.1752446e-05
 -5.4533039e-06
 -1.1735580e-05
 -7.1354120e-06
 -9.0844233e-06
  6.0831162e-06
  1.1065980e-05
 -8.4650856e-06
 -1.8500816e-06
  5.3350516e-07
  3.9683629e-05
 -1.2156815e-05
 -4.5127231e-06
  5.3632300e-07
  2.7708031e-06
  4.3325576e-06
 -1.4638090e-06
  1.2220826e-05
 -1.3892188e-06
 -9.6149788e-06
 -6.3751613e-06
 -1.1069054e-05
 -4.8116735e-06
 -7.7430104e-06
  2.7360358e-05
  4.1938973e-05
 -4.5196783e-05
 -6.9240441e-06
  6.3642108e-07
 -1.0884836e-06
 -4.7615504e-07
 -2.2591043e-06
 -4.1123744e-06
 -2.6346609e-01
  1.0641736e-06
  4.7588217e-01
  1.6271859e-05
  5.8733605e-02
 -6.3758844e-01
  7.6092350e-01
 -1.2472199e+00
 -1.0234097e+00
  7.2285727e-02
  1.3037252e-01
  1.0085138e-01
  2.2001903e-01
  5.6561852e-01
  4.4254255e-05
 -2.4360462e-01
  2.6647977e-03
 -4.9313803e-06
 -1.1886177e-01
  4.6346450e-04
 -2.2419669e-01
  6.9094025e-02
 -3.3606014e-01
 -2.2408476e-02
  2.6949921e-05
  1.9104505e-02
  6.5102999e-05
  7.9909523e-06
  5.0345883e-05
 -6.1377614e-06
 -1.8947653e-01
  9.8863319e-02
  2.3105675e-05
  4.1791517e-02
  1.5647296e-06
 -1.9059864e-05
 -3.9224497e-06
 -2.6815474e-06
 -1.6406946e-05
 -2.8598163e-06
 -6.5742319e-07
  1.6877630e-07
 -2.7992723e-05
 -8.3996571e-07
  1.0916490e-05
  4.1598391e-06
  2.3971905e-05
  5.2226560e-06
 -2.1846188e-06
 -7.3088258e-06
  7.3819269e-06
 -5.2125129e-06
 -9.0613839e-06
  2.8504853e-06
  6.9021708e-06
  6.3427154e-07
  2.0502671e-06
  6.4553269e-06
  1.3361362e-05
  6.1867318e-06
 -5.1985306e-05
  6.6275979e-06
 -4.1748217e-07
 -8.3300065e-06
  3.1438416e-05
 -3.4911222e-06
 -8.8624356e-06
 -4.9260930e-06
  1.0366324e+00
  6.2906474e-06
 -1.3469480e+00
  3.0189027e-05
  2.0945615e-01
 -2.9272211e+00
 -2.9032329e-01
  1.2661605e-01
 -1.3191406e-05
  1.4014915e-01
 -5.4526830e-01
  2.2774281e-01
  8.3396691e-01
 -3.0580066e-02
  4.7958806e-01
 -5.4524478e-02
  3.5839045e-01
 -2.4994992e-01
  8.2910089e-03
  3.2921970e-01
  5.0997829e-01
 -2.1114081e-01
 -2.8419331e-01
  7.7266847e-03
  2.3454833e-01
  1.1133802e-02
 -6.4587694e-01
 -6.2505521e-02
 -1.2912403e-06
  7.8979301e-06
 -1.0464943e-01
 -2.7092919e-03
  4.2852505e-05
  1.1320462e-06
  9.5202740e-06
  5.6652079e-06
 -8.9484565e-06
  2.7406984e-06
  5.9098838e-06
 -1.6119136e-05
 -2.9892257e-05
 -1.3680798e-06
  2.6857606e-06
  2.4513567e-05
  1.8091671e-07
  1.5156852e-06
 -1.0297810e-05
  1.7842364e-06
  1.5078682e-06
 -9.8993551e-06
  2.8946442e-07
  1.8630062e-05
  2.9405319e-06
 -2.3744644e-06
  1.0877783e-05
  1.0134173e-05
  1.9557369e-06
 -2.1385015e-06
 -2.1589851e-06
  2.0695402e-06
 -8.8965840e-05
  8.4382455e-06
 -5.0099334e-06
 -1.0528753e-05
 -1.8776718e-06
  1.1294954e-05
 -1.4526158e-05
  8.6976206e-06
  4.4138935e-01
 -9.5812584e-06
 -3.0727798e-01
  1.5187590e-05
 -2.0778245e-06
 -4.6464643e-01
  1.8962139e-06
  7.5624406e-02
  4.1681793e-01
 -3.8495767e-03
  2.4921343e-01
  5.9215546e-01
 -7.6798256e-05
 -4.3003780e-05
 -5.0064584e-04
 -1.1313911e-01
  5.1946867e-02
  1.1157669e-05
 -6.8760150e-05
 -6.0002003e-06
  1.7329778e-04
 -9.8868340e-02
  8.7098735e-05
  1.3208637e-05
 -2.7022092e-05
 -2.8696530e-03
  1.9200315e-03
 -6.5538421e-04
 -3.2834148e-05
 -3.8238517e-07
  4.6653484e-04
 -1.1404948e-06
 -1.8459199e-02
  7.1173476e-05
 -1.2369518e-05
  1.6987929e-05
  1.3535293e-06
 -4.8082791e-07
  1.2478372e-05
  1.3777904e-05
 -1.4275339e-05
 -3.0652116e-06
 -8.3725236e-06
  8.3519881e-06
  8.8321349e-06
  3.7916250e-06
  1.4482085e-05
 -6.8303857e-06
  1.0179099e-05
 -6.7317978e-06
 -2.0023525e-07
  5.2495432e-07
  4.8908105e-06
 -1.5804246e-05
  1.8268604e-05
 -1.6160193e-05
 -5.0280210e-06
  2.7624799e-06
  1.6985215e-06
  7.1019886e-06
  6.5351117e-07
 -3.2427333e-06
  6.1539963e-06
 -9.7747134e-06
 -7.4169179e-07
 -6.9464577e-06
 -5.3148065e-06
  3.8857261e-06
 -1.0206845e-05
  6.9670688e-07
  1.4183820e-05
 -1.5027193e-06
 -1.5665952e-05
  3.6690913e-06
 -7.8943765e-07
 -2.1535370e-06
  2.9165498e-05
  2.2690112e-05
  2.5154454e-06
 -1.1761641e-05
  3.1166555e-06
 -4.4179134e-05
  2.5245312e-05
  4.3155287e-06
  3.4467797e-07
  5.8334030e-07
  8.9950563e-06
 -1.4695112e-05
  2.1962253e-05
 -6.9441976e-06
 -7.9741803e-06
  2.0747648e-06
  5.6176427e-06
  6.2604836e-06
  7.1300674e-06
  1.6188474e-06
  8.4783333e-06
  1.1424784e-05
 -8.8061206e-06
 -5.1161720e-07
  1.6714223e-06
 -4.7377856e-05
  8.9632783e-07
 -5.6955214e-06
  7.2483482e-07
 -4.0241181e-07
 -2.8278737e-07
 -4.6125751e-06
 -2.2600045e-06
  5.7921607e-06
 -1.2968623e-04
  1.9467216e-06
  1.7738545e-05
 -1.7333917e-06
 -1.2361632e-05
  2.7452779e-06
 -1.6688016e-06
 -7.9120255e-06
  7.5928438e-06
  6.5080405e-07
 -1.6294905e-07
 -1.7897475e-04
 -7.0468545e-06
 -2.2364500e-05
  8.6820055e-06
  2.7334243e-05
  4.0322975e-06
  6.1836531e-06
 -4.6911709e-06
  4.7247631e-06
  6.9840712e-06
  7.4165378e-06
 -6.4226001e-06
 -5.4807911e-06
  2.5052959e-06
 -5.0509466e-06
 -2.1374164e-05
 -8.0267746e-06
 -4.2042584e-06
 -5.0405124e-06
 -1.3310838e-05
 -5.6042604e-06
  2.1743172e-06
  7.4672389e-06
  3.0178932e-02
  1.5599559e-05
 -3.9396730e-07
 -8.6493782e-07
  1.4907282e-06
  2.2288905e-06
 -1.7937056e-06
 -5.6745449e-08
  1.5299556e-06
  3.2187495e-07
  2.5906559e-06
 -9.5139803e-06
  5.1011457e-06
 -7.9225101e-06
  4.8596525e-05
  2.1482738e-06
  1.2964003e-05
 -2.3360344e-06
  9.5953292e-06
  7.9244035e-07
 -1.8164103e-05
  1.3842663e-07
  2.6522132e-05
 -1.0076828e-05
 -1.4088587e-06
  3.0642965e-05
  1.0672905e-01
  9.6479721e-07
 -2.4362643e-01
 -5.7373859e-07
 -6.4738178e-06
 -4.6636690e-03
  1.4232649e-01
 -4.8638511e-05
  6.6642731e-02
 -7.5431541e-02
  4.9436921e-03
 -1.2836294e-01
 -7.0548669e-02
 -1.3638258e-01
 -2.2552876e-01
 -4.3501917e-02
  2.9543664e-03
  3.2636131e-06
 -1.0614166e-04
 -1.3728575e-04
 -7.1191303e-03
 -5.5346753e-02
  7.9354703e-02
  4.9303590e-06
  3.3322194e-06
 -1.1227012e-01
  3.1515561e-02
 -8.0298296e-06
 -2.6161591e-05
  1.0293233e-05
  3.9358817e-02
  2.6175668e-03
 -5.7203289e-02
  6.6196502e-05
 -1.6624506e-05
  2.6412636e-07
  3.9965412e-06
 -1.8412589e-05
 -4.1725320e-06
 -6.4412957e-06
 -1.0889016e-05
  2.6831587e-05
  3.6824440e-06
  1.0387782e-05
 -2.7823608e-05
 -9.4376201e-06
 -2.0922041e-06
 -2.3897294e-06
  9.1511974e-06
 -5.5526033e-07
 -3.0502733e-06
 -3.2821691e-07
 -1.5527814e-05
  1.6268012e-05
  1.2204459e-06
 -3.1338320e-06
 -1.0398150e-05
  1.1585574e-05
  2.3285704e-05
 -5.0860490e-06
 -1.9037485e-05
 -3.9940960e-06
  8.7743492e-06
 -4.9138839e-06
  2.6392331e-06
 -1.1544114e-07
  3.2623013e-06
  2.6106197e-06
 -5.1778898e-07
  4.4625194e-06
  9.2209223e-07
  9.3779690e-06
  1.2756953e-05
 -9.4347515e-06
 -2.7847503e-07
  1.4907504e-05
 -6.5005597e-06
 -1.0364749e-05
  1.3233843e-06
  6.3363623e-06
  1.0258169e-05
  3.7815232e-06
  1.4447892e-05
 -9.1076054e-06
 -1.5852295e-06
  2.3686848e-06
  2.5271824e-08
  1.5239614e-05
 -4.5189008e-06
  1.7902927e-06
 -1.5706553e-05
 -3.0555202e-07
 -4.0282930e-06
 -1.5187010e-05
 -5.2426308e-06
 -1.6496699e-06
  5.0500389e-06
  5.0932445e-06
 -1.0249998e-05
  6.4695287e-06
 -2.6900341e-06
  9.6228923e-06
  5.7600546e-01
  5.6120830e-06
  3.1683844e-01
  1.1374441e-06
 -7.3461920e-06
 -7.9590845e-01
 -5.8806330e-01
  5.5033362e-01
  3.2099837e-05
  2.8551323e-02
 -1.7797410e-01
 -3.0928248e-01
  6.3855528e-05
  5.6310016e-01
  1.8515272e-01
  4.0033513e-01
  4.7018194e-01
 -2.0452370e-03
  1.1930765e-02
  8.1644595e-02
  5.3640664e-02
 -1.4917089e-01
 -3.6669564e-01
  1.5185897e-02
  1.9718854e-02
  5.8988195e-02
 -7.5344914e-01
 -7.9436162e-03
  5.2472107e-05
  7.7227332e-07
  5.5947871e-04
  6.2435777e-03
  1.2633787e-01
 -8.7815810e-05
 -1.2975140e-05
  7.5946396e-06
  7.8501516e-06
 -2.1443748e-06
  8.9929817e-06
 -3.5064104e-06
 -3.5855169e-06
  1.1266807e-06
  4.5279112e-06
  4.5757947e-06
  4.0994510e-06
 -6.0339826e-05
  3.6481908e-06
 -9.8123583e-06
 -6.3307525e-06
  1.2015617e-05
 -5.7340912e-07
 -1.3646218e-05
  1.2552189e-05
  1.8287483e-05
  3.1074433e-06
  8.0772975e-07
  3.4278019e-05
  1.3697187e-05
  3.5531173e-06
 -6.4965702e-06
 -1.1758319e-05
  3.3737133e-06
  8.4131789e-05
 -6.7456954e-06
 -1.3400492e-06
 -1.7616445e-05
  1.4728362e-06
 -6.2234494e-06
  8.4668427e-06
 -1.9507581e-05
  7.4105928e-06
  7.9153551e-07
  7.4172717e-06
 -5.1133638e-06
  1.2839744e-05
  2.7364483e-06
  2.2554917e-05
  1.7881025e-06
 -2.5575389e-07
  5.4039542e-06
 -4.2773127e-07
 -9.1804577e-06
 -4.3513279e-07
 -6.7518181e-06
 -9.0732028e-06
 -1.8658994e-06
  1.4141157e-06
  3.3675169e-06
 -1.2366395e-06
 -2.6488195e-05
  1.8528638e-06
  4.4576623e-06
  4.6550254e-06
  2.9624946e-06
 -1.3669750e-06
  1.7145963e-05
 -8.3495515e-06
 -7.6294509e-07
 -2.8918108e-05
  5.4062912e-06
  1.1680422e-06
  3.9784081e-06
 -2.3132241e-05
  9.3628396e-06
  1.4384009e-06
 -6.4787755e-06
  6.7264427e-06
  3.0969568e-05
  3.5420940e-06
 -9.0764672e-07
 -1.2011837e-05
 -1.4754798e-05
  7.6508522e-06
  1.7594367e-06
  2.6713647e-05
  8.9232426e-06
 -2.7300489e-06
  1.0238831e-05
  6.9548282e-06
 -1.3662509e-05
  1.1331516e-05
  3.0951731e-05
  5.5371252e-06
 -2.4646765e-06
 -9.8476471e-07
 -9.0478616e-06
 -7.0403930e-06
  2.1478003e-07
 -5.0974763e-06
  1.3527534e-05
 -1.3762014e-05
  1.0770655e-05
 -5.5565067e-07
  2.6338757e-06
 -2.8557915e-06
  1.2742088e-05
  2.4117637e-05
 -1.4890099e-06
  4.9438599e-06
  1.3880977e-05
  2.5140012e-06
 -6.8409685e-07
 -1.2145009e-06
 -3.6756342e-06
  7.6653077e-06
  4.2398929e-06
  1.5874637e-05
  5.1995107e-06
 -1.0965047e-06
  6.5082355e-07
  1.2181235e-05
 -1.1201232e-05
  3.6837048e-06
  1.7710191e-06
  3.8000837e-07
 -1.7497332e-06
 -3.4068999e-06
  8.1622093e-06
 -1.8497335e-06
  9.5917831e-06
 -1.2036070e-05
  8.6526943e-06
 -4.9705523e-07
 -2.9752191e-05
  1.0290506e-08
  1.1733904e-05
  5.7363904e-06
 -5.1098289e-07
  4.7130620e-06
 -1.4055662e-05
  1.2146024e-01
 -5.6730767e-07
  7.2484970e-01
  2.8235024e-06
  5.7032710e-01
  1.5307237e-01
 -1.5676099e+00
 -1.0120077e-02
 -1.0944985e-01
  2.9095879e-01
  1.0347470e-01
  6.6681832e-01
  1.9659664e-04
  2.8992066e-01
  2.9718131e-01
 -1.0461655e-01
  1.8507850e-01
  1.1583315e-05
  2.9866505e-05
  4.1852447e-01
 -3.0717507e-01
 -1.4266117e-01
 -3.5018620e-01
  9.4407628e-04
  1.1701252e-01
  2.3990975e-01
 -7.2307638e-03
  4.9293183e-05
  2.6397590e-04
  7.9533864e-05
 -9.6143112e-02
  5.7903580e-02
  5.0140396e-02
  5.4300494e-06
 -7.4662307e-07
  4.5390825e-06
 -3.5598914e-05
  1.3932995e-06
 -1.3397073e-06
  4.0008863e-06
  2.6188891e-05
 -1.8204101e-06
  5.2974920e-05
  4.3108776e-06
  1.2211476e-06
 -2.0470714e-05
  2.4668350e-06
  1.1583899e-04
  3.3622939e-06
  6.5194504e-06
 -3.1805248e-06
 -6.4134119e-06
  8.5938364e-06
 -8.8585659e-07
  2.0802652e-05
 -8.5201618e-06
 -2.3010138e-05
  1.3119899e-06
 -4.9604537e-06
  1.3554556e-07
 -6.3137841e-06
  3.8705325e-06
  7.8127478e-06
  6.5838012e-06
  1.8302539e-05
  1.5409361e-05
 -1.1305356e-06
 -5.9850681e-06
 -2.5534607e-06
 -7.5406547e-06
  1.9739986e-05
 -2.0843054e-06
 -5.2297389e-07
  1.5680575e-05
  6.3145256e-07
  2.8327258e-06
 -1.0993172e-05
  4.5580764e-06
  4.4658136e-05
 -1.3961904e-01
  5.9260463e-05
 -4.6856758e-07
 -8.1019916e-06
  1.5951484e-04
 -2.3084789e-05
  3.7991627e-05
  1.0187941e-04
  1.7440992e-06
 -8.3940231e-06
 -2.1261394e-06
  5.0541666e-06
  6.1558339e-06
  1.4374978e-05
  4.0872925e-05
  1.0581603e-05
  2.3264509e-05
  1.6281747e-06
 -1.4107251e-06
  4.6825211e-05
  2.9915038e-05
  3.3733545e-06
 -2.6920910e-05
  4.7095105e-01
  1.2236732e-06
 -1.5228547e-01
  1.3300803e-05
 -9.7292801e-03
 -1.4351406e+00
  5.6623942e-03
  2.6058155e-01
  3.1264438e-04
 -1.5818148e-06
 -2.6213405e-01
 -2.9429513e-01
 -3.1612836e-02
 -1.9156294e-01
 -3.5401164e-05
 -5.2626166e-02
  1.0392303e-02
  1.1113270e-04
 -4.6097750e-05
 -8.8441440e-05
 -2.2025232e-01
 -1.6638876e-01
 -1.6642940e-05
 -1.2333205e-01
 -1.6533453e-06
 -1.0324577e-01
 -4.1190028e-01
 -7.0526177e-04
 -1.0905384e-04
 -8.0022628e-06
  9.8131546e-05
 -1.9188692e-05
 -5.3951088e-02
  2.3784217e-07
  9.9613126e-06
 -1.6104423e-05
  2.1038364e-01
 -5.2007049e-08
  2.9654320e-05
  3.6190655e-03
 -1.5279315e-01
  2.8484142e-06
 -3.8293906e-02
  2.5299624e-02
  1.6781568e-03
 -4.0604912e-02
  4.2256619e-05
  4.1721307e-02
  3.4434341e-02
  6.7280680e-02
 -1.3541818e-02
 -1.2017548e-05
  1.7058785e-04
  5.8628948e-06
  6.5229065e-03
  3.7883166e-02
 -3.0468024e-02
 -7.6503075e-06
 -2.4798223e-06
  8.3735287e-02
 -6.5077811e-02
  1.1226748e-05
  1.9000921e-05
 -2.9634402e-06
 -2.3116292e-03
  1.0749046e-04
  2.5981884e-02
 -4.8373582e-05
 -2.4881285e-02
  6.4586369e-05
  1.5302818e-01
  2.8563841e-06
  3.2309376e-06
  4.2173048e-03
 -2.2585565e-01
  2.3006502e-05
 -6.1991322e-03
  9.2357914e-05
  7.6099757e-05
 -1.3366945e-02
  6.6940382e-05
  7.6271608e-02
  7.2749774e-03
  1.1908282e-01
  2.7227330e-03
 -2.4473798e-05
  3.5743490e-06
  1.2528216e-03
  4.4422527e-03
  3.3968333e-02
 -4.9295142e-02
  1.0084006e-05
  1.3296069e-05
  1.5926475e-02
  1.1131720e-05
  4.2704124e-07
  6.2128158e-05
  6.4297683e-06
  1.2248014e-06
  5.9223821e-05
  2.6575867e-02
 -3.4152494e-05
 -4.0780251e-05
  6.3197567e-06
  1.6215401e-05
 -2.4935505e-06
 -3.3704324e-05
 -1.6100684e-02
  3.2662127e-02
  1.3434204e-05
  7.2282346e-06
  9.8967530e-06
 -1.7391542e-02
 -5.1004905e-01
 -1.6398444e-04
 -2.0562472e-02
 -9.7609147e-05
 -6.1562685e-03
  6.6540323e-02
  9.4241031e-02
 -8.7675879e-05
 -1.9756219e-06
 -5.8939248e-02
 -6.5329492e-01
  9.4122777e-07
 -1.8005181e-05
 -9.2515975e-06
 -8.2063653e-02
  8.7197155e-02
 -8.1657578e-05
 -2.1807842e-05
 -9.9422832e-06
 -1.8957705e-06
 -2.1082449e-05
 -1.2832374e-04
 -1.8581370e-07
 -1.0359167e+00
  2.5174775e-05
  1.0778912e-05
 -1.0253219e-07
 -8.3718356e-07
  1.4081012e-06
  1.2259628e-05
  7.3579763e-06
  2.8978500e-05
 -9.7662232e-06
  5.3215722e-08
 -5.2577201e-07
  9.7100519e-02
  6.6912913e-01
 -6.9661755e-06
  3.4306422e-06
  6.1953465e-06
 -3.7139395e-07
 -3.4579912e-06
  1.3463034e-06
 -1.2120330e-05
  3.4471495e-06
 -2.9502073e-06
  3.3042709e-06
  3.5727456e-02
 -1.5757232e-05
 -1.4241029e+00
  3.3760294e-05
 -7.7442966e-02
  1.1061622e-06
 -5.9721345e-01
 -8.3538016e-06
 -1.8372639e-05
 -1.0274965e-05
  2.9343446e-06
  7.5934445e-06
  3.0768360e-06
 -7.6830765e-06
 -3.4563693e-01
 -2.2802229e-05
 -1.4790592e-06
  2.5029840e-05
  2.4547497e-05
  9.3390870e-01
 -2.1499484e-06
 -2.5883723e-05
 -1.3847345e+00
 -3.6995557e-06
  6.7827395e-06
 -5.7378447e-01
 -8.5507226e-01
  2.3402869e-07
  1.6662652e-06
 -5.9784147e-06
  9.9051832e-08
 -4.9246080e-07
  2.2025454e-06
 -9.3386279e-06
  6.2268883e-01
  7.7015202e-06
 -1.2486834e-07
  2.8592649e-01
 -4.5013714e-01
 -4.2334461e-01
 -1.5857480e-06
  2.3349297e-05
  3.5275913e-05
  5.4433029e-05
  1.0366872e-05
  2.9380888e-01
  2.4966173e-06
  2.1314556e-06
 -6.6932841e-08
 -1.2750159e-05
  2.5818115e-01
  1.8052273e-05
  1.6531221e+00
 -2.4825338e-06
  1.6309488e+00
 -1.3164306e-05
 -4.2953688e-01
  2.6654932e-05
 -3.7873224e-06
 -9.7946458e-06
  3.3018096e-05
 -4.4498390e-01
  5.5456812e-06
  4.9352598e-06
  8.3824325e-01
 -2.8433283e-06
  7.0785431e-06
 -1.1934698e-06
 -2.5687425e-06
  1.0579023e+00
  6.0529724e-06
  1.0081246e-01
 -5.0540888e-01
  3.9060917e-01
  3.8636935e-01
 -3.5778373e-01
 -1.0895606e+00
  1.6764416e-05
  1.7854704e-02
 -1.0653124e-01
  9.8791473e-02
  5.3792864e-06
 -4.5187857e-02
 -2.5173533e-01
 -1.3961649e-04
  6.2443824e-03
 -1.5549755e-05
 -6.9881928e-05
  3.3091781e-06
  3.4579466e-06
 -6.5376025e-06
 -1.5880320e-05
 -1.7527376e-05
  2.4580946e-05
 -2.7359449e-06
  2.6884009e-06
  3.0215222e-03
 -2.4890501e-02
  9.8611936e-02
  2.1801277e-05
  1.0949332e-04
 -1.7266324e-01
 -2.0477384e-05
  1.0031991e-01
  4.1958612e-07
  2.8605145e-05
  4.9906535e-06
 -1.0039605e-05
  3.7005855e-05
 -8.7143207e-01
 -5.7786707e-05
  2.5767511e-05
 -5.9196982e-06
  9.1990216e-07
  5.3980993e-04
 -1.1621029e-05
  5.5973612e-02
 -7.5224375e-07
  1.1439661e-05
 -1.8843869e-02
  1.8389820e-06
  2.9093677e-01
 -6.8378204e-06
 -3.5522835e-06
 -5.1018316e-03
 -4.1771441e-06
  1.2721702e-06
  3.7428936e-01
 -5.0872728e-02
 -6.2585663e-05
 -1.0708091e-01
  5.9537242e-06
  2.1011269e-06
  6.6850444e-05
  8.3208032e-02
 -1.0615308e-06
 -9.6865350e-01
 -7.1681671e-02
 -3.0960862e-05
  3.6275467e-01
 -2.1005035e-06
 -2.3124267e-06
 -1.7826535e-02
  2.3139681e-05
  1.2462333e-06
  1.9072156e-03
 -2.0040328e-05
 -2.9533483e-05
 -2.4294535e-02
  5.3037382e-07
  3.0363642e-06
 -1.4639745e-05
  5.1988088e-02
 -5.6062561e-07
  4.4526076e-01
 -2.8576419e-01
 -1.6862000e-04
  1.4849342e-01
  5.1099860e-06
  3.6409925e-05
 -2.5884108e-05
  1.0930680e-05
  2.1751157e-06
 -6.1933649e-01
  2.2731996e-05
 -9.9569070e-06
  1.1344116e-04
 -7.7508275e-06
 -2.8871475e-06
 -3.4727544e-02
  3.9704763e-03
 -2.7725705e-06
  2.4535641e-04
 -4.1913983e-01
  3.6471862e-05
 -8.0026461e-05
 -1.2464483e-05
  2.6377174e-05
 -6.7233168e-06
  2.5881129e-05
  7.9181092e-08
  6.1705919e-06
  3.0534202e-06
  6.5168606e-06
 -1.1236179e-06
  1.8261082e-05
 -4.2216889e-05
  2.5849113e-06
  9.7543705e-07
 -1.3025466e-06
 -1.8478599e-05
  4.3253462e-07
 -1.0508816e-06
 -4.2946539e-07
 -2.2226050e-05
 -2.2642351e-05
 -1.1393328e-05
 -8.3985742e-06
  4.7529302e-06
 -5.3887547e-06
 -9.7099573e-06
 -2.2191360e-05
  9.9998697e-06
 -2.7531592e-06
  1.1519341e-05
  6.5583622e-06
  3.3078788e-06
 -8.7598464e-06
 -2.7400279e-06
  4.1005251e-06
 -5.5203134e-05
  4.6247487e-06
 -2.2074270e-05
 -9.3019744e-06
 -1.4939430e-05
  7.3848564e-06
  9.6333952e-06
 -1.6826241e-05
 -4.4109647e-06
  1.5113612e-06
 -4.7559392e-06
  1.2800781e-05
  4.3001100e-06
 -2.6557368e-06
  7.7207123e-06
 -1.2059486e-05
  8.8101806e-06
  3.6950025e-06
  6.0074144e-06
  1.9616746e-06
 -1.7379245e-06
 -6.6453131e-06
  2.8387738e-06
  8.9027077e-07
  2.3325199e-05
 -1.0471751e-07
  3.7705909e-06
  2.2040235e-06
  3.5711980e-07
 -9.7162956e-07
 -9.1812740e-07
 -4.9689334e-05
  8.7482549e-06
 -1.6573680e-06
  9.2512155e-06
 -1.1188407e-05
  1.7086677e-05
  3.1660113e-06
  2.8176876e-06
  2.7496728e-06
 -1.0999086e-06
 -1.6543275e-06
 -2.0639973e-05
  8.9061186e-06
 -3.8872146e-05
  3.3267049e-06
  6.0661805e-06
 -1.8256011e-06
 -1.4328716e-05
 -6.5659674e-07
 -8.8242332e-06
  4.6421942e-06
  5.6797069e-07
 -3.9738052e-06
 -7.8325132e-07
  9.8599930e-06
  5.2483261e-07
  5.2043183e-06
  6.0395791e-08
  2.2637869e-05
 -9.7291449e-06
  4.1861317e-06
  1.4972693e-07
 -3.9160005e-07
  1.0236488e-05
  1.0162840e-05
 -1.3475762e-06
  4.0926370e-01
 -2.6358096e-06
 -1.6766293e-05
 -8.8180071e-01
  9.2754495e-01
  4.2976234e-03
 -2.7673033e-01
 -1.7104539e-06
  2.0789030e-05
 -1.0661645e-06
 -6.6133807e-06
  1.7221477e-06
  3.9639221e-05
  1.1375563e-05
  1.0688301e-05
  1.6808001e-07
  1.4321276e-05
 -3.2875867e-06
  2.3664752e-01
 -3.4290467e-06
  6.9851567e-06
 -2.1085243e-01
  4.3014443e-01
  7.7940158e-06
 -4.1438702e-01
  1.3406772e-05
  1.2402336e-05
  2.8026384e-01
  2.1754091e-05
 -2.7124347e-07
 -3.7727964e-01
  8.2765050e-02
  4.6454775e-03
  2.7093881e-01
  4.7367680e-06
 -3.8108035e-05
  6.4746365e-03
 -1.8137200e-05
  2.8417255e-06
  4.1645935e-06
  2.8129470e-01
  3.1441901e-05
 -6.3584995e-01
 -3.3060216e-05
  4.2621187e-07
  3.2856008e-01
  3.7854838e-06
  9.2196988e-06
 -1.2518856e-01
  1.8549938e-04
  7.9103233e-04
  2.5920188e-01
  1.0018513e-05
  2.0028792e-06
  1.9576268e-01
  3.0394358e-06
 -1.1176347e-05
  4.8751888e-01
  4.5553550e-01
  8.7005183e-02
 -4.9771357e-01
  1.9545137e-06
 -2.0244843e-05
  9.8169208e-02
  2.8139475e-06
 -2.9520575e-06
 -2.1742897e-01
  7.1257607e-05
 -1.4891747e-01
  1.5574376e-03
  7.3180217e-06
 -5.4596075e-07
  3.5277003e-01
 -1.7039807e-05
  6.2769445e-06
  3.8108301e-01
  3.9655164e-01
 -1.4909279e-01
 -7.2900619e-04
 -1.5071413e-05
  1.7714531e-06
  7.6634526e-02
 -3.7361644e-06
  2.1891990e-06
  6.8625975e-01
  1.8384692e-01
 -3.2731708e-02
 -1.0378820e-01
 -2.2862409e-06
 -1.5297323e-07
  1.2360021e-01
 -3.8946928e-05
 -6.8786007e-06
 -2.3208607e-02
  2.3828289e-02
  8.2508400e-03
  5.5951893e-04
 -3.4548123e-08
 -8.5943420e-06
 -1.7955758e-06
  9.3023891e-07
 -2.9415730e-07
 -1.3324836e-06
  2.4448575e-05
 -1.1419266e-05
 -2.3514758e-08
 -6.2453896e-06
 -2.2015645e-05
 -3.3369336e-06
 -3.8892699e-06
 -3.3311514e-06
 -1.6721746e-05
  1.3048496e-05
  1.8806728e-05
  8.1217200e-05
  3.2105809e-06
 -4.4725402e-06
 -4.0853929e-06
  3.8099208e-06
 -4.2341189e-06
 -1.8561738e-06
 -2.3272769e-05
 -3.7939813e-06
  1.9763124e-06
  1.6839344e-05
 -5.3068595e-07
  3.7638049e-06
  1.4244117e-05
  2.3643256e-06
 -1.3026581e-05
 -8.3100358e-06
 -3.2222873e-05
  5.4825214e-06
 -2.6003076e-05
 -7.5700405e-06
 -2.8168226e-06
  5.5265355e-06
  4.7332919e-06
 -5.9031493e-08
 -8.5804140e-07
 -9.1992479e-06
 -1.6452654e-05
 -2.6274728e-07
  1.8302595e-05
 -1.2424280e-05
  9.2282880e-07
  8.3539298e-06
 -4.0256910e-07
  8.9583716e-07
 -6.8850409e-07
  3.5601784e-05
  5.3468771e-06
 -1.2268117e-05
  2.5724556e-05
 -1.9206067e-05
 -8.2217894e-06
  1.6483467e-05
  1.8848687e-06
 -2.6369347e-05
  3.7003008e-06
 -6.8270206e-06
  2.4347489e-06
  1.3859092e-07
  2.0712887e-06
  2.4572305e-06
 -1.8898740e-05
  1.1331586e-08
  7.4259374e-06
  1.4913083e-05
 -8.3602572e-07
 -8.2884953e-06
 -4.3410009e-07
  2.4641574e-06
  8.8533452e-06
 -3.9808174e-06
  3.1246850e-07
  1.6880849e-05
 -1.0340924e-05
  6.6938633e-06
 -5.1683737e-06
 -5.9942690e-06
 -7.5180396e-06
  2.5500485e-06
  5.3842396e-02
 -9.7844495e-06
 -2.7286465e-06
 -2.4823717e-05
  8.5355978e-06
 -2.1542821e-05
 -5.5336409e-06
 -1.1251522e-05
 -3.5061514e-06
 -1.3302672e-05
  3.2642242e-07
 -8.4622561e-06
 -6.5807803e-06
 -6.7172377e-06
  2.0089624e-02
  3.0517554e-01
  3.7428529e-06
  5.9654221e-06
  3.5103483e-05
  1.7737331e-05
  3.8428063e-04
 -5.3154882e-02
  4.2239735e-06
 -2.8950083e-06
 -1.5408979e-07
  1.5459314e-06
 -2.3520042e-05
 -1.8052995e-05
  7.3362526e-06
  2.6444566e-05
 -6.5089712e-06
  9.6874119e-06
 -1.6638764e-06
  8.1990950e-02
 -6.7220626e-06
  6.7102601e-06
  7.8792829e-04
  7.2374373e-06
 -1.1066714e-05
 -1.5314788e-01
  6.3689217e-06
 -7.0218525e-06
  1.5978889e-01
 -1.1489496e-05
  5.9046442e-06
  3.9041635e-05
  4.2482475e-06
  1.3792200e-05
 -5.6826107e-06
 -1.1967741e-06
  1.9137995e-06
  6.8851674e-05
  9.3173285e-06
 -2.7914500e-06
  1.2610233e-06
 -3.3403510e-06
 -9.6665408e-06
 -3.0521489e-05
 -1.0256032e-05
 -1.6923219e-05
  3.5473052e-01
  3.1836748e-06
  3.8138073e-06
  1.1107501e-05
 -9.4940351e-06
  7.4225422e-06
  1.7677345e-06
 -1.3469628e-06
  1.0154570e-05
  1.0620283e-01
 -3.3522997e-06
  1.6004878e-06
 -3.3207689e-05
 -1.9177544e-06
  4.1499570e-05
 -3.9482796e-07
 -1.9974595e-06
  9.8211276e-06
 -1.5276393e-01
  1.3878702e-07
 -2.4516306e-05
  4.4828470e-05
 -8.0490699e-06
 -2.5421718e-05
 -2.1811245e-01
 -1.6822053e-06
  3.2288881e-06
  2.7709529e-01
  2.9930356e-05
 -3.5223850e-06
  1.4866741e-01
  3.5600383e-02
 -5.0239523e-06
  2.7404714e-05
 -3.1402872e-06
  9.3991866e-06
  2.4707498e-02
  1.1214402e-05
 -8.6046111e-06
  2.6200261e-05
  2.4467702e-01
 -1.6523469e-02
 -4.7892594e-05
 -3.7656621e-06
  1.3331235e-06
 -8.3630666e-06
  2.2814943e-06
  1.1187318e-05
  1.5425015e-02
 -1.5201150e-01
  2.1284817e-02
 -1.7082971e-01
  1.8038774e-05
 -5.1191157e-01
  7.0489800e-01
 -7.3946524e-01
  1.8631363e-05
  5.7892382e-01
  9.5610273e-01
  1.0456038e+00
 -7.9649973e-01
 -5.8274545e-05
  1.2911635e-06
 -1.6622482e-05
 -2.2274160e-05
  6.9186564e-07
  1.5131654e-01
 -2.8371787e-06
  1.4017585e-04
 -3.5917674e-06
  6.0763105e-06
 -4.8855010e-01
  2.6180652e-01
 -7.2101384e-01
  1.0940881e-05
  1.1597604e-01
  9.5103443e-01
  1.7127334e-01
 -7.5966454e-01
 -3.6441172e-06
 -3.3920591e-05
  3.3713153e-01
  1.5529584e-05
  1.6313816e-05
  1.0135342e+00
 -2.0646200e-01
  8.9219368e-01
 -5.7762600e-02
 -4.0150640e-06
 -3.4908324e-01
  2.6205826e-01
 -6.6964233e-01
 -1.2825098e-05
 -1.8937184e-03
  1.1350564e+00
  1.4070969e-06
 -2.2886987e-01
  1.4171003e-06
 -3.1294204e-02
 -9.5315717e-02
 -1.3446002e-05
  6.1618689e-06
 -7.7697700e-01
 -8.9675586e-06
  2.4716760e-01
  2.3784649e-01
  3.3093534e-06
 -2.0769554e-01
 -3.0188853e-01
 -6.0300756e-01
 -1.3243357e-06
  1.1166186e+00
  4.3262511e-01
  8.3771873e-01
 -4.4112250e-01
  9.7830243e-06
 -1.5075618e-01
  5.1836461e-02
 -2.0358141e-06
  3.9399511e-06
 -4.7221395e-01
  6.3085026e-01
 -1.3597563e-01
 -4.3589360e-01
  2.1084850e-06
 -1.3253808e-01
  1.9004424e-01
 -5.1269031e-01
 -2.7507829e-06
  1.9517085e-01
  1.8439391e-01
  1.1537514e+00
 -1.9319777e-01
  1.8307959e-05
 -1.6736853e-01
 -3.3315137e-01
 -6.2735893e-02
 -3.8337803e-06
  3.6541829e-01
  3.4244761e-01
  5.2425617e-01
 -3.3612184e-02
 -2.1446131e-06
 -1.6993544e-01
 -5.3883755e-01
 -4.1841853e-01
  2.9996904e-06
  1.0547098e+00
  3.7500259e-02
  6.6933680e-01
 -1.1112531e-01
  5.4835632e-06
 -1.1395939e-01
 -4.3038258e-01
 -1.2160432e-01
 -1.6352245e-05
  5.3272302e-06
 -4.1778636e-01
 -1.6789690e-02
 -2.6730683e-01
  3.5594825e-05
  2.6586590e-06
 -4.3986392e-06
 -4.2024994e-06
 -5.9976765e-07
 -6.0884857e-05
  1.0290379e-05
 -5.0274946e-05
  4.2219017e-06
 -5.2658143e-06
 -8.8471219e-02
 -7.7609725e-02
 -9.6782908e-02
 -2.5610345e-06
  3.7427760e-06
 -2.6619065e-01
 -1.9477713e-05
 -6.9145203e-02
 -3.9699830e-06
 -5.6744457e-06
 -7.9853642e-01
 -2.9757916e-06
  5.8369351e-06
  6.3613161e-02
 -1.8130597e-05
 -1.3544458e-01
 -6.0282156e-02
 -1.1191788e-06
 -1.1831596e-02
 -3.7117696e-03
 -4.7509789e-02
  7.9726369e-06
 -6.4223996e-06
 -1.3639612e-01
  5.4697161e-06
 -5.0352050e-05
  1.8220091e-05
 -2.4173684e-04
 -9.6328042e-02
 -5.3627077e-06
 -3.9002975e-06
  8.4920742e-02
 -3.5787005e-02
 -2.1294043e-05
 -8.4794620e-03
 -1.0416213e-05
 -1.5697801e-04
 -4.0578267e-01
 -2.1903017e-04
 -6.9769194e-06
  1.3104609e-01
 -1.4783479e-01
 -4.0762424e-02
 -2.8362212e-01
  1.7946763e-06
 -6.2621385e-03
 -3.2065331e-05
 -2.3042097e-05
  7.1762902e-06
 -2.7155054e-06
 -1.6893816e-01
  1.8604964e-02
  8.1563002e-04
 -3.0598135e-06
 -1.1603628e-05
 -5.9686613e-01
 -2.4957199e-06
 -3.9729184e-06
 -7.1386079e-04
  3.1366065e-04
 -2.9126471e-01
 -3.7496665e-01
 -1.9223080e-05
 -2.7587138e-02
 -3.4621677e-01
 -1.4072844e-04
 -1.1990263e-05
  3.4619126e-01
 -7.6013798e-01
  1.0279819e-01
 -1.7879593e-05
 -3.8996568e-06
 -2.1576483e-05
  3.5675430e-01
 -1.1176364e-04
 -4.3621799e-06
 -1.1769192e-01
  2.5835162e-01
 -2.7351415e-02
 -7.3394058e-03
  7.5297835e-06
 -1.5351674e-05
 -3.2274117e-04
  6.0337129e-06
  1.8567505e-05
 -6.0080390e-02
  1.3847381e-02
  1.0152230e-01
  7.8110999e-01
 -1.7073697e-06
  2.1733877e-06
  6.3344050e-06
  1.2563615e-05
  2.3085873e-05
 -1.2409924e-05
  2.8443023e-06
 -1.5966922e-05
  1.5492165e-05
  5.9042836e-06
 -1.5803254e-05
 -6.4210476e-06
  1.1019617e-06
 -3.4080892e-07
 -1.4013726e-05
  7.0284180e-02
 -9.4444877e-06
  6.3856429e-01
  2.7932230e-05
  3.2791102e-06
  3.9191032e-06
  7.5563075e-06
  6.9740258e-06
 -3.5819077e-01
 -3.8368098e-04
  4.8101153e-02
 -3.6927514e-07
 -1.5514799e-05
 -7.4491682e-06
 -5.9903123e-06
  2.0353711e-05
  1.7872890e-05
 -7.8784224e-06
  6.1967272e-02
 -1.2735768e-05
  4.3652359e-01
 -5.8807118e-06
  3.0162088e-05
 -4.0512201e-05
  6.6275475e-06
  7.4993654e-06
 -1.8734849e-05
  1.5153547e-05
  1.9477099e-01
  1.1244006e-01
 -1.9685001e-05
  1.3963105e-06
 -2.2601469e-05
  1.6710754e-05
  2.4100154e-06
 -3.7017015e-01
  4.6367832e-06
  3.8392816e-02
  2.4935110e-01
  7.8175719e-07
  2.9110952e-05
 -2.8630910e-05
 -3.4199849e-05
  6.2034865e-06
  4.2966648e-04
  7.6371156e-02
 -7.4785763e-05
  2.4567357e-01
 -1.0354229e-05
 -4.4210874e-06
 -8.6090413e-06
  7.0738593e-06
  3.7033042e-06
 -7.3365606e-02
 -6.0789851e-03
  1.0109081e-01
  2.6707867e-01
  2.1039004e-06
 -6.8850491e-06
 -1.4865996e-05
 -3.5868115e-06
  2.2439860e-06
 -3.4307283e-01
  6.0227167e-02
  6.1207497e-03
  2.2580755e-01
  7.0130218e-06
 -8.7896451e-06
 -1.7077347e-05
  2.1247093e-05
 -3.7120182e-05
  1.4922476e-01
 -1.9108927e-03
 -6.2336861e-05
  3.4279555e-01
 -5.6928830e-06
 -3.1470370e-06
 -3.2259151e-01
 -4.6696034e-05
 -1.6892289e-05
 -4.9802453e-05
 -1.3364157e-01
  3.2510430e-01
  3.2558471e-02
  7.4698351e-06
  3.5586101e-05
  6.9543689e-06
 -2.9797820e-06
 -7.4586069e-06
  1.7426270e-05
 -6.0670334e-07
  1.3217636e-05
 -1.8769006e-05
  6.2634285e-08
  6.2564204e-06
 -2.9465569e-02
 -1.3944436e-05
 -7.1755953e-06
  5.7894990e-06
  7.5952012e-06
  1.7312248e-06
  6.6483206e-01
  3.7753057e-06
 -5.7924485e-06
 -1.5260398e-01
  2.2776435e-06
  6.8155764e-06
 -2.8934234e-01
 -1.4862485e-01
  1.0710761e-01
 -7.3402002e-02
  1.8892974e-06
 -2.4910235e-06
 -1.7528828e-04
  4.2103584e-06
  3.8715721e-06
 -5.6885542e-06
  2.2875333e-02
  2.9941009e-06
  6.2635756e-01
 -2.7891724e-06
 -1.5055422e-06
 -9.0545438e-02
 -1.8978075e-06
  5.7804732e-06
 -6.7519914e-06
 -1.8430903e-04
  1.4892972e-01
 -7.9505104e-01
  4.9941427e-06
  5.8462030e-07
 -1.1997350e-01
 -9.0159419e-06
 -6.4542778e-06
 -1.0233164e-01
 -6.5023713e-02
 -8.1323504e-02
  2.5414008e-01
  1.2699516e-05
 -4.5299648e-06
 -5.3250819e-06
 -6.3496656e-05
 -2.0519235e-05
  1.4642861e-05
  8.6289652e-02
  2.1361316e-02
  1.0847528e-01
 -4.5215775e-06
 -7.3499036e-06
 -2.0412163e-01
  3.1747381e-06
  1.4851404e-06
 -1.6406357e-04
 -1.9959715e-01
  1.0085264e-01
  3.5819899e-02
  4.4073440e-06
 -1.3631450e-06
 -3.5770229e-04
 -1.8471204e-06
  4.9208743e-06
 -3.6848620e-01
  8.2557276e-02
  2.9638556e-01
  3.1632099e-01
 -2.1720103e-05
  4.2761426e-06
  5.2121791e-06
 -2.1650524e-06
 -1.4840264e-06
  1.4239101e-02
 -5.7164758e-02
 -6.3157122e-04
  3.9359072e-01
  4.6126218e-08
 -4.6211285e-06
  8.3695680e-01
 -5.0852332e-06
  3.6523238e-07
  2.6157622e-06
  3.6532125e-05
 -6.7327505e-01
  6.9086376e-04
 -7.1296695e-06
 -5.7859133e-06
  3.2731389e-06
  1.4810990e-05
 -1.6695001e-05
 -7.2497842e-06
  1.9534040e-05
 -3.3279641e-05
  1.8744838e-06
 -2.0189338e-05
  3.8213002e-06
  2.5679386e-01
  2.2325088e-07
  2.3561165e-06
  1.0347460e-06
  9.4620882e-05
 -1.6485092e-01
  1.5837571e-05
  5.9850258e-06
  4.1664760e-05
  6.4190394e-01
  7.5449448e-06
  2.0803475e-06
  2.0785214e-06
  2.1796273e-05
 -5.0246859e-01
  2.1126016e-06
  3.8090568e-06
 -9.4116149e-06
 -1.5912588e-01
 -7.1230693e-06
 -6.4047622e-06
  9.4697657e-07
  3.4176934e-05
  1.8821736e-05
  6.8408081e-05
 -5.1222305e-06
  6.9214861e-06
  1.1721296e+00
  5.5826804e-06
 -2.0656620e-05
  2.4148167e-06
  7.3654422e-07
 -1.1042321e-01
 -7.0674673e-06
 -5.5872647e-06
 -1.3830356e-07
  1.7244052e-05
 -6.2896186e-07
  7.5197522e-06
 -1.8631386e-06
  3.1632018e-05
 -1.1304016e-01
  1.4553711e-05
 -5.5268056e-06
 -4.0901151e-07
  3.2546350e-01
  6.6870223e-07
  5.9296221e-06
  5.8917167e-06
 -2.5360348e-06
  1.0966252e-01
  6.7593955e-06
  6.3182115e-06
  4.4826043e-06
  7.6195294e-01
  4.8738748e-06
 -9.8135342e-06
  3.3889048e-06
  1.3086356e-03
 -2.9336666e-03
 -7.3035871e-09
  2.9563480e-06
 -1.9696038e-06
 -4.8472934e-06
  7.6185919e-05
 -3.2621749e-06
  2.1500155e-05
  8.5939188e-04
 -1.0909923e+00
  6.2746610e-03
 -6.6887774e-06
  1.5222386e-06
  3.0451658e-06
  1.7590441e-05
 -6.5411441e-06
 -4.9318983e-06
 -7.0578672e-06
 -1.6820935e-05
 -2.7238441e-06
 -5.7100342e-06
 -5.3583080e-06
 -6.6214011e-06
  5.4421525e-06
 -4.0195296e-06
 -5.6203012e-06
 -2.3431226e-06
 -1.1902204e+00
  3.3468485e-03
  3.3428651e-06
 -1.5958499e-06
  5.7218807e-07
 -2.1118862e-05
 -2.1402464e-05
  1.1890602e-07
  1.9938007e-04
 -5.2461636e-01
 -1.8169333e-06
 -9.3192716e-07
  5.0437275e-06
 -4.6489899e-06
 -5.1950286e-05
 -5.1894194e-06
 -2.7735230e-05
  1.0401520e-06
 -4.0407366e-01
  4.7069268e-05
  2.6027603e-06
  7.6611250e-06
 -1.6267913e-06
  6.9411590e-06
 -3.3743354e-06
 -4.3162058e-06
  4.7396265e-02
 -1.2447106e+00
  3.2141123e-02
  2.5496656e-06
  3.1176353e-07
 -6.6683651e-06
 -1.6908201e-05
  3.9776805e-06
  7.6141930e-07
  5.1786942e-06
 -5.2149940e-01
  1.0863490e-06
 -9.4658044e-06
  2.0098462e-06
  2.2891857e-06
 -1.5184908e-05
  2.0125702e-07
  6.1726064e-06
  3.2066917e-03
 -8.0882418e-01
  1.4224678e-01
  1.9796303e-06
  3.7523948e-06
 -2.8891918e-06
 -3.7197347e-06
  7.6347749e-07
  3.5781306e-06
 -1.1317126e-06
 -4.6934173e-01
 -3.4839268e-05
  6.4264359e-06
  1.1642612e-05
  7.0542505e-06
 -1.2550669e-05
  4.3893087e-06
  1.1185801e+00
 -1.0806922e-01
 -7.0771992e-01
  5.0855620e-06
 -5.2147816e-06
  4.6160303e-06
  7.6480146e-06
  5.3052167e-06
  9.6686936e-06
 -7.2625546e-08
  1.1098473e-06
 -5.0228614e-06
 -6.8995396e-06
 -3.0463927e-06
 -6.0677417e-07
 -4.7652456e-06
 -4.9435585e-06
  3.2153275e-06
  7.2188431e-01
 -1.4590323e-01
  3.0266151e-01
  2.0444150e-04
 -3.3595634e-06
 -7.4909062e-06
 -5.4559709e-06
 -5.4352108e-06
  1.3202996e-06
  2.2899574e-01
  3.6736175e-05
 -1.2688925e+00
 -4.0622517e-06
  5.7916313e-06
 -7.4699178e-06
 -6.2505828e-06
 -7.2676229e-09
  1.2370508e-06
  5.6022692e-01
 -1.5162653e-01
  4.2190194e-02
  2.1261541e-02
 -5.7125440e-06
  3.3974118e-06
  6.1698588e-06
  4.3529397e-07
 -2.5228326e-06
  1.0223652e+00
  1.9640139e-04
 -8.2835746e-01
 -2.0367515e-05
  3.2011815e-06
 -2.7552804e-05
 -6.3048647e-05
  4.7902095e-06
  3.6372603e-06
  5.8878201e-01
 -1.0275698e-01
 -7.5677729e-01
  1.1220459e-01
  1.0317875e-05
  8.3635423e-06
  6.5571417e-06
 -4.1203457e-06
 -4.5942661e-06
  1.4460915e-01
 -3.6521199e-06
  8.1364624e-02
  4.4195596e-07
  6.3048715e-06
 -9.4732550e-06
  1.4033818e-05
  7.0320257e-06
 -6.6576933e-07
  3.8663465e-01
  2.0094791e-05
 -1.4179566e+00
  1.0251523e-01
  3.8895350e-06
  2.8584843e-06
 -6.2865292e-06
  6.5706454e-06
 -7.7481418e-05
 -6.0980207e-01
 -5.4641992e-01
 -5.7098895e-02
 -5.1230110e-02
 -4.2042384e-06
 -1.9161207e-06
  1.0714540e-07
 -2.0245272e-05
  2.5536226e-06
  7.3513183e-06
 -2.2484741e-05
  4.9140226e-06
  5.6902809e-06
 -1.9317182e-05
  6.2983065e-07
 -2.7972594e-05
 -2.4285051e-05
 -6.4746773e-06
 -4.2200235e-01
 -4.9867171e-01
 -3.5495406e-01
 -5.6752771e-02
  3.0000838e-05
  5.1278641e-07
  3.0947363e-06
 -1.5327283e-06
  3.1187633e-06
 -2.5386623e-01
 -7.3902665e-06
  2.5653806e-01
 -8.3429377e-06
  4.2180818e-06
 -3.5687735e-06
 -7.0152719e-06
  8.0489590e-06
 -6.0868197e-06
 -1.8494080e-05
 -4.0115210e-01
 -5.6131369e-01
 -6.5718897e-02
 -7.3450392e-06
 -5.8035735e-06
 -6.2765516e-06
 -5.3329977e-06
 -6.7901528e-05
 -3.6528188e-01
 -4.4157761e-04
  1.8820120e-01
  9.3461076e-06
 -3.9292175e-07
 -1.6020675e-05
  5.1667117e-05
 -3.9070019e-06
  4.4533158e-06
 -5.9074497e-01
 -3.2725969e-01
 -1.6970340e-05
 -5.8869563e-02
 -7.2631719e-06
  8.6862116e-07
 -7.1377294e-06
  3.7710295e-06
 -3.4555042e-06
  6.1117150e-02
 -3.6793176e-02
 -5.7102102e-01
 -7.6265551e-06
 -4.1013827e-05
 -7.4643685e-06
  6.2676404e-06
 -1.1799076e-05
 -7.5755265e-06
 -5.7668144e-01
 -3.0115488e-01
  7.4975276e-01
 -2.4097228e-02
 -3.0887447e-06
  4.9968297e-05
 -7.5017997e-06
 -1.5128941e-05
 -3.7593814e-05
  6.3900052e-07
 -3.3519428e-02
  2.2230179e+00
 -1.4050183e-04
  5.1208135e-06
  1.3912188e-07
  2.1282875e-05
 -1.9707340e-06
  2.1514493e-06
 -5.5559472e-06
  2.3637790e-06
  6.6564586e-05
 -1.4794442e-06
  1.1874582e-05
  5.0749941e-07
 -4.2532483e-06
  2.9610590e-06
 -3.4395521e-06
 -2.7037001e-06
 -5.8244605e-02
 -5.4969275e-01
 -2.5350072e-03
  3.4062276e-05
 -5.5822752e-06
  1.8459959e-05
  8.3160267e-06
  3.3236258e-06
 -1.6113360e-04
  4.6741610e-05
  1.4419314e-01
 -8.1999463e-07
  3.3191677e-06
 -1.6326203e-05
 -4.4667695e-06
 -6.0839434e-06
 -1.9105715e-07
  1.0623501e-06
 -8.9622647e-02
 -9.0209916e-02
 -5.4421447e-02
  3.6991253e-07
  1.2036548e-05
  4.1994326e-06
  5.3112944e-07
  3.1934276e-06
 -6.7748028e-06
  2.4011479e-04
 -2.7762541e-01
  4.6170051e-05
 -5.7061634e-06
 -6.0956127e-06
 -7.9291676e-05
  1.8704286e-05
 -4.7754152e-06
  6.3153548e-06
 -1.0932752e-01
  1.5155485e-01
 -1.0637554e-01
  7.5241646e-06
  4.4480898e-06
  1.6244488e-06
  4.1105764e-06
 -2.1576498e-05
 -5.8609216e-06
 -1.7563169e-05
  6.4328766e-01
  4.5706383e-05
  3.9988668e-06
  5.9943181e-06
 -6.0729731e-06
  3.6732563e-06
  6.3524071e-06
  3.0557308e-06
 -4.1285664e-02
  7.0148623e-01
 -1.1254100e-01
  1.0207736e-01
  1.0207736e-01
  1.0207736e-01
  1.0207736e-01
  1.0207736e-01
  1.0207736e-01
  1.0207736e-01
  1.0207736e-01
  1.0207736e-01
  1.8611343e+00
  1.8611343e+00
  1.8611343e+00
  1.8611343e+00
  1.8611343e+00
  6.1215615e-01
  6.1215615e-01
  6.1215615e-01
  6.1215615e-01
  6.1215615e-01
  4.3777844e-01
  4.3777844e-01
  4.3777844e-01
  4.3777844e-01
  4.3777844e-01
  9.6223883e-02
  9.6223883e-02
  9.6223883e-02
  9.6223883e-02
  9.6223883e-02
  1.6941488e+00
  1.6941488e+00
  1.6941488e+00
  1.6941488e+00
  1.6941488e+00
