nep3 3 Cs Pb I 
cutoff 5 4 15 6
n_max 8 4
basis_size 10 8
l_max 4 2 0
ANN 50 0
 -3.0983131e-06
  1.5303876e-05
 -6.2777262e-06
  4.9702125e-05
 -5.4842790e-06
 -1.6377857e-05
 -2.3687040e-05
 -5.4703446e-07
  1.0159105e-05
  1.1877751e-05
 -1.9619167e-05
  2.2932873e-05
  4.4203125e-06
 -4.3343138e-05
 -1.2333346e-05
 -1.7310722e-06
 -9.3245044e-06
 -1.3575756e-05
 -1.0787024e-05
 -3.9625462e-05
 -5.1137558e-06
 -4.2984589e-06
 -1.5378291e-05
 -3.2368833e-05
 -3.1758686e-05
  5.9515564e-06
 -1.4028622e-05
  4.7358312e-06
 -3.4185228e-05
 -5.7236771e-06
 -1.8761370e-05
  1.8871564e-06
  5.9053073e-06
 -1.6193433e-05
  3.9987310e-05
 -6.9345610e-05
  5.9397398e-06
  7.4319418e-05
 -1.1340488e-05
 -2.5527634e-05
 -2.8711733e-01
  7.4422433e-06
  3.7194650e-07
 -2.5672765e-05
 -3.3125567e-04
  9.0283987e-07
  1.8217330e-06
 -2.8846364e-02
  1.1587184e-05
  5.3983572e-06
  3.6322719e-05
  3.8366530e-02
 -2.7465567e-04
  2.2858738e-05
  5.7519624e-06
 -1.8018860e-02
 -8.8932211e-06
 -1.9722579e-01
 -1.1265661e-06
  1.5892219e-05
 -2.3101688e-06
 -6.3500415e-06
 -5.3297468e-02
 -8.7963726e-06
  2.5555726e-06
 -1.1444433e-05
  5.6241511e-06
  5.5258784e-05
  3.7053960e-06
  3.7373911e-06
  2.8591558e-05
  9.7213961e-06
  6.3783682e-06
 -1.9941392e-05
 -4.1588995e-05
 -1.1819198e-05
 -2.9214448e-06
  1.9719471e-06
  1.3341690e-06
 -1.3243618e-06
 -2.6602742e-05
  3.5356523e-05
 -6.4805031e-06
  2.0600639e-05
 -8.3725590e-06
  4.4237859e-06
  7.7687237e-06
  1.1646651e-05
 -6.9495495e-06
  3.6565523e-06
 -3.3413315e-05
  1.3481653e-05
 -1.4869127e-04
 -3.1263127e-05
 -1.5608079e-05
  2.0810942e-06
 -3.0439556e-05
  9.9107083e-06
  2.0060104e-05
  1.5964853e-05
  2.3277527e-05
 -4.2768148e-05
  6.8765105e-05
  1.1909542e-06
 -2.1218314e-06
  3.6733445e-02
 -1.8986146e-05
 -3.6602734e-05
 -7.3495674e-01
  2.0519437e-05
  7.6123604e-07
  3.4473054e-05
 -9.2226351e-03
  4.2541005e-06
 -9.4782785e-03
 -1.1891194e-02
  3.7645239e-02
  1.9667401e-05
  7.8057885e-02
  1.6526908e-01
 -2.9131965e-04
  1.5891386e-05
 -1.3913061e-05
 -1.5258475e-01
 -1.4464622e-05
 -1.2431527e-01
 -2.0114063e-05
  3.1162217e-06
  3.3980490e-05
 -3.6300989e-05
 -1.2954253e-01
 -1.0344440e-05
  7.2490372e-04
 -5.8479623e-07
 -6.3957741e-06
  1.7136395e-05
 -8.5264601e-06
  3.9057177e-06
  9.4725983e-06
 -3.9100787e-06
  3.3988010e-05
  1.1879363e-06
 -1.6937496e-06
  1.2384939e-05
 -8.5282563e-06
  3.4462508e-05
 -2.8121299e-06
  7.6393344e-06
  2.0047428e-05
 -2.6284561e-05
 -5.1153356e-06
  2.8984934e-05
  1.2968061e-05
  1.6132053e-06
  1.3853644e-06
 -8.8943334e-06
 -3.7310816e-05
  1.5892417e-06
 -1.8280624e-06
  1.9467325e-05
 -4.3169221e-06
 -6.6577750e-06
  1.0874999e-06
  3.5857127e-05
  6.3945314e-05
 -2.3731975e-05
 -1.0192761e-05
 -8.8465658e-06
 -3.7424168e-05
 -1.0654962e-06
 -2.8060314e-05
 -8.8005675e-07
 -2.8506317e-06
 -1.7590442e-06
 -9.7549737e-06
  2.9019361e-07
 -1.3248102e-05
 -7.7233199e-07
 -1.1595345e-05
 -6.2644722e-06
 -1.0387991e-05
 -6.5277591e-06
  4.2205215e-06
  7.4070431e-06
 -1.1852624e-05
 -1.0570962e-05
 -1.7842885e-06
 -3.2775915e-06
 -1.2359555e-05
  2.2681794e-05
 -5.8558353e-06
  2.9133114e-06
  1.4919236e-05
  2.2325619e-05
  2.0044959e-05
  1.1858188e-05
  3.9557231e-06
  1.7195380e-05
 -1.1524421e-05
 -8.9694340e-06
  9.7423917e-06
  1.4739974e-05
 -6.0771872e-06
  2.4742414e-05
 -5.6396224e-05
 -4.3925152e-06
 -4.2816951e-06
 -2.6642323e-01
 -1.3864435e-05
 -9.3754952e-06
  4.8611943e-02
  1.5237761e-05
 -2.0352742e-05
 -1.1892209e-05
  1.8599179e-02
  3.2550652e-05
  5.2171480e-03
  4.4170395e-02
 -2.7331808e-03
 -3.2803621e-02
 -6.5625086e-02
 -9.3536526e-02
  1.0811505e-01
  4.8409299e-07
  2.4826245e-06
  1.2280107e-01
  3.9338875e-06
 -2.2352912e-01
 -1.8223931e-06
 -3.3375793e-05
 -5.3020526e-06
 -1.5572452e-05
 -3.4918952e-01
  6.3649313e-05
 -5.2540294e-05
 -1.3475853e-06
  2.8090069e-05
 -2.1264600e-03
  1.1600325e-04
 -1.3478222e-05
 -3.5237351e-06
  1.4197950e-01
 -5.6559980e-02
 -1.7190250e-05
 -2.2732239e-02
 -5.0075068e-06
  2.9862989e-05
  1.2395935e-07
 -4.8791360e-05
 -5.6156590e-05
 -1.2070897e-01
  5.3023839e-01
  1.8339122e-02
  4.6518125e-02
  4.6041482e-03
  1.6427405e-01
  5.2800620e-01
  5.2114233e-06
  2.0639472e-05
 -1.5684693e-01
 -2.1961530e-05
  3.1498507e-01
  9.5208616e-06
 -2.3933944e-05
 -1.2285673e-05
 -1.0467245e-05
 -3.0845565e-01
  7.1450763e-06
  4.8468883e-05
 -6.8037930e-06
  5.0026123e-05
 -2.6397353e-01
  4.9157472e-07
  3.1237356e-05
 -3.7066325e-06
  5.6241370e-06
 -4.2551845e-05
 -1.1572023e-06
 -7.5884172e-06
  1.2548271e-05
  2.3103477e-05
 -5.8370888e-06
 -1.3988162e-05
  8.8136858e-07
  5.5466817e-06
 -3.0927244e-05
 -6.7291335e-06
  6.1516935e-06
  1.2081953e-04
 -2.1909094e-05
  2.3731420e-05
 -4.2765514e-06
 -2.2283008e-05
 -5.3325901e-05
  1.4204835e-05
  4.5110835e-05
 -2.7523303e-05
  3.3417814e-06
 -2.5870786e-06
 -5.6812378e-06
 -2.1660799e-05
  2.6982983e-05
 -2.8876881e-05
  1.7140770e-05
  1.0567497e-05
 -4.6138153e-05
 -8.9682871e-06
 -5.9293216e-06
 -3.2163647e-05
  4.9465027e-05
 -9.0800722e-06
  2.0700965e-05
 -5.1903594e-06
  4.9785799e-06
 -3.8469159e-07
  4.5653960e-06
  6.0404669e-05
  3.2477044e-05
 -5.0309080e-07
 -7.2208941e-06
  6.7058521e-05
 -2.5741601e-06
  3.9278435e-05
  2.5870563e-06
 -1.1066069e-05
  6.1592400e-05
 -3.4041819e-05
 -5.8663250e-06
  4.9974633e-06
  3.1779666e-06
 -1.3665758e-06
  9.4856277e-06
  2.0939538e-06
 -1.1865557e-06
  2.0479320e-05
  3.7639172e-06
  1.6918731e-05
  4.0211125e-06
 -8.1401977e-06
 -1.3048334e-05
  3.7592894e-05
 -4.3581244e-06
  4.5264431e-05
  1.0488619e-05
  6.8727204e-05
  4.2049734e-05
  1.0653838e-05
  5.5926130e-06
  5.5104774e-06
 -1.4182821e-05
  1.9334359e-06
  2.2342201e-06
  3.2701420e-05
 -1.6383434e-05
  4.9516853e-05
 -2.4182449e-05
 -4.6079174e-05
  1.0657334e-06
 -1.4119156e-05
 -1.5810585e-06
  1.8593299e-05
 -5.9469915e-07
 -8.8182333e-08
 -5.2354946e-05
 -1.5485812e-05
 -1.3486216e-05
 -3.1690793e-06
 -7.3928722e-06
  1.5652000e-05
  2.2432603e-05
  1.2878792e-05
 -1.1801289e-05
  1.1119483e-05
  2.2754557e-05
  1.5899825e-06
  5.5450209e-06
  1.2595154e-05
  4.8353140e-06
  8.1634178e-05
 -4.0663908e-06
  2.8897222e-05
  2.5132390e-06
 -1.5954378e-05
 -6.8688623e-06
 -6.9248915e-07
 -7.9930724e-06
  1.7845461e-05
 -2.8275354e-06
 -6.8495456e-06
  1.7454973e-05
 -6.5689419e-06
  2.5797292e-05
  1.4210348e-06
  2.1537981e-05
 -3.8862097e-05
  8.2279956e-07
 -6.0934326e-06
  1.2840624e-06
 -3.6644920e-05
  1.7943661e-05
  2.5734780e-06
  7.4625373e-06
  6.1254300e-06
  7.6925835e-07
 -3.3706654e-06
 -1.6726504e-05
 -3.5912268e-05
 -1.0962714e-05
 -1.0632391e-05
 -8.4511930e-06
  5.6638683e-06
 -5.7470907e-06
 -1.8652165e-05
 -1.7242444e-06
 -3.4670204e-05
 -2.0793699e-05
  4.4647791e-06
 -7.7658306e-06
 -6.7814071e-06
  8.5176025e-06
 -3.2282103e-05
  1.0394682e-05
 -1.5355487e-05
  1.4749226e-05
 -6.4035689e-06
  6.5394706e-06
 -2.8969278e-05
  2.3667164e-05
  4.4994194e-06
 -3.8392536e-06
 -3.8993439e-06
  3.0566293e-06
  1.7664270e-06
  1.3828138e-05
 -1.0094523e-06
  5.2260384e-06
 -1.3134221e-06
  3.6342852e-05
 -8.2376346e-07
  3.1688985e-06
  1.3508311e-06
 -8.0871087e-07
  3.6259805e-06
  2.1955095e-06
 -2.3370019e-05
 -2.7041075e-05
  1.8274861e-06
 -3.8412971e-05
 -4.8771089e-06
 -2.4704406e-05
 -4.2045458e-06
 -1.5367545e-05
 -3.8231330e-05
  5.3951444e-06
  1.6492351e-05
  1.9710282e-05
  6.1691176e-06
  2.2578597e-06
 -3.5609619e-07
  1.3304336e-05
 -3.6942302e-07
 -3.2243834e-06
  2.1758286e-05
 -2.3360013e-05
 -2.7792743e-05
 -4.0304067e-06
  4.3355241e-05
 -1.2488971e-05
 -4.4570697e-05
 -2.0763158e-05
 -1.2697603e-05
  1.8402527e-05
  3.9394243e-05
 -1.1412204e-05
  5.4294110e-06
 -3.6660731e-05
  1.4016040e-07
  3.2703254e-06
  3.1881162e-05
  3.1795623e-06
 -7.2567113e-06
 -3.4971541e-05
 -5.8259329e-06
 -1.2963019e-06
  2.2578994e-05
 -8.4947269e-06
  1.0697696e-06
 -1.3597665e-05
  2.8645675e-06
 -7.8059329e-06
 -5.2387959e-06
 -2.8972800e-06
 -4.4585006e-05
  3.4287477e-05
 -6.8634608e-06
 -2.8423983e-08
  2.6028833e-06
  6.9704663e-05
 -6.9609559e-06
  6.1367805e-06
 -2.0432202e-05
 -5.7851630e-06
 -6.3306725e-05
  1.3013541e-05
 -1.2386068e-05
 -1.3295577e-05
  1.4467746e-05
 -7.5329854e-06
  1.2422234e-05
  2.5100862e-06
  6.4244967e-05
 -1.3573425e-06
  2.2992367e-06
 -1.0699205e-05
  7.0917022e-06
  1.3023027e-05
  2.0545099e-06
 -6.8409463e-06
  3.5224879e-05
 -2.0359712e-05
  8.0408872e-06
 -1.5747180e-05
  1.3614906e-05
  2.1190177e-05
  5.7467405e-06
  1.1742498e-05
 -7.4011568e-06
  4.8292350e-06
  6.5664864e-07
 -1.0508507e-05
 -8.4568628e-06
 -6.2426610e-05
  3.1328622e-05
 -2.1170645e-05
 -3.6480026e-07
  8.4987860e-06
  1.1049211e-05
  3.1162461e-05
  9.3704193e-06
 -2.7987324e-05
 -1.1932365e-05
  9.7270949e-06
  1.0070502e-05
  4.6005180e-06
 -1.9710178e-06
 -5.1003617e-06
  1.1642787e-05
 -5.8798978e-06
 -1.2797465e-05
  4.0158830e-06
 -7.4612224e-05
 -1.1883474e-05
 -4.2747456e-06
 -1.8640480e-05
  1.6581882e-05
 -3.8205458e-06
  9.5972464e-06
 -1.7840986e-05
  3.0247807e-05
 -2.1531232e-05
 -1.7926013e-05
 -1.7755247e-05
 -1.4050808e-05
 -1.0775786e-06
 -2.0719772e-05
  1.7969907e-05
  3.4744248e-06
  1.5701862e-05
 -1.3083559e-05
  3.5187168e-07
  5.1103024e-07
  4.9719441e-05
  1.5884101e-05
 -1.5439554e-06
  5.2888945e-06
  5.3983622e-06
  1.8101220e-05
  7.2483626e-06
  1.3418326e-05
 -3.8052008e-07
 -3.2367429e-06
 -1.7609102e-05
 -3.9899242e-05
 -1.9421300e-06
  1.2524160e-05
  3.6070430e-06
  1.5446967e-05
 -3.4009481e-05
 -1.5432570e-05
 -1.0816779e-05
 -6.5522672e-06
 -3.2778276e-05
 -1.1373352e-06
  5.2572727e-06
  1.3015288e-06
  1.2233712e-05
 -2.8602393e-05
  4.2971864e-05
  3.2149277e-05
  1.2305184e-05
  3.0722497e-06
  2.1772927e-05
 -8.3620189e-06
 -4.3773243e-06
 -5.0971903e-06
  7.9726688e-06
  5.4823927e-06
  4.9724105e-05
 -2.1003043e-05
 -6.8886082e-05
  2.1565234e-06
 -1.3187152e-05
  1.3422152e-07
  2.3322760e-05
  2.4704821e-05
 -2.2299235e-05
  2.3726498e-05
  1.9207802e-05
 -7.8795938e-06
 -1.5036539e-07
  5.4923139e-06
 -1.9229656e-05
 -2.3563664e-06
 -1.4115190e-06
  8.3323001e-05
 -1.3041865e-05
  2.9314942e-06
 -6.9515845e-06
 -4.0851332e-06
  1.6149443e-05
 -6.3479183e-06
  1.0352341e-05
  1.3537381e-05
  3.4712459e-05
  1.7988055e-05
  1.3061361e-05
 -1.2505616e-06
  3.2449670e-06
 -4.4133812e-06
 -1.5591620e-05
 -1.0559904e-06
  7.5282937e-06
  1.2389942e-05
 -5.1467223e-06
  7.7285484e-05
 -9.2382752e-06
  1.7443438e+00
  1.2318703e-05
  3.8044211e-05
 -2.5100684e-01
  2.3428121e+00
  4.3563814e-06
  1.9867113e+00
 -2.4888071e-05
 -1.0915301e-05
  2.6900962e-01
 -5.8950271e-02
 -6.2992670e-02
  1.0157777e-01
  3.1036247e-02
  8.0737388e-01
  6.5271217e-01
  4.3515310e-01
  7.0238960e-01
 -2.4805844e-03
  5.7250971e-01
  1.0637391e-01
 -4.5776376e-01
  1.7582332e-01
  4.6786577e-02
  9.0471331e-06
  1.3072616e-02
  1.6481521e-02
  1.0077748e-01
  5.0994433e-02
 -3.7093498e-02
 -1.1964118e-04
 -7.1673210e-05
  2.8548354e-06
  1.5560992e-01
  9.5884816e-06
 -2.8552156e-06
 -1.0024854e-05
  3.7772020e-07
  2.2359998e-05
  1.5894791e-06
 -2.0236439e-05
 -5.9311114e-05
 -2.3508604e-05
 -4.7441367e-06
  1.1296834e-08
 -2.1112887e-06
  1.4315969e-05
  1.3756179e-05
 -1.8872654e-05
 -1.4435991e-05
 -3.2640439e-06
  1.1917543e-05
 -3.3456610e-05
 -3.6511443e-05
 -2.8811710e-06
  4.0924642e-05
 -3.3138226e-06
 -2.0214291e-05
  3.2092841e-05
 -8.2665010e-06
 -4.5932407e-05
 -5.5644756e-05
  6.6933544e-06
 -6.5909571e-06
  1.6717804e-05
  1.0531872e-05
 -6.0908333e-06
  9.9383260e-06
  9.4738425e-06
  2.6527414e-05
 -9.2252121e-06
 -4.1423486e-05
 -7.1419877e-06
  6.0288758e-06
  3.5819919e-06
  2.5498219e-05
 -3.0385958e-05
  2.2862976e-05
 -6.2297640e-06
 -1.1792350e-04
 -1.6775535e-05
  1.7073139e-06
  6.9152175e-06
  5.3930980e-05
 -1.1530715e-05
  2.1595373e-05
  7.8961684e-06
  1.3568384e-06
  5.7960779e-06
  1.8010692e-06
  1.5421620e-05
  3.7723462e-06
  8.0782309e-05
  2.1924076e-05
  5.9939262e-06
  1.4476085e-05
 -2.1180018e-05
 -2.4627311e-06
 -1.0388915e-05
  1.1827069e-08
 -6.6563184e-06
 -1.2327118e-05
 -1.6140871e-01
  1.5453692e-05
  3.6423000e-05
 -1.5803239e-01
  1.9230112e-02
  4.4304496e-05
  1.5013146e-01
 -7.7404366e-08
  2.5529894e-06
 -9.5800988e-02
  1.1628985e-02
  3.4671590e-05
  4.2884229e-03
  5.7217598e-02
 -2.5065842e-01
 -2.0154172e-01
 -3.1985059e-01
 -3.1989112e-01
  8.1757382e-02
 -7.4349031e-02
 -1.1132712e-05
  3.9125746e-01
  2.8282264e-02
  1.5401129e-01
  3.0036115e-06
  1.3193802e-05
 -4.9475279e-02
 -1.0246824e-02
 -1.5257724e-01
  6.5540526e-06
 -2.4605948e-02
 -3.8895272e-05
 -3.4460216e-05
 -1.5733916e-01
  1.9364330e-05
 -3.0779142e-05
 -1.2925905e-05
 -1.7593055e-06
 -1.0963199e-05
 -4.2039260e-06
  1.7309359e-05
 -1.2905396e-05
  1.1692735e-05
 -1.2095170e-05
  1.0922582e-05
  7.9543915e-06
  2.0141732e-07
 -3.7035818e-05
  3.1719908e-05
 -9.2080272e-06
  6.8116998e-07
 -6.1952198e-07
 -8.3669465e-07
  1.3384021e-05
 -4.7716571e-07
 -9.6156255e-06
  3.4181251e-06
  7.9144711e-06
 -3.9958768e-06
  3.2245851e-05
 -2.0159807e-05
 -3.9679780e-06
  2.0017435e-05
 -6.1632322e-06
  7.7432733e-06
 -2.0155332e-05
  1.4689736e-05
  2.4574515e-06
  3.9479019e-06
  1.7724678e-06
 -3.7287946e-06
 -6.4125506e-06
 -1.9233099e-05
 -2.6011461e-05
 -1.7216773e-05
  9.8089877e-06
 -1.3778470e-05
 -2.0446421e-05
 -2.8814031e-06
 -1.3369521e-05
  9.4603620e-06
 -5.6307923e-05
  3.7628529e-06
  1.1741848e-05
  1.2013555e-05
  1.1438566e-05
  2.7661389e-07
  6.7480337e-06
 -1.7124307e-06
 -5.1325569e-06
 -2.5210882e-05
  7.4597125e-07
  2.0834295e-05
  8.0774062e-06
  1.5768472e-05
  8.6289156e-06
  1.4685158e-05
  2.1045533e-05
  8.8813749e-06
  4.9201399e-06
 -2.1447759e-05
  2.0898886e-05
 -6.8604081e-06
  2.0676431e-05
 -2.0382499e-06
  8.0528025e-06
  1.3246286e-06
 -8.0211390e-07
  2.9628668e-06
 -3.1601530e-07
 -3.1647871e-06
 -4.9194648e-07
 -5.3632430e-05
 -1.4942848e-05
 -1.3478403e-06
  1.3709829e-05
 -6.4667574e-08
  7.7959885e-06
  9.9900990e-06
 -1.9472822e-05
  2.1202914e-05
  5.6602648e-06
 -7.0374949e-06
  9.4871884e-06
 -2.1756769e-05
 -2.7905096e-06
 -1.0313096e-06
  1.4362982e-05
 -1.5780836e-07
  6.1055707e-06
  1.3925507e-05
 -1.2041773e-05
  4.6249286e-07
  1.7119222e-05
 -3.0478786e-06
 -6.9884940e-05
 -4.7782952e-01
 -3.0889183e-05
 -1.3924247e-05
  9.5258629e-01
 -7.7732766e-01
 -2.0706098e-06
 -2.0095215e+00
  7.7916256e-06
  2.0940297e-05
 -2.0784305e-06
  3.0891982e-01
 -5.7228099e-06
 -3.5454038e-01
 -2.3790990e-01
  6.8545534e-04
 -8.9361914e-02
  1.7834771e-01
  1.2613422e-01
  3.9350569e-01
  7.4323943e-05
  2.7814394e-02
 -2.9014036e-01
 -2.0893070e-01
 -1.1195070e-01
 -5.1328856e-02
 -2.6166412e-01
  5.9137787e-03
 -1.2328011e-02
 -2.3679124e-01
 -7.4050033e-05
  2.8857911e-01
  9.6150950e-05
 -1.7926692e-05
  4.8749280e-06
 -7.3761216e-06
 -3.9916627e-06
 -8.2004235e-06
 -2.8565544e-06
 -2.7436356e-05
  2.5097329e-06
  1.3566124e-05
  6.6278963e-06
  1.9949393e-05
  3.0108529e-06
  1.0923151e-05
  4.8507776e-05
 -1.2413784e-07
  2.0909096e-05
 -3.7974583e-05
 -1.8337301e-05
  8.5271595e-06
 -3.0819589e-05
  2.4235619e-06
 -2.4234734e-05
 -3.8566952e-05
  2.0351639e-05
 -5.6289596e-06
  2.4939229e-05
  9.1458323e-06
 -1.0868888e-05
 -2.0116191e-05
  2.6744042e-06
 -1.0275743e-06
  6.1748492e-06
  7.2536386e-06
  1.7822379e-07
 -1.4564184e-05
  2.1663043e-05
 -1.1149747e-05
  1.5294971e-05
 -7.6579172e-06
  1.7813341e-05
 -7.3336682e-06
 -1.0827871e-05
  9.8180080e-06
 -8.3686733e-05
  3.5642486e-05
  6.6995299e-06
 -4.0544088e-05
  5.8856399e-06
 -1.5979006e-06
  4.3371583e-06
  1.8925542e-05
 -1.3692552e-05
  6.4590859e-06
  1.3882236e-05
 -3.3230703e-05
 -3.4979616e-06
 -2.2675584e-05
  2.5225721e-05
 -2.2655437e-05
 -9.7670118e-06
 -3.6925837e-06
  4.7216941e-05
 -2.1920456e-05
  1.0785659e-05
 -4.7593900e-07
  6.4172013e-06
  2.7026823e-05
 -5.7945053e-06
 -1.2716699e-05
  7.4925742e-07
 -1.9602034e-05
 -2.8223205e-05
  1.3707576e-06
  4.7526028e-06
 -2.9789155e-05
 -5.8665514e-06
 -9.7251996e-06
 -1.4258347e-06
  1.0934724e-05
 -4.8613012e-05
  1.5500340e-05
 -1.0121939e-05
 -4.9727814e-06
 -5.3776848e-06
  6.9958051e-06
 -1.9784202e-06
  1.0234935e-05
 -3.1372190e-06
 -3.8161270e-06
 -2.1893020e-05
 -1.5424523e-05
  3.0544768e-07
 -2.1647978e-05
  1.1189476e-05
 -5.3395765e-06
 -8.8522411e-06
 -1.2131865e-05
 -7.6768316e-08
 -7.7552031e-06
  2.5495094e-05
 -5.5172086e-06
 -3.0901174e-05
 -5.7663174e-06
 -1.2619859e-05
 -1.9771314e-05
  1.7913342e-05
  6.3781167e-06
  1.2417435e-02
  2.5319549e-05
  1.6117323e-05
 -6.2855661e-01
  1.2278497e-05
 -2.7179969e-05
  9.2784194e-06
 -2.1727898e-04
  2.6280202e-06
 -4.5407051e-03
 -2.7920540e-02
  1.5642782e-04
  5.2482774e-06
  1.9781281e-05
  7.8477606e-02
  7.3723584e-02
  2.2350259e-05
  1.4848418e-05
 -3.9314803e-02
 -3.1790398e-05
 -7.0864099e-01
 -2.5549882e-06
  4.8432862e-06
  4.4449920e-05
 -1.0591437e-05
 -4.0363315e-01
  2.7418911e-05
  6.3118105e-06
  3.2518154e-05
  8.4237990e-06
 -1.5851114e-05
 -6.0511538e-06
  2.2087073e-05
 -1.0808755e-05
 -3.9141100e-06
  2.3319139e-05
  3.4648070e-05
  3.2427444e-05
 -3.0051440e-05
  3.0422101e-05
  9.1211659e-06
  3.8734983e-05
 -1.5838226e-05
  7.2098283e-06
 -4.6068899e-06
 -5.5984742e-07
 -7.9470638e-06
  1.3210745e-05
 -4.7949241e-05
 -2.5657755e-05
 -2.0942176e-05
  5.0294057e-07
 -3.1739088e-05
 -4.5546061e-05
 -2.9412645e-06
  3.4322500e-06
  1.2110802e-05
  4.1547696e-06
 -1.0978276e-05
  1.1543127e-06
  1.5903330e-05
  1.5578993e-05
  1.8323326e-06
  1.2225754e-05
 -3.4075561e-06
 -6.3136076e-06
  3.9169463e-06
 -3.7492322e-05
  3.5386408e-06
 -8.0926460e-05
 -3.3147614e-07
  1.1582044e-05
  3.2958233e-06
  2.5325198e-05
 -1.5016290e-05
 -2.0444586e-06
 -2.4217411e-07
 -1.2504075e-05
  1.3705660e-05
  2.8711318e-05
 -5.0666008e-06
  2.4025421e-06
 -4.9351621e-07
  8.4987696e-05
 -3.4287747e-05
  2.8153048e-05
  1.0555162e-05
  1.2865379e-06
 -1.2127105e-05
  8.0659938e-06
  1.2396245e-05
  2.6377795e-06
  1.5633996e-05
  2.6882574e-06
  5.3110070e-06
  4.3214923e-06
 -1.3766342e-05
 -1.0005797e-06
 -5.2161558e-05
  5.9025101e-06
 -7.0036214e-07
  2.6101578e-05
 -1.9481093e-05
  3.6830243e-05
 -2.1159674e-06
  9.8817623e-07
  1.5694404e-05
 -2.0327781e-05
  1.1783532e-05
 -1.7161783e-05
 -6.4324399e-07
  9.0964977e-06
 -5.3267891e-06
 -3.2605190e-06
  1.8233216e-06
  6.0737393e-06
 -1.7562568e-05
  8.3959803e-06
 -1.2542216e-06
 -2.7661672e-05
  1.5896538e-06
 -2.2987968e-05
  1.0228258e-04
 -9.1527463e-06
  4.1731172e-07
 -1.8399152e-07
  1.3402854e-05
  2.5498284e-05
 -9.0378944e-07
  2.1266951e-07
  2.9478328e-05
  4.5871129e-06
 -3.2697168e-05
  6.4052787e-05
  4.9794071e-06
 -4.6855039e-05
  2.6258710e-01
 -1.4781557e-05
 -3.1589639e-07
 -4.5791920e-02
  1.7700611e-06
 -5.4174798e-05
 -2.5257223e-06
 -6.0514074e-02
 -1.0333858e-05
 -1.1255457e-02
 -3.9781234e-01
  6.7530505e-05
  1.6175455e-01
  9.1165705e-03
  1.2594946e-01
 -1.8545571e-03
 -2.4579262e-05
 -2.7377693e-05
 -5.4332376e-02
 -2.5393583e-05
 -1.0891814e-02
 -6.5408305e-05
  2.3370345e-05
  4.0097970e-05
  2.3726809e-05
 -3.0007267e-01
  5.7587913e-06
 -2.6967878e-06
 -3.1053401e-06
  2.5936713e-06
 -2.7996259e-05
  7.5070661e-06
  2.5910433e-06
  2.3215800e-05
  3.4480716e-05
 -2.3524601e-05
  1.1525372e-05
  3.3645742e-06
 -1.6230500e-05
 -6.1362448e-06
  7.4741911e-06
 -2.8986398e-05
 -3.6382291e-05
  5.4974407e-09
 -5.9581271e-05
 -1.4052255e-05
 -8.9201922e-06
 -5.8111059e-06
 -8.8995819e-07
  1.4150647e-05
 -1.3968962e-05
  4.0991779e-08
 -5.2742466e-06
  2.9015904e-05
  5.0828685e-06
 -4.3986747e-06
 -1.3961428e-05
 -7.0075366e-06
 -2.0263738e-05
  1.9942896e-05
 -3.9020088e-05
  1.8818340e-05
  1.6909380e-05
 -1.4096680e-05
 -1.3737154e-05
 -7.4152554e-06
  6.7885076e-06
 -2.4596437e-05
 -1.3010836e-05
 -2.0644422e-05
  1.4472607e-06
 -3.6224155e-06
  1.3771294e-05
  9.6526383e-06
  2.0664334e-07
 -2.1681890e-05
  6.3943430e-06
 -2.4457877e-05
 -4.2154221e-05
 -8.4736188e-05
  3.9719480e-06
 -1.2141800e-06
 -4.0425773e-05
  6.2139305e-05
 -3.5390749e-06
  1.8406337e-05
 -1.0488428e-06
 -2.2518225e-05
 -8.5845068e-06
  1.2984226e-05
  3.6545698e-05
 -4.4127910e-06
  3.4621121e-06
  7.1610498e-06
 -9.7899351e-07
 -2.8145516e-05
  2.4943654e-06
  8.3356827e-06
 -1.4376399e-05
 -2.8111524e-04
  1.1880657e-06
 -6.9049220e-06
 -3.1184533e-01
 -3.0732364e-05
  1.6921202e-05
  2.4150068e-02
  2.8896156e-05
  6.0484640e-06
 -1.5995667e-05
  2.4064903e-03
  1.1853337e-05
  4.1556929e-04
  1.4477679e-01
 -1.9059656e-03
 -1.7385677e-01
 -3.3064075e-02
 -1.9493383e-01
  1.8909847e-02
 -9.1878130e-05
  6.6475995e-06
  9.0224758e-02
  1.4116084e-02
  3.3424575e-02
  1.2898645e-05
  2.3305816e-05
  8.2969837e-07
 -3.0930943e-05
  8.5057640e-05
  1.2863757e-05
 -1.5761520e-06
 -8.9947680e-06
  4.7139656e-06
 -8.5086009e-05
  1.7323340e-05
 -1.0599440e-06
  6.6843695e-06
  1.0592112e-05
  6.3506595e-06
  9.1602979e-06
  2.3608418e-06
 -4.8208385e-06
  1.4049863e-05
  1.2246749e-05
  4.8695015e-06
  6.6610628e-05
 -9.1417241e-06
  1.8607059e-05
  5.5909204e-05
  7.6310571e-06
 -7.9050287e-06
 -1.1934398e-05
 -6.6046191e-06
  7.4095983e-06
  2.7532267e-05
 -2.5273723e-06
  3.6190784e-05
 -1.4383867e-05
  7.8093835e-05
 -5.4636126e-05
 -3.5523906e-05
  5.4548823e-06
 -4.3591090e-06
 -2.9637108e-06
 -2.9832603e-05
  1.5514090e-05
  1.2915386e-06
  1.0162911e-05
 -1.0129115e-02
  6.8123336e-05
  1.0228799e-05
 -2.4507959e-01
  3.6315921e-06
 -3.8986454e-05
  2.0315344e-02
  6.5943816e-05
  9.2109985e-06
 -3.8583070e-04
  8.7710088e-03
 -2.9320540e-06
  3.7781782e-03
  1.5642534e-01
 -7.3842995e-02
 -4.8461232e-02
 -1.4650035e-01
 -2.3558682e-01
  1.0358599e-02
  3.2780328e-05
  6.3856911e-05
  1.4886314e-01
  2.3075758e-05
 -1.0211693e-01
  3.2403323e-06
 -1.5334261e-05
 -9.2962828e-06
 -6.0085837e-05
  1.2460426e-01
  3.8457656e-06
 -6.8550733e-05
 -1.9088702e-05
 -2.6880503e-05
 -3.4655915e-03
  3.9810322e-05
 -7.0553224e-06
 -9.8388373e-06
 -4.0700183e-07
  1.5906518e-05
  9.6744870e-06
  2.0505227e-05
 -8.1153721e-06
  3.3123593e-05
 -1.0588068e-05
  8.6237254e-05
 -1.9398220e-07
 -4.4611112e-05
 -1.2791068e-05
 -7.3189744e-06
  3.7961249e-06
  6.7230781e-06
 -1.6911918e-06
 -6.4412279e-07
  1.4634737e-05
  1.1658893e-05
  1.2423641e-05
 -4.0861411e-07
  2.8885683e-05
 -4.2050733e-06
  2.0317460e-05
  1.6835482e-05
  1.4751169e-05
  1.1383170e-05
  6.6573175e-06
  1.9898325e-05
 -2.0765985e-05
  1.2469352e-05
  5.8633617e-05
 -3.4091750e-06
  1.3472789e-05
  2.2714588e-05
  6.4977339e-06
 -3.0871452e-06
 -9.0024569e-06
 -5.3659837e-06
  1.8686611e-05
 -6.3420066e-06
 -2.5136913e-05
  3.9079721e-05
  1.7430868e-05
 -1.0302188e-05
 -2.2263175e-06
  1.3879161e-05
 -3.6028155e-06
  1.7346562e-06
 -9.9391946e-07
  8.7738708e-06
 -9.6163831e-07
 -3.8339407e-05
  9.2090231e-06
  1.8231882e-05
 -6.3011694e-06
 -1.6941844e-05
 -1.5172872e-05
  1.0400618e-07
  1.7858130e-06
 -4.4908480e-05
  5.0168874e-05
  8.2538163e-06
  2.9073135e-05
 -2.8749821e-05
  5.4706679e-06
 -1.1811067e-05
  1.1103656e-05
 -3.6313822e-06
  1.2031787e-05
  3.8534695e-06
 -7.7511222e-06
  3.1457763e-05
  2.4586296e-05
  6.0068578e-07
 -2.7683471e-05
  5.1096868e-07
 -4.7161202e-06
 -1.1030531e-05
  2.7350094e-05
 -1.5536929e-06
  1.9793781e-05
 -9.6766571e-06
 -4.1150697e-06
 -1.7803239e-06
  8.5159891e-06
 -2.1026481e-05
  4.7579906e-06
 -2.6674938e-05
 -8.6597026e-07
  3.0260808e-06
 -7.7975761e-05
  4.6991954e-06
  5.1875704e-06
  6.6279654e-08
  6.5464825e-05
 -1.9747590e-06
  1.5535190e-05
 -1.5097847e-05
  1.6726199e-05
 -1.0436049e-05
 -1.3635374e-05
  4.6617050e-05
 -9.4221541e-06
 -8.2523256e-06
  8.5361862e-06
  5.0890526e-06
  3.1504576e-05
 -1.1115724e-05
 -1.0345588e-05
 -8.3854648e-06
  1.6433728e-07
 -1.7657044e-06
 -2.1391574e-05
  1.4372181e-05
 -1.5164199e-05
  2.1275338e-05
 -5.7998459e-06
  1.8018969e-05
 -4.6035575e-06
  1.1592417e-05
  4.8203924e-06
  7.4813643e-06
  7.1828850e-05
  1.2128624e-05
  3.1449706e-06
  7.7671621e-06
 -5.2596322e-05
  2.8649747e-06
 -4.8804677e-06
  4.6405505e-05
  1.0737403e-05
 -1.1312473e-05
 -2.2688978e-06
  5.7573223e-05
 -2.0978887e-05
 -1.3256031e-06
 -8.4139183e-06
 -1.6853859e-06
  7.4795566e-06
  6.3728939e-06
 -6.9498344e-07
  1.6323142e-05
 -8.2139150e-07
  9.6360363e-06
 -1.4500197e-05
  8.7771177e-06
  9.0377813e-05
 -3.9962291e-05
  1.2728866e-05
  4.6467092e-05
 -1.4814798e-05
  1.4537371e-05
 -2.6174795e-05
  2.0025207e-06
 -2.3434832e-05
 -1.0479832e-05
 -6.4931769e-06
  1.7407920e-05
  1.1061373e-06
  7.3049043e-05
 -7.3101592e-06
  1.9246881e-05
 -4.7743729e-06
 -7.4241552e-06
  2.3771894e-05
  1.0506781e-07
 -3.1563309e-06
 -5.3827084e-06
 -9.3685765e-07
 -5.9176582e-06
  1.5667871e-05
  8.2100260e-06
 -2.2101423e-05
 -2.5674128e-05
 -1.6396472e-05
 -6.7733534e-05
 -2.2036596e-05
  2.7042802e-06
 -1.4834418e-05
 -1.2538656e-05
 -1.1458159e-05
  3.9903089e-06
  2.0828420e-05
 -1.7150229e-05
  3.8740109e-05
 -3.3561748e-05
  6.3680864e-06
  7.2738262e-06
 -1.5104076e-06
 -8.5938555e-06
 -2.8609988e-06
  1.6800514e-06
 -6.7587080e-06
  2.0788219e-05
 -9.6421782e-06
  1.2282137e-05
 -3.2368127e-05
  1.3188976e-05
  9.1611810e-07
  1.9704445e-05
 -2.4317556e-05
  1.7851296e-05
  2.9914222e-06
 -3.1618285e-05
  6.0662219e-06
 -1.7516237e-05
  1.1387683e-06
 -1.8413644e-05
 -3.8697799e-06
 -5.0901319e-05
  1.3247718e-06
 -2.5911465e-06
  1.0116170e-05
  1.3923507e-05
 -2.9166204e-05
  2.5799868e-06
 -3.9480281e-05
  1.9749217e-05
 -2.4851149e-06
  1.4285581e-06
  1.8670501e-06
  7.7596324e-06
  3.5263838e-07
  4.5606030e-05
  1.0238110e-05
  3.6902470e-06
 -3.3637702e-05
 -2.4291464e-06
 -3.2861681e-05
  2.9503683e-05
 -1.0018654e-05
  6.7320248e-06
 -1.0687971e-05
  1.1808265e-05
 -3.3319332e-06
 -4.7644812e-06
  6.9152093e-06
 -4.9887826e-06
 -6.8772615e-06
  2.4380743e-06
  2.0244775e-05
 -2.1302340e-06
 -1.3447419e-05
 -1.2025430e-05
 -1.0228722e-05
 -3.8257517e-06
  1.9922700e-05
 -2.1462968e-06
  3.2859269e-05
 -5.1713678e-06
 -2.5508733e-05
  9.0825833e-06
  9.0246358e-06
 -3.0316940e-05
 -6.0849261e-06
  1.1121819e-05
  2.3558730e-05
 -1.3031833e-05
 -1.0597572e-05
  5.5072462e-05
 -1.3579606e-05
  4.8917586e-06
  2.1022994e-05
 -4.2637628e-05
  9.6054464e-08
  1.3030547e-05
 -9.3161179e-06
  3.8181615e-06
 -1.8431992e-05
  1.5056903e-05
  1.5307804e-05
 -5.0680778e-06
 -2.3821394e-05
 -3.0110545e-05
  1.1913793e-05
 -9.8110204e-06
 -7.6112410e-06
 -3.4192533e-05
  3.1429145e-06
  1.7021028e-06
 -8.8696441e-05
  6.2404497e-06
 -1.3176247e-05
  7.3373312e-06
 -4.2666321e-05
 -4.6654560e-07
  1.1596807e-05
  1.3337457e-05
 -6.6064767e-06
  6.5822599e-07
 -1.1546741e-05
 -2.3349397e-05
 -1.8768507e-05
 -3.4762692e-08
  1.9780722e-05
  4.2302959e-06
  1.9609026e-06
  5.8310034e-06
  1.0721544e-05
  2.7601289e-05
  3.6591618e-06
 -2.1940525e-07
 -1.8878759e-06
 -6.6890770e-01
  3.5519006e-05
 -1.2629147e-05
  2.3842211e+00
  4.5307130e-01
  1.2715693e-05
  1.1606698e+00
 -6.1231913e-06
 -2.5521854e-06
 -5.7030588e-01
 -4.0857100e-01
  1.7068473e-06
 -7.1760905e-01
 -1.7922299e-01
 -1.8737420e-01
  1.6637643e-01
 -2.6994355e-03
 -4.1469058e-01
  2.3255461e-01
 -3.4959465e-01
  2.7065560e-02
  2.5346273e-01
 -3.7108287e-02
  2.6500687e-01
  6.6070675e-06
  1.1242785e-01
 -1.4228153e-04
 -4.1423980e-03
  6.1387718e-01
  9.3070435e-04
 -4.4091803e-01
 -1.0828858e-05
 -1.7451732e-05
 -1.7559639e-04
  1.0195662e-05
  3.6443939e-06
  7.5438447e-07
  7.7750638e-02
  1.4882461e-05
 -4.3337050e-06
 -7.5392693e-02
 -7.1362424e-01
 -5.7626908e-06
 -6.3100724e-06
 -4.0397019e-05
 -4.1099971e-05
  3.3717653e-05
  6.7498249e-06
 -6.6792572e-06
  3.4856850e-05
  8.5782995e-06
  9.2213186e-06
  7.4215022e-06
  1.4620358e+00
 -1.2064584e-06
 -2.8146202e-05
  2.4575951e-05
  3.4606212e-05
 -1.1150310e-06
  1.4912549e-06
  1.9581529e-01
 -2.8698807e-06
 -1.9974055e-05
  3.5403264e-06
 -1.0932001e-06
  1.2750056e-05
  4.6295931e-06
  1.6881884e-05
 -5.2196407e-05
 -8.7933558e-06
 -1.3923521e-05
 -7.4083241e-06
 -3.6765839e-05
 -1.1954254e-05
  1.8514089e-05
 -1.0995996e-05
 -3.3376043e-06
 -1.4132900e-06
  6.2318134e-07
  1.7172935e-05
  1.6851307e-04
  1.8077839e-05
  1.6375478e-05
 -3.5946041e-01
 -1.7978902e-05
  3.4042493e-01
  1.0718584e-05
  6.8231565e-01
 -9.7446082e-06
 -1.3748434e-05
 -5.5755663e-01
  1.0701170e+00
  1.0358448e-05
  7.5721182e-06
 -2.5348807e-05
 -7.5639973e-06
 -2.5565441e-06
  1.4211308e-06
  7.4489817e-06
  3.2610154e-05
 -3.9439133e-06
 -5.8007017e-06
 -1.5703210e-05
  1.5205780e+00
 -4.6791110e-06
 -8.9817731e-06
 -1.0519183e+00
 -3.0173128e-06
  6.8803802e-06
  5.0609315e-06
  1.9035695e+00
 -6.3594991e-05
 -2.5243126e-03
  3.2611883e-06
  4.5727021e-01
  1.5311951e-05
  5.0742337e-06
  4.5820252e-06
  4.4685838e-01
 -1.9538536e-06
 -1.0403189e-05
 -4.6888632e-01
 -1.0962157e-05
 -6.0083848e-01
  8.0307655e-07
 -3.4537113e-06
 -1.6037945e-06
 -3.7056561e-06
  2.1589212e-05
 -9.0600852e-06
  9.7204816e-07
 -8.8748639e-06
  1.0998106e-05
 -1.9165484e+00
 -2.7248158e+00
  4.1829903e-06
  6.2864729e-06
 -5.5311494e-02
  1.7827624e-02
  4.3528617e-05
  5.3574372e-02
  8.3812201e-01
  5.8848417e-01
 -4.2928383e-01
  1.9038956e-05
  4.9160180e-06
  1.5447857e-05
 -8.9264188e-07
 -5.9068452e-06
  4.1903959e-06
  4.0364466e-06
  4.5371140e-05
  1.6454904e-05
 -1.3011838e-05
 -1.6225014e-05
 -5.4081619e-02
  6.4532207e-03
  2.3562572e-05
  3.7836005e-06
  4.2430475e-01
  9.1067595e-06
 -1.7230812e-01
  1.1728220e-05
 -2.0116941e-06
  1.7625185e-06
  1.3546769e-05
 -3.8953863e-06
  6.8233870e-02
  6.7787333e-03
  1.4403157e-01
  1.9302516e-01
 -9.3630088e-06
  3.8585433e-05
 -3.6918238e-02
  3.6818114e-05
 -8.1251746e-06
  1.3957001e-06
  2.7141672e-01
 -7.6543975e-06
 -4.7883457e-01
 -3.1465821e-05
  7.9292777e-06
 -6.1248822e-05
  1.5368152e-05
  2.3663675e-05
  6.6101677e-03
 -3.3305176e-05
  8.1602484e-02
  6.9206131e-01
 -3.2545549e-06
  6.0988086e-06
 -1.3111098e-02
  3.6833277e-05
 -2.1616321e-05
  5.7061162e-02
  5.3937662e-01
  3.3717030e-01
 -4.9832475e-01
  1.4206566e-05
  5.4195430e-06
 -3.1941501e-05
 -1.1452089e-05
 -1.0569179e-05
 -3.0117906e-05
 -3.2624391e-01
 -2.1004471e-01
  2.1163684e-01
 -2.0909174e-05
 -2.2714407e-06
 -5.9548020e-03
  1.6881871e-05
 -3.5143577e-05
  1.0242758e-01
  4.8751056e-01
  2.7867751e-02
 -7.9202406e-02
  3.1493769e-06
  3.6167730e-05
 -2.6048416e-05
 -2.5453204e-08
  2.1940519e-05
 -7.0327078e-05
  3.8869079e-02
 -1.4179291e-01
 -1.4214082e-05
  5.5118799e-06
 -5.7737766e-06
 -1.2787654e-03
  4.8490041e-05
  1.5082557e-05
 -3.4753516e-06
  2.4593998e-01
  2.4532869e-01
 -2.0149632e-01
  5.9910681e-06
  5.5171445e-06
 -2.8860448e-05
  3.7231108e-05
 -1.3333515e-05
  2.9232938e-06
  6.6192688e-06
  7.7453819e-07
  7.2982371e-06
  2.8935323e-05
 -3.6240251e-06
 -9.4075513e-06
  8.8572760e-06
  4.9621133e-07
 -1.2058073e-05
 -4.7511832e-05
 -3.0510208e-05
 -6.7394103e-06
  4.7626900e-06
  1.2129633e-05
 -2.9729603e-05
 -3.0708241e-05
 -1.2288508e-05
  2.6969090e-06
  7.9731517e-06
  1.5261197e-05
 -6.3562793e-06
 -8.1986846e-06
  1.2491051e-05
  1.7194065e-05
  1.5480296e-05
  1.1037812e-06
  1.3525243e-05
  2.2333015e-05
 -3.7033290e-06
  4.3729897e-06
  6.8251875e-06
 -8.3989362e-06
  5.0750201e-05
  1.0986258e-06
 -4.4816234e-06
 -6.1229875e-05
 -2.4958081e-06
 -1.2216045e-05
 -4.8282113e-06
 -3.4642333e-06
 -2.3664327e-06
 -5.8047804e-05
  3.1537595e-06
  6.7608007e-06
  2.1457670e-05
 -1.5967223e-07
 -2.6111748e-06
 -2.4272807e-05
  2.5630170e-05
  1.1711057e-06
  3.3113317e-06
 -3.3411699e-05
 -1.0684244e-05
 -7.6999677e-06
  4.0277682e-05
 -1.4690715e-05
 -2.7305322e-07
  2.4601964e-06
  1.6155273e-05
 -3.6707008e-06
  1.5206601e-06
 -1.2131670e-05
 -2.7512730e-05
  1.1078162e-05
 -1.1032082e-05
  3.9426406e-05
  3.3175846e-05
  2.2307213e-06
 -2.0319967e-05
 -2.4699534e-06
  1.9632660e-07
 -6.6835287e-07
 -5.0187764e-06
 -2.9122334e-06
 -1.2397911e-05
  7.8939829e-06
  4.7335247e-06
  8.1018152e-06
 -2.0860633e-05
 -2.2237462e-05
 -2.1927233e-06
 -6.8521576e-06
 -6.9761791e-07
  1.8549556e-05
 -1.4213026e-05
 -9.4842198e-06
 -3.9388810e-06
  5.9307789e-05
 -1.0994771e-05
  1.5429205e-05
  7.2592438e-06
 -3.6890731e-05
 -4.8270118e-05
 -4.1752173e-07
 -1.0989619e-05
 -7.5110975e-06
 -3.4921348e-05
 -4.0247458e-05
 -3.7374849e-07
 -3.0936542e-05
 -4.0343828e-05
  8.6474273e-07
  7.9637912e-06
  8.7399367e-06
  4.1570474e-06
  5.0741455e-06
  1.1732864e-05
  2.9373106e-05
  1.0062778e-05
 -4.4039405e-07
 -5.3638587e-06
  8.6568361e-06
 -1.0911514e-05
 -8.5744587e-06
  4.6086398e-06
 -1.4506249e-05
  7.6334863e-06
 -3.1315558e-06
 -1.2793816e-05
 -1.9162859e-05
 -5.7662021e-07
 -1.4256475e-06
  1.0601381e-06
 -3.3084575e-06
  4.0156425e-05
  7.4609206e-06
  1.0238670e-05
 -5.7555015e-05
  5.2393170e-07
 -1.3613234e-05
 -8.2089855e-06
 -5.1715133e-06
  6.7081455e-06
  1.7957302e-05
 -3.0046798e-05
 -2.2735645e-04
  1.0332733e-04
  2.8848006e-06
  3.4687760e-06
 -1.8879236e-06
  4.3918677e-05
  3.5341545e-06
  5.5806786e-06
 -9.7544062e-06
  1.5029429e-05
  1.0834179e-05
 -5.2698533e-07
 -1.7221103e-06
 -4.4628632e-05
  5.5234786e-06
  1.3475499e-05
  3.6015954e-06
  2.9432529e-05
  2.9417610e-05
  5.4365019e-06
 -2.2095576e-06
  1.8691960e-06
 -2.8526520e-06
  1.7525388e-06
 -3.6907120e-05
 -3.0582942e-07
 -9.3028821e-06
 -4.7238818e-06
 -1.2153901e-05
 -8.8090110e-06
 -1.2847491e-05
  4.4885983e-06
 -7.0719716e-07
  2.8097720e-06
 -3.8003291e-05
 -5.2052415e-06
  3.6866822e-05
  6.3318548e-06
  9.9087383e-06
  2.3168384e-05
  6.8427803e-06
  3.1374525e-06
  3.6778283e-06
 -1.6240503e-05
 -1.0383599e-06
  1.1944293e-05
  2.3360402e-05
 -4.3032076e-05
  3.4370746e-07
 -3.4450225e-06
 -2.9452826e-06
  2.3462659e-05
  1.0768938e-05
 -2.8864674e-06
  2.1876531e-06
 -1.4117444e-06
 -1.2454273e-05
 -1.0954079e-06
 -3.9078176e-04
  3.1365976e-01
 -1.9526310e-06
 -4.2953310e-05
  1.7820291e-01
 -7.8627956e-01
  6.7589629e-01
  3.1241896e-05
  5.7755278e-05
  1.4758462e-05
  3.8549428e-05
  7.7375176e-07
 -4.3020878e-05
  1.0544205e-05
  6.8488998e-06
  7.9482867e-05
 -2.1509904e-06
 -1.9154265e-06
 -6.4690939e-06
  2.7331457e-01
 -2.8481376e-05
 -7.1966356e-06
 -4.7425958e-05
 -8.1041300e-01
  2.3707037e-01
  7.6209074e-03
  9.1467491e-06
  2.1294163e-06
  2.5929431e-03
  1.7832279e-05
  9.6658107e-07
  2.5754291e-01
 -5.8247620e-05
  3.5571882e-01
 -1.3065313e-03
 -2.5876270e-05
 -1.8852634e-05
  5.3810611e-02
 -3.4461969e-05
  6.5612171e-06
  4.5674988e-06
 -8.9605510e-01
  2.0191443e-05
  3.2068416e-02
  6.7513151e-06
 -2.1159825e-05
  1.3360220e-01
 -4.7020994e-06
 -2.7593805e-05
 -4.8946690e-02
  1.8665170e-02
  5.7835257e-01
 -4.3501761e-02
 -1.0403508e-05
 -1.1350587e-05
  7.1643367e-02
  2.6489502e-06
  2.8477798e-06
  1.9447359e-01
 -9.9801648e-01
  3.1236531e-02
  1.2688151e-01
  5.5179419e-07
 -1.8458282e-05
  1.6712216e-03
 -2.7031036e-05
  1.2482885e-05
 -3.4968117e-01
 -3.3663623e-06
  8.8204497e-06
 -2.5173385e-06
  8.8441921e-06
 -4.0384501e-05
  2.3864198e-01
 -1.3599009e-05
  9.5435480e-06
  2.8769216e-01
 -4.5724595e-01
  5.0885749e-01
  1.3379105e-05
  4.3317868e-08
  2.4737221e-05
 -9.9732279e-06
 -2.1892998e-05
  2.6374608e-05
 -2.7446687e-02
 -7.1545249e-01
  1.4465701e-05
  1.1770964e-01
  2.5316801e-06
 -1.6886872e-05
  3.8420683e-01
 -9.1136484e-05
 -4.6310456e-06
 -3.3754934e-02
  3.5535666e-01
  1.6042918e-01
 -2.4344349e-02
 -3.4357123e-05
 -9.1147813e-05
 -6.3947860e-05
 -9.5291798e-06
  2.9781024e-05
  1.4899713e-01
  2.9265565e-01
  2.1717247e-01
 -2.7787277e-01
 -1.4350400e-05
 -1.0998343e-05
  3.0994495e-05
  1.4210341e-05
 -6.6538978e-06
 -3.0771996e-06
  5.8434639e-06
  1.8694310e-03
  1.0556581e-05
 -2.2783797e-07
 -4.0943250e-05
  1.6070182e-06
 -3.4910674e-05
 -1.4534789e-05
  6.4196023e-03
  1.8829571e-01
  1.3038281e-01
 -4.0928090e-01
  2.9357168e-06
  7.2799639e-06
 -7.4160859e-02
  9.9976678e-06
  9.2755636e-06
  3.0093005e-01
  2.3771425e-05
  1.0640408e+00
  1.9208180e-02
 -1.5450029e-05
  4.9168711e-06
  3.2704491e-05
 -1.2197819e-04
 -9.7987759e-06
 -9.1537286e-06
  1.9669269e-01
 -2.6337704e-05
 -5.2478510e-01
  6.3685475e-06
 -1.0370199e-05
 -2.9591301e-01
  1.6105685e-06
 -1.0890531e-05
  5.1103914e-01
  5.2063646e-05
  4.9974117e-01
  9.9757679e-02
 -1.7429427e-05
 -2.0636751e-06
 -1.7106540e-05
  1.0220249e-05
  3.0969331e-05
  1.1553081e-01
  2.8165707e-01
  5.3122717e-01
 -4.9946997e-01
 -1.2833532e-05
 -1.3016240e-05
 -2.1552851e-05
 -1.1021640e-05
  1.1082565e-05
 -2.2317526e-04
 -1.0171663e-05
 -8.6473425e-05
  1.1035450e-04
  3.8232538e-06
 -5.3879765e-05
 -5.6540940e-02
  8.7283261e-06
 -1.4319914e-05
 -2.7396340e-02
  2.3067278e-01
  4.4361249e-01
 -3.0567017e-01
 -1.2694145e-06
  2.5449181e-06
  1.0643044e-05
  1.7584563e-05
  3.7890354e-06
  1.0714028e-01
  2.9427993e-05
  1.4248079e-01
 -2.3622346e-05
  6.8596946e-06
 -5.8867845e-06
 -4.0248193e-02
 -9.2582904e-06
 -1.3401404e-05
  1.6161855e-02
  1.5445810e-02
  2.1739487e-01
 -3.9104620e-01
 -1.9980478e-05
 -1.3849557e-05
  5.5420096e-06
 -9.9931949e-06
 -4.0631137e-05
 -3.0598792e-06
 -6.7780240e-07
  2.7135753e-05
 -5.8030123e-06
  9.6187239e-07
 -9.2195914e-06
  8.6630344e-06
  6.7451901e-06
  1.0379262e-05
  1.4653114e-05
 -6.0727079e-06
  3.5166770e-05
 -3.3692959e-07
 -5.5413995e-05
  1.2261470e-05
  1.3807146e-05
  3.4427403e-06
  3.3585264e-05
  5.9066201e-06
 -5.1965408e-06
 -3.5915705e-06
 -2.2418649e-06
 -1.0757305e-05
  6.1834648e-06
  1.8289894e-06
 -3.4909083e-06
  5.0013555e-06
 -7.7249306e-06
  3.2703101e-06
 -4.0001731e-05
  1.1693121e-05
  1.7917533e-05
 -1.4158386e-05
  1.7349776e-05
 -1.7458269e-05
  1.3843905e-06
  1.9584168e-05
 -5.5324840e-06
  6.2563481e-06
  4.4028070e-06
 -1.0884578e-05
 -5.4703396e-06
 -5.9496019e-06
 -6.8105733e-06
  1.7395741e-05
  7.4061859e-06
  2.8264778e-06
  2.2736176e-05
 -8.0725622e-06
 -4.4522803e-06
 -2.3935020e-06
 -3.4100417e-06
 -1.1120275e-05
  9.2245700e-06
  2.9995337e-05
 -6.0425582e-06
 -8.9573007e-07
 -2.7205291e-05
 -1.0818679e-05
 -7.6333763e-06
  6.4010137e-06
  5.0280455e-06
 -2.7690554e-05
 -2.8435305e-05
  8.3263749e-06
  2.7189062e-05
 -1.7000084e-05
 -4.3235709e-06
  7.2021817e-06
  2.1050146e-05
  1.4377948e-05
 -8.2941078e-06
 -6.8548188e-06
 -4.3608480e-08
  2.8275476e-06
 -5.9069735e-05
  3.7674821e-05
  4.6956666e-05
 -1.6638391e-05
 -1.2101052e-05
  4.7219746e-05
 -4.1849857e-05
  3.2979635e-05
 -2.2937385e-05
  1.0353167e-05
  1.1349686e-05
 -2.1595542e-07
  3.7170821e-08
  2.3037290e-05
  6.1361902e-06
 -1.2392735e-05
 -9.5505652e-07
  9.7438015e-06
  8.0742566e-06
  1.0210201e-06
 -5.3613812e-01
 -1.8017979e-01
 -3.0071378e-01
 -3.6464073e-06
  2.0758475e-01
  5.3073245e-01
  6.8745589e-01
 -9.5504910e-01
  4.4507397e-06
 -1.0201216e-05
 -7.1486784e-07
  9.4759534e-06
  1.1497412e-05
 -4.0720304e-05
 -4.7238285e-05
  5.4401619e-04
 -2.2542899e-05
  1.3176563e-05
 -4.6145660e-01
  7.0722699e-01
 -2.8628555e-01
  1.3400177e-06
  2.9091801e-02
  5.7687569e-01
  1.9875492e-01
 -5.3734756e-01
  5.7185338e-05
  1.2008799e-05
 -1.5561834e-01
 -3.7668444e-05
  1.3618255e-06
  8.6672097e-01
 -3.4814634e-04
  9.7505844e-01
 -6.0353195e-04
  4.8362377e-05
 -3.7795913e-01
  4.7453463e-01
 -2.4228235e-01
 -1.1188303e-05
 -9.9346480e-06
  5.9104341e-01
  3.0135661e-05
 -3.3734372e-01
  3.8317197e-05
 -9.0638096e-05
 -1.1818911e+00
 -6.2084335e-05
  4.6271366e-06
  7.8997153e-01
 -1.7939973e-01
  9.4750071e-01
 -2.2392848e-03
  2.1744425e-05
 -2.8034332e-01
  8.1726082e-04
 -1.8939538e-01
  3.4875620e-06
  1.0029295e-01
  3.1140083e-01
  7.5091654e-01
 -3.9608639e-01
  3.8455761e-05
 -7.9552785e-02
  2.2304894e-01
 -1.0468726e-05
  2.0947424e-05
  3.6848786e-01
  3.2789746e-01
  1.4662662e-02
  6.8097256e-02
  3.0872801e-05
 -2.2883110e-01
 -8.0783255e-02
 -1.4195487e-01
  2.7310691e-05
  8.5264266e-01
  5.0798833e-02
  7.9177535e-01
 -5.2504009e-01
  1.1362688e-05
 -1.1529527e-01
  3.0370897e-01
 -9.2839429e-05
 -5.6313866e-06
  2.9003263e-01
  4.1580483e-01
  6.9758135e-01
  1.9685051e-05
 -3.0228773e-07
 -2.1900472e-01
  5.4873580e-01
 -1.0895099e-01
  5.2212799e-06
 -6.6260815e-01
  1.7840910e-01
  3.1407481e-01
 -3.6838472e-01
  1.0971978e-05
  1.5113082e-05
 -4.0427713e-06
  4.6821820e-05
 -5.6728968e-06
  1.2595849e-05
 -2.8627398e-06
 -2.3658195e-05
  1.5719119e-05
  1.3519043e-06
  5.5017153e-06
  1.1496420e-05
 -2.3012426e-06
 -5.7907448e-07
 -1.1720019e-06
 -1.4386369e-06
  1.8070903e-06
 -1.8235076e-05
 -2.3307488e-05
  3.6932335e-05
  4.4270808e-05
  8.5850543e-06
 -7.9557813e-06
  3.5074991e-05
  1.1507123e-05
 -5.5758504e-05
 -5.2052819e-06
  2.6463978e-05
 -9.5135947e-06
 -5.4426764e-06
 -2.3959474e-06
  1.5502465e-05
  9.1215388e-06
  4.8568618e-05
 -2.5819094e-05
 -1.6970082e-05
  1.1803015e-05
  6.1160763e-06
  1.6547765e-05
 -1.2302065e-05
 -2.4150704e-05
 -7.2701941e-06
  1.0186832e-05
 -1.8148396e-05
 -2.8481106e-06
  2.7086880e-05
  5.8439714e-06
  2.2555421e-05
 -1.7840048e-05
  3.8322046e-06
 -7.6665765e-06
  1.6942046e-06
 -4.3499199e-08
 -5.4825421e-05
  2.1148762e-05
  2.4093186e-05
  2.6931008e-05
  1.5667755e-04
 -8.3973946e-06
 -1.1339693e-05
 -4.3375028e-05
  1.9455458e-05
 -2.3187091e-05
  4.3702625e-05
 -3.9308761e-06
  6.7924047e-06
  1.6402437e-05
  1.3146284e-05
 -1.0809373e-05
 -2.3482064e-05
 -2.8468430e-05
  5.5095884e-06
 -2.9371356e-06
  6.9112457e-06
  1.4703834e-06
  3.7395255e-06
 -1.7207982e-05
  9.6377053e-06
  1.8982209e-05
 -9.2440177e-06
  4.2702636e-06
 -1.5704627e-05
  1.1516001e-05
 -8.4959129e-07
 -1.1877375e-05
  2.5025629e-06
 -2.0387120e-07
 -2.6363859e-06
 -7.5751036e-06
  9.1958354e-06
  2.8416880e-05
 -1.9119771e-06
  2.6702007e-06
 -1.2000652e-06
 -3.8545913e-05
  3.9086217e-06
  7.2249186e-06
  1.1872085e-05
  1.8382505e-05
  1.3821063e-06
 -2.3577366e-05
  2.2681483e-05
  3.0225128e-06
 -1.5305953e-06
  2.4591261e-06
 -7.4559462e-06
 -2.1909644e-05
  2.0189648e-06
  5.9254867e-06
 -2.2639288e-06
  1.4207750e-05
 -2.2763053e-05
 -2.4730458e-05
  1.2525965e-06
 -5.2216592e-06
 -3.7951627e-06
 -7.4069440e-06
  1.2924499e-05
 -7.9465572e-06
  2.5300640e-05
 -5.2223063e-06
 -5.4577326e-06
 -1.5719979e-06
 -3.9792278e-05
 -6.2675617e-06
 -2.5183910e-05
 -2.0726377e-06
  5.3598242e-06
  7.6340630e-06
  2.7070972e-05
  1.9490737e-05
 -7.7250024e-07
 -3.9420502e-06
  5.0064750e-06
  1.6120906e-05
 -5.1958727e-07
  4.1582785e-05
 -1.4230419e-05
  1.9736441e-05
 -4.1319236e-05
 -5.7262882e-06
  1.1438918e-05
 -9.6615640e-06
 -1.7016049e-05
 -2.4313596e-05
  2.5825208e-05
  7.6082197e-06
 -9.2730343e-06
 -4.6613645e-06
  3.1577856e-05
  1.8743012e-06
 -1.2354382e-06
 -1.2528997e-05
 -1.4545938e-07
 -1.7416078e-06
 -3.2408374e-05
 -1.8925337e-05
 -2.4448393e-05
  1.4754542e-05
 -9.1514539e-06
  4.1486993e-07
 -1.8380375e-06
 -2.3557841e-05
 -1.3321522e-06
  8.3616382e-05
  3.7923319e-06
  1.3691944e-05
  3.4202724e-06
 -2.8250365e-02
  6.0172733e-06
  1.0889576e-05
 -1.4080900e-05
 -8.1823619e-06
 -9.7996644e-06
  1.7414870e-06
 -5.2182659e-06
  1.0587366e-01
 -2.0068669e-06
 -1.9130775e-05
 -2.0241729e-05
  2.9333705e-06
  2.1928181e-06
  2.8547824e-05
 -9.9254903e-06
  3.6649577e-05
 -1.1159672e-05
  4.2088968e-06
  2.3587854e-05
  3.4445375e-06
  6.2191748e-06
  6.7047963e-06
 -5.0923318e-06
 -7.2283237e-06
  3.9035513e-09
  2.2540344e-05
  1.1864152e-05
  3.7004535e-05
 -2.0591598e-02
  7.7409231e-07
 -2.7210660e-07
 -9.0712092e-06
  1.9400848e-05
 -6.4629908e-06
  4.4215749e-06
  7.0711899e-01
  1.3538951e-01
  5.4838667e-05
  3.6203314e-06
 -1.8062387e-05
 -4.1388601e-05
  1.0924599e-05
 -3.0101086e-05
 -8.9200412e-06
  1.6762283e-06
  2.6033500e-05
  2.4483411e-06
 -7.1384120e-06
  1.1850032e-06
 -1.1643604e-05
  2.4451538e-08
 -2.6893770e-06
  2.6883596e-05
  3.8803762e-01
 -4.8058141e-02
  1.0888045e-05
 -2.3305271e-05
 -4.0483933e-06
  4.5107836e-06
 -5.9880604e-06
  4.6654573e-06
  9.2783866e-06
  3.2923380e-01
  9.6063244e-01
  1.2600600e-05
  3.2887434e-05
 -3.5378071e-07
  1.8691049e-05
 -2.1562026e-05
 -1.3521292e-05
  1.1690799e-05
  2.2191036e-05
  2.9081559e-05
 -2.0807449e-06
 -9.6725853e-07
  7.0250120e-05
  1.0134519e-05
 -3.9785282e-05
  6.9843318e-06
 -1.1413833e-05
  8.3576638e-01
  2.6638022e-01
 -7.7997629e-06
  4.0350751e-06
  1.2163811e-06
  3.9217772e-05
 -3.0895192e-06
  1.3427579e-05
 -6.2261388e-06
 -4.5240637e-02
  3.4068018e-01
  1.3681144e-05
  2.3489865e-06
  5.7010370e-06
  2.0418465e-05
  5.5441010e-06
  7.8009352e-06
 -2.9411292e-05
  8.6354333e-01
  7.2024494e-01
  7.3637893e-06
 -1.8003613e-05
 -5.5755095e-06
  6.4604646e-06
 -1.1946078e-05
 -1.8285204e-05
 -9.8402313e-07
  1.4891741e-05
  3.2042673e-01
 -2.7537494e-06
 -3.9477277e-06
  4.1795407e-05
  6.1937185e-06
 -1.0165314e-05
  2.0561936e-06
 -4.9902937e-05
 -1.8211929e-05
  9.1929507e-01
  4.2635024e-02
 -2.3143142e-05
 -9.6525337e-06
 -1.0093585e-05
  2.6420948e-05
 -8.2172764e-06
 -2.8321538e-05
  2.7963856e-06
  1.1143517e-05
 -4.0555216e-05
  2.9154594e-06
  8.2717406e-07
 -1.2605782e-05
  1.0295867e-05
 -1.6502087e-05
 -2.8706843e-06
 -3.4284112e-06
  4.0574232e-01
  4.0814202e-02
 -1.6160226e-05
  1.8667129e-06
  8.1118324e-06
  2.0174110e-05
  1.4818769e-05
  1.2824126e-05
  1.7666842e-05
  2.9164279e-01
  8.2800761e-06
 -1.8445066e-05
 -1.7163086e-07
  9.0071699e-06
 -8.9181030e-06
 -3.6846963e-05
  3.4445188e-06
  3.2431708e-06
  4.7817162e-01
  2.7100984e-02
 -2.0028870e-05
 -7.3061196e-06
  1.5962623e-05
  4.4621032e-05
  3.9198740e-06
  9.6602771e-06
 -1.8274163e-06
  8.2456730e-02
  1.2642818e-05
 -6.7958272e-06
 -2.8101431e-06
 -1.5961803e-05
 -7.2315938e-06
  1.5503260e-06
 -4.0744671e-05
 -2.7775118e-06
  1.0695453e-01
  1.2563732e-02
  1.9172732e-05
 -6.8403929e-06
  8.3240889e-07
  1.7281131e-05
  8.3176101e-06
  1.6623494e-06
  1.5816704e-05
  1.1376221e+00
  5.1964898e-06
 -5.7634770e-07
  2.8145330e-06
  1.4263404e-05
  2.7354386e-06
  1.8906698e-05
 -1.0328533e-05
 -2.7246771e-05
 -4.7181882e-02
  8.5296616e-04
 -4.7681126e-05
  1.1509318e-05
 -6.3949019e-06
 -1.3591596e-05
  9.9038771e-06
 -2.4065515e-01
 -1.3159696e-02
 -2.1276274e-01
 -1.7440569e-05
 -3.2678276e-05
  4.5781019e-07
 -1.2215281e-05
 -1.7267768e-05
  6.1375376e-06
 -4.0824314e-05
  3.7553367e-05
  3.6616453e-05
  3.1702991e-06
 -3.4787656e-05
 -6.5826061e-05
  8.1012467e-06
 -7.1747218e-06
  3.6708076e-05
 -1.7609935e-01
 -3.8804259e-02
 -4.0495700e-01
  2.4610745e-07
 -2.2125831e-05
  3.2392295e-06
 -8.5970196e-06
 -4.8222400e-06
 -9.6362273e-06
  7.0294273e-06
  3.4420038e-05
  1.5503329e-01
 -2.3131946e-05
  2.2776614e-05
  1.0040292e-05
 -7.5546959e-06
  6.2953372e-06
 -4.3684791e-05
 -3.1678236e-01
 -1.5296727e-04
 -6.5195042e-01
  8.3790888e-05
 -1.3277895e-05
 -8.8204733e-06
  1.9751512e-06
  2.2030131e-06
 -1.0642981e-05
  2.2756283e-01
 -2.4696835e-06
  1.6901349e-01
 -1.5213341e-05
  6.5182621e-06
 -5.5695182e-09
 -2.2450322e-05
 -3.1439597e-06
  6.5907602e-06
 -6.9435757e-01
 -8.3746578e-05
 -3.3662274e-01
 -5.0509461e-05
 -4.9921791e-06
  1.5437838e-06
 -3.7634861e-06
 -3.3296749e-06
  1.5338224e-05
  5.4084820e-01
 -3.3659442e-05
 -1.1687660e-01
 -1.5674177e-05
 -1.8252780e-05
  7.7314407e-06
  1.0174143e-05
 -7.2934627e-06
 -2.8731870e-06
 -7.0751345e-01
  1.3371640e-05
  2.2555561e-01
  2.6018530e-05
 -2.1077702e-05
 -1.4074929e-05
 -1.4462828e-06
 -6.3220814e-06
  2.6058540e-05
  6.3247389e-01
 -1.1660118e-01
  8.1704503e-01
  3.8385107e-05
 -1.8336227e-06
  8.3822556e-08
  2.3206927e-05
  1.8760967e-06
  4.8278434e-06
  1.2436025e-05
 -1.4620149e-05
  1.8625475e-05
  1.2495498e-05
 -1.7514383e-06
 -3.3392600e-05
 -6.0925940e-06
 -1.4712730e-05
  2.8270288e-05
  1.9076540e-01
 -2.7268756e-02
  8.2176358e-01
  3.0653049e-05
 -1.0493113e-06
 -1.9624219e-06
 -4.8301627e-07
  1.1602742e-06
  4.7974154e-06
  1.2876321e-01
 -4.7526280e-03
 -1.2748091e-05
  1.9381482e-06
 -2.0449626e-05
 -3.2788714e-05
 -3.8326038e-05
  8.8135612e-06
 -3.6386498e-06
  2.0386074e-01
  1.9565216e-05
  7.1874636e-01
  2.0280142e-05
  8.0428435e-06
 -4.4783916e-05
  2.5301229e-06
  8.9696996e-06
  1.7854576e-05
  5.9696447e-02
 -1.7034654e-01
  3.3274036e-02
 -2.0785301e-05
  3.4737332e-05
 -9.9813305e-06
 -7.4010377e-06
  2.7249716e-06
  8.5588533e-07
  6.2263113e-01
  2.5123768e-06
  9.8349273e-01
  2.6436415e-05
 -6.6275852e-06
 -2.6796793e-05
 -1.7180384e-05
 -2.1928234e-05
 -8.9947389e-07
 -7.6120347e-03
 -1.6463041e-01
  5.4830783e-03
  8.6325408e-06
 -3.7221904e-05
 -1.4126924e-06
  1.2204257e-05
 -2.2955660e-06
  1.2750606e-06
  8.9705306e-01
 -1.7501770e-05
  5.2477807e-01
 -5.1796837e-06
 -2.3466820e-05
  1.1384033e-05
 -1.4288242e-05
  3.8068306e-06
  8.0019869e-05
  1.0851884e+00
  1.6358554e-06
 -1.5662294e-05
 -6.7316014e-06
 -2.0474431e-08
  1.5129235e-05
  6.7617993e-06
 -1.1489857e-05
  2.6727710e-05
  3.8977737e-06
 -3.8552648e-06
 -7.0669912e-06
 -4.4132921e-06
 -5.6674126e-05
  5.4162665e-05
  2.5720806e-06
  3.2606869e-05
 -7.6373135e-06
  1.3394995e+00
 -3.2199068e-07
  6.1115883e-05
  1.0903551e-05
 -2.9173765e-05
  5.9430586e-06
 -3.3968104e-07
  8.8039096e-06
  4.6025621e-06
  5.2945060e-01
 -2.4289211e-06
 -1.0544626e-05
  5.6247600e-06
  2.2291257e-05
  2.2917977e-06
 -4.9317146e-06
  4.2979473e-06
 -4.6548039e-06
  5.5876648e-01
  1.7268356e-05
  5.8490587e-06
  3.1661963e-05
 -1.1852170e-05
 -4.7820713e-06
  8.5123484e-06
  2.9026132e-05
  1.4248366e-06
  4.4770011e-01
 -2.0491292e-05
  2.1089738e-06
 -6.3101993e-06
 -2.1885679e-05
  1.9085790e-06
  1.5386441e-06
 -3.5831345e-05
 -7.0040346e-06
  1.7935984e-02
  5.6055569e-09
 -5.2954047e-06
 -1.7729468e-05
  5.9467284e-06
  2.6447394e-06
 -1.2171542e-05
 -9.9852223e-06
  1.5562296e-06
  7.9717052e-01
 -3.9069041e-06
 -1.6343816e-05
  4.4385506e-06
 -4.0881964e-06
 -1.8044063e-06
  2.9233297e-05
 -1.1118697e-05
  4.6313198e-06
  1.0084753e+00
  1.9591946e-05
  2.3859798e-06
  2.1202868e-05
  1.0304026e-01
  1.0304026e-01
  1.0304026e-01
  1.0304026e-01
  1.0304026e-01
  1.0304026e-01
  1.0304026e-01
  1.0304026e-01
  1.0304026e-01
  2.6375773e+00
  2.6375773e+00
  2.6375773e+00
  2.6375773e+00
  2.6375773e+00
  9.4910502e-01
  9.4910502e-01
  9.4910502e-01
  9.4910502e-01
  9.4910502e-01
  6.4425355e-01
  6.4425355e-01
  6.4425355e-01
  6.4425355e-01
  6.4425355e-01
  2.1154448e-01
  2.1154448e-01
  2.1154448e-01
  2.1154448e-01
  2.1154448e-01
  3.5455198e+00
  3.5455198e+00
  3.5455198e+00
  3.5455198e+00
  3.5455198e+00
