nep4 2 Ga As 
cutoff 6 6 46 46
n_max 8 6
basis_size 12 8
l_max 4 2 0
ANN 40 0
 -1.6970037e-02
  7.2756684e-01
  2.4198890e-02
  1.3816204e+00
 -5.3764254e-01
  3.6537385e-01
  2.7353492e-01
 -3.2567565e+00
 -3.7989882e-01
 -2.4404512e-01
 -2.2821783e-01
 -1.3416170e-01
 -5.8556992e-01
 -1.6300615e-02
 -3.3435464e-01
 -1.3265316e-01
 -6.1591339e-01
 -7.8098178e-01
 -3.7247723e-01
  3.3512744e-01
  5.5268269e-02
 -3.6035210e-01
  1.3735440e+00
 -3.8716547e-02
  5.0446212e-02
  2.9322228e-01
  6.1113417e-02
 -3.2628199e-01
 -1.3047662e-01
  2.7935195e-01
 -2.4858324e-01
  4.0285254e-01
 -6.8822700e-01
 -2.0445564e-01
  5.9934787e-02
 -6.6656373e-02
  6.0494083e-01
  1.3930747e-01
 -7.4287452e-02
 -8.9459908e-01
 -2.0136480e+00
  7.6195562e-01
  1.3337146e-01
  1.7880174e+00
  2.6182732e-01
 -1.2163143e-01
 -1.9051841e-01
  9.9847203e-01
 -1.3486387e-01
  4.8818991e-01
  1.3576218e-01
  4.4232568e-01
  9.2785138e-01
  1.5233881e+00
  4.6175325e-01
  1.0947846e+00
 -6.4171594e-01
 -1.0483294e+00
  1.6446751e-01
 -2.8811869e-01
  1.0252237e-01
 -6.6909969e-01
 -4.7107920e-01
  5.6070596e-01
 -2.4523741e-01
 -1.8392564e-01
 -1.8470347e+00
 -3.8604453e-01
  1.2009899e-01
 -9.4842815e-01
  3.3451265e-01
  3.9085293e-01
  2.3815870e-01
  8.6960167e-02
  1.3661507e-01
  1.1182746e-01
 -7.5687045e-01
  3.5149131e-02
 -2.3536363e-01
  3.7420332e-02
  4.9573518e-02
 -2.1402594e-01
  2.1208447e-01
  1.8289927e-01
 -8.5141160e-02
 -4.4337735e-01
  7.1916562e-01
 -4.0271884e-01
 -6.3065898e-01
  1.0597687e+00
  4.7325888e-01
  5.7918298e-01
  1.8881303e+00
  4.8775753e-01
 -1.1016967e-01
  1.0664814e+00
 -3.7170136e-01
 -3.2562357e-01
  8.4884202e-01
  5.3562567e-02
  2.8319761e-01
 -1.2340257e+00
  3.4888640e-01
  1.3024285e-02
 -3.1541204e-01
 -4.2087796e-01
 -2.5686414e+00
 -9.1001505e-01
  3.1739363e-01
  1.8643129e-01
  5.7824534e-01
  2.9259267e-01
 -2.0069134e-01
 -3.3963931e-01
 -4.9781156e-01
 -3.3891675e-01
  1.1077456e-01
 -1.8252973e-01
 -7.2217122e-02
  2.0487728e+00
 -2.2338039e-01
  8.2870382e-01
  2.7151603e-01
  5.2840605e-02
  1.1763334e+00
 -2.8348455e-01
 -1.2081120e-01
  1.3032660e-01
 -4.2470750e-01
  4.5208433e-01
 -7.1354695e-02
 -5.7813674e-02
  5.2637082e-01
  1.4748140e-01
 -4.5359194e-01
  1.2880920e+00
 -5.9292787e-01
 -3.6904773e-01
  3.6253434e-02
 -6.6437823e-01
  1.7863005e-01
  3.5018450e-01
 -2.0478028e-01
 -2.9758748e-01
  7.7627861e-01
  2.7128199e-01
  2.2606893e-01
 -1.5218973e-01
  2.1459743e-02
  6.3813299e-01
 -2.9907781e-01
 -7.7620342e-02
 -5.8958843e-02
  2.6944304e-01
  2.6621208e-01
  6.7541474e-03
 -1.8384337e-02
  3.9655972e-01
  5.2415794e-01
  5.8159601e-02
 -3.4741721e-01
  3.7262470e-01
 -1.6158141e-01
  4.8228264e-01
  2.8284779e-01
  7.2513556e-01
  3.1285635e-01
 -2.0135912e-01
  7.0735222e-01
 -3.5810921e-01
 -3.8854292e-01
  3.5704690e-01
 -2.0042056e-01
  5.2841145e-01
 -1.8026119e-01
 -2.2349711e-01
  1.0258764e+00
 -4.9296081e-01
  3.7074044e-01
  1.6043544e-01
 -2.0645015e+00
 -2.8922794e-02
 -7.2856851e-02
  8.7231177e-01
  1.5031972e+00
 -6.8458200e-02
  4.1624106e-02
  7.9638809e-01
  2.0251248e+00
  1.0341269e+00
  1.0101192e-01
 -1.4630723e-01
 -5.5830389e-01
  1.6140000e+00
  5.6968021e-01
  4.2409882e-02
 -6.0600985e-02
  1.1476905e+00
  4.0322623e-01
 -2.4970102e-01
  3.0525172e-01
 -9.3470228e-01
  8.3006334e-01
  5.4787117e-01
  3.6709365e-01
  1.6371917e+00
  4.4687957e-02
 -5.2299011e-01
 -6.9514275e-01
 -4.1016757e-02
 -4.2265978e-01
  3.1074125e-01
  2.8086954e-01
 -3.1041965e-02
  3.5457984e-01
 -1.3074979e-02
 -1.6305940e+00
 -3.4679464e-01
 -8.5041843e-02
  6.1532778e-01
 -7.5603664e-02
  2.9214565e-02
  9.9854209e-03
  1.4533702e-01
  5.8121043e-01
  1.7698991e-01
  1.4364392e-02
  8.9965686e-03
  2.3304464e-01
  6.1899281e-01
 -1.0110532e+00
  4.0341946e-01
 -2.9326403e-01
  7.1348846e-02
  1.4524794e-01
  1.0821457e+00
 -4.9588285e-02
 -1.0271647e+00
 -4.8937565e-01
  8.7190145e-01
  8.1711072e-01
  2.7943593e-01
 -3.8127813e-01
 -2.3777701e-01
  6.9860391e-02
 -1.1810188e+00
 -7.3541701e-02
 -1.1232247e+00
 -5.0341654e+00
  2.3598030e-01
 -8.2836497e-01
 -4.2582807e-01
 -6.5517634e-02
 -6.8411839e-01
 -5.2452230e-01
  3.9045863e-02
  4.6581548e-01
 -6.8231151e-02
  5.9666181e-01
 -3.4266204e-01
  2.5408366e-01
 -4.0278062e-03
  1.4570899e-01
  9.3922213e-02
  4.0706280e-01
 -1.4866583e+00
 -8.1486118e-01
 -1.0071220e-01
 -6.5879643e-02
  5.9214074e-02
 -5.7764534e-02
 -4.7982964e-01
 -2.1591523e+00
 -9.3907960e-02
  1.7642732e-01
 -7.9902634e-02
  5.8737934e-01
 -2.6597887e-01
  1.4215690e-01
 -8.0714762e-01
 -1.0202785e-01
  4.1950601e-01
 -3.9811659e-01
 -6.6085577e-02
 -1.0441944e-01
 -4.5403162e-01
 -1.7394754e-01
 -1.5618576e-02
 -6.0530621e-01
 -6.5390754e-01
 -3.0293342e-01
  6.0590535e-01
 -4.5989910e-01
  2.0565086e-03
  2.9291598e-02
  2.4406618e-01
 -2.0616692e-01
  1.2541212e+00
  6.1671309e-02
  1.6211005e-01
  1.0421139e-01
 -1.1074853e-01
 -1.3298869e-01
  1.2049443e-01
 -1.0903364e-01
  9.2763317e-01
  1.9503139e-02
  3.0295667e-01
  1.9649644e-01
 -1.1022735e+00
 -1.5436761e-01
  1.6511230e-01
 -5.5298418e-02
 -2.6550514e-01
  2.7483365e-01
  4.0265116e-01
  1.6091941e-01
  9.8097193e-01
  1.7159048e-01
  8.0982274e-01
 -2.1169864e-01
  1.8088612e-01
  4.5865346e-02
  4.9393728e-01
 -1.4489290e+00
  2.5880474e-01
  1.5541050e-01
 -3.3934303e-02
 -5.9597385e-01
 -7.7887803e-01
  3.9705941e-01
  4.9340284e-01
  1.2428683e-01
  7.3033047e-01
  4.2760146e-01
 -2.0432144e-01
  5.6555414e-01
  1.0916215e-01
 -1.4779243e-01
  8.8154858e-01
  6.5523696e-01
 -8.8456459e-04
 -3.9554742e-01
 -6.6975254e-01
 -1.0728243e-01
 -8.7858722e-02
 -3.3292386e-01
  5.4139233e-01
  5.6783706e-02
 -3.9730901e-01
 -1.6031912e-01
  3.9269963e-01
  1.8600190e-01
 -6.3466012e-01
 -7.6145285e-01
  8.9836621e-01
  4.5484865e-01
  5.1334184e-01
  3.1332326e-01
 -1.3101366e-01
 -6.5328218e-02
  2.7406082e-01
  8.4046590e-01
  2.3749019e-01
  8.2736814e-01
  1.7490438e+00
 -2.0477641e+00
 -1.4029184e-01
 -9.7106332e-01
  1.4917413e+00
  1.6154492e-01
  1.0346541e-01
 -3.7174469e-01
  9.7652185e-01
 -2.4659528e-01
  4.7419691e-01
  8.9021862e-02
 -1.2898779e+00
 -2.2774613e+00
 -1.1261938e+00
  6.3239977e-02
 -4.5667405e+00
 -7.5478041e-01
 -4.9315855e-01
  7.1467119e-01
 -6.4640455e-02
 -8.6083746e-01
 -6.0482955e-01
 -1.6068840e+00
  2.5652972e-01
  5.9728760e-01
 -8.5068393e-01
  5.8479464e-01
 -5.9335325e-02
 -3.9146513e-01
  9.3407147e-03
  3.2499152e-01
 -2.5735489e-01
 -2.4745516e-02
  3.6281207e-01
 -2.6708556e-02
 -6.1471945e-01
 -1.6816366e-01
 -6.3379669e-01
 -9.1444641e-02
  1.0583501e-01
  3.3850938e-01
 -1.1663757e-01
 -1.1531788e-01
  5.9404507e-02
  5.3091520e-01
 -3.8550964e-01
  5.4880559e-01
 -2.3836216e-01
 -1.0547496e-01
 -6.7544445e-02
 -1.0011872e+00
  5.5963713e-01
  5.2255386e-01
  1.1407205e+00
 -1.0344244e+00
 -1.0825716e-02
 -7.1687031e-01
  2.9315245e-01
  2.2471428e-01
  3.8751754e-01
  1.1310323e-02
  2.3281987e-01
  1.4598042e-01
  4.4480273e-01
  9.0564752e-01
  2.8879929e+00
 -1.3440648e-02
 -6.4150736e-02
  6.4741123e-01
  3.9040866e-01
  4.0663581e+00
  7.3539460e-01
  4.0993643e-01
 -3.2273985e-02
 -4.4729769e-01
 -6.0200584e-01
  5.6258827e-01
  3.0930176e-01
 -8.1062078e-02
  4.1273403e-01
 -4.5184249e-01
 -1.9860154e-01
  1.0311228e+00
 -1.1314869e-01
  2.5763828e-01
 -1.6062053e-01
  2.2588889e-01
  8.9740366e-01
 -1.4542246e-01
 -2.4879450e-01
 -5.4321343e-01
 -5.5382490e-02
 -1.1041591e-01
 -6.9404805e-01
 -6.8787336e-01
  9.7115582e-01
  8.7190330e-01
  9.9722274e-02
  5.3080797e-02
 -2.7986282e-01
  2.0815620e-01
 -2.6399828e-03
  5.1880109e-01
  5.0925446e-01
 -1.0841076e-01
 -5.0910924e-02
  2.5058851e-01
  2.2017027e-01
  6.2903814e-02
 -4.6933582e-01
 -4.1726995e-02
  6.9762178e-02
 -1.5087439e-01
 -2.0481572e+00
 -5.3222394e-01
 -1.5917377e-01
 -3.5067785e-01
  2.0751977e-01
 -1.2826510e-01
 -1.1135628e-01
 -1.4332490e-01
  1.7943895e-01
  4.1837475e-01
  1.6811059e-01
  3.4151500e-01
  9.4996154e-01
 -3.4568051e-01
 -4.8744449e-01
 -1.5129490e-01
  1.4003463e-02
  7.2532582e-01
 -3.9890222e-02
 -9.9721909e-02
  1.9261247e-01
  4.2433360e-01
 -4.1244292e-01
 -4.0334523e-02
  3.6985904e-01
 -1.2654271e-02
  5.6044674e-01
 -3.6490601e-02
 -8.5203439e-01
  2.0557539e-01
 -1.2201656e+00
 -1.6318730e-01
 -4.2912447e-01
  9.2775196e-01
  3.9060488e-01
  9.2969006e-01
 -3.6022770e-01
 -5.4735047e-01
 -2.4746296e-01
 -8.8139898e-01
 -7.0145839e-01
 -3.8442844e-01
  3.5370561e-01
 -1.6615123e+00
  5.1321656e-01
  2.8070801e-01
  3.6564988e-01
  8.5156821e-02
  6.0404825e-01
 -5.4799509e-01
  1.3139191e-01
 -1.1321896e+00
 -1.0129202e-01
 -1.4090575e+00
 -1.1087480e+00
 -5.4881746e-01
 -2.8243288e-04
  4.4339502e-01
 -6.9239698e-02
  5.4147691e-02
  9.5874310e-02
  1.5683711e-01
 -3.0103482e-02
  7.6019698e-01
  3.0037841e-01
  2.0615514e-01
  2.0110857e-01
 -5.1290467e-02
  2.3522827e-01
 -2.2770309e-01
  5.2017927e+00
 -5.2678931e-01
 -2.5764903e-01
 -1.3130853e-01
  1.2267273e-01
  5.2502376e-01
  1.3302222e-02
 -8.6623207e-02
 -5.5954242e-01
 -8.6506620e-02
 -1.8454529e-01
  5.1107056e-02
 -8.7284602e-02
  7.0814455e-01
 -2.1122937e-01
 -2.9495001e-02
 -3.0568786e+00
  1.5293515e-01
 -2.5523347e-01
  4.4333112e-01
 -1.9727850e+00
 -3.4445423e-01
 -1.0438678e-01
 -4.1486138e-01
 -8.9188349e-01
 -7.7875160e-02
  5.8390003e-02
 -6.3554615e-01
 -2.4884181e-01
 -1.9736859e-01
  3.8018399e-01
  5.3908074e-01
  1.1854374e+00
  3.6556187e-01
  3.3476070e-01
 -9.4222766e-01
 -1.2520072e+00
  1.6784948e-01
 -2.7540821e-01
 -1.5596667e-01
 -5.4208302e-01
  1.6832195e-01
  2.9345434e-02
 -4.3341685e-02
 -5.8577996e-01
  4.6063545e-01
 -8.0773658e-01
  8.3491123e-01
 -5.8098710e-01
  6.3824815e-01
 -9.8406225e-03
  1.1250653e-01
 -1.6511103e+00
 -1.7569503e-01
  1.7145002e-01
 -4.9402997e-01
  3.5455015e-01
  5.0737697e-01
  1.8648429e+00
 -1.4763352e-01
 -1.1780838e+00
  2.7596548e-02
  2.8759170e-01
  7.5520568e-02
 -1.1793555e+00
 -1.3503909e-01
 -2.7819920e-01
  1.9820262e-01
  2.4303865e+00
  9.0624082e-01
 -9.8460680e-01
  3.0285129e-03
  3.7853658e-02
  2.2973802e+00
  4.4363577e-02
 -1.1429999e+00
  7.9102892e-01
  1.2565705e-01
 -1.3198055e-01
 -1.9575559e-01
 -4.3683761e-01
  3.6713213e-02
 -9.5062160e-01
 -5.2639437e-01
  1.1818045e-01
  2.7517214e-01
  7.5885922e-02
  7.5245582e-02
 -4.1286594e-01
 -4.8375577e-01
 -3.6885914e-01
  1.5845270e-01
  3.9660984e-01
 -6.2130535e-01
  8.6499751e-04
 -4.2170930e+00
 -1.0710890e+00
 -1.4342455e+00
  1.3446668e-02
 -1.3435218e-01
  9.1256881e-01
  7.4032269e-02
  1.4915764e-01
 -8.3566189e-01
  8.1016767e-01
 -1.0565081e+00
 -9.0945703e-01
  4.0442380e-01
  6.0059541e-01
 -9.5295978e-01
 -2.0420176e-01
  8.4323764e-02
 -2.5085711e-01
 -1.0990798e-01
  6.1507165e-01
  9.5066577e-03
 -1.2124826e+00
  4.0151873e-01
 -2.3875815e-01
  7.5463641e-01
  1.7823142e-01
  1.2229986e-01
  8.3147687e-01
 -1.0993385e-01
 -5.0760992e-03
  5.1715189e-01
  3.3953863e-01
  9.3680486e-02
 -3.9031023e-01
 -8.3476186e-01
 -1.5441449e-01
 -6.4054090e-01
  2.0632615e+00
  1.8741098e-01
 -7.1302819e-01
  4.9349225e-01
 -5.9569865e-02
  2.8282976e-01
 -3.1228584e-01
 -1.0598134e-02
  2.6767641e-01
  2.1274202e+00
 -1.1913406e-01
 -3.5971323e-01
 -1.1628423e-01
  7.5475621e-01
 -8.4924527e-02
  2.3027234e-01
  7.3282301e-01
 -3.9575398e-03
 -4.4757435e-01
  1.0214595e+00
 -9.2678708e-01
  1.7189763e-01
  5.0527257e-01
 -3.7489519e-01
  4.5446312e-01
 -1.4776684e+00
  1.5903097e-01
 -6.1658114e-01
 -9.3397486e-01
 -1.1257414e+00
  6.3398463e-01
  4.6962211e-01
 -2.6225844e-01
 -2.0501027e-02
 -1.0863291e+00
  9.0637051e-02
  6.9085217e-01
  6.3780688e-02
 -5.3067811e-02
 -7.1980342e-02
  8.2775056e-02
  4.5154473e-01
  5.8949989e-01
 -1.0576591e+00
  3.1336752e-01
 -6.0972875e-01
  1.0529850e+00
  3.3288747e-01
 -1.6602710e+00
 -2.8738868e+00
 -2.8548446e-01
  4.6713051e-01
 -2.9527276e+00
 -4.5819423e-01
  8.2548089e-02
  3.7560727e-02
  1.9635929e+00
 -1.2115607e-01
  1.2392306e-01
 -7.6701671e-01
  1.2044755e+00
 -7.5469178e-01
 -3.4379900e-01
  4.1242817e-01
 -9.6991813e-01
  5.1418532e-02
  1.0837008e+00
 -3.6070921e+00
 -3.0245915e-01
 -2.7159023e-01
 -6.6758543e-01
  6.6100961e-01
 -1.0067967e+00
 -8.2504225e-01
 -1.2157930e+00
 -2.0833391e-01
  1.1239181e+00
  2.1181129e-01
 -1.8605514e+00
 -2.2047862e-01
 -5.8141726e-01
  3.6806833e-02
 -1.3126424e-01
  5.3292423e-01
 -4.0793192e-02
  7.1970016e-01
 -2.4742985e-01
  4.6239707e-01
  1.2660640e-01
  4.7661647e-02
 -1.5146534e+00
 -5.0854582e-01
  2.8416437e-01
  6.1090821e-01
 -5.3602904e-01
 -3.9814001e-01
 -3.2998258e-01
  2.5627103e-01
 -1.2649441e-01
  9.5445365e-01
  5.1443368e-01
  2.1627757e-01
  1.8743387e-01
 -1.2088016e-01
 -2.1768957e-03
 -7.6950359e-01
 -1.4875369e-01
 -1.0328420e-01
 -1.3276215e-01
 -2.7201974e-01
  1.0630888e+00
  4.6618173e-01
  1.0793248e+00
  4.7659206e-01
  1.7945179e-01
  2.8099757e-01
 -5.1806921e-01
 -2.7414092e-01
 -1.2216930e-01
  2.5660968e-01
  9.3486887e-01
  1.0155986e-01
  3.7319624e-01
 -4.0134010e-01
  4.4108835e-01
  4.4662453e-02
 -2.4336940e-01
  2.9750225e-01
 -4.1157693e-01
  1.0518423e-01
 -7.6775903e-01
 -1.8199071e-02
  1.9844122e-02
  1.8693995e+00
 -1.7475422e-01
 -6.9867760e-01
  7.6843005e-01
  9.3576446e-02
 -7.8034312e-02
  4.8359805e-01
 -4.1899588e-02
  6.6245890e-01
  1.0648394e+00
 -2.7182603e-01
 -2.6506476e-02
 -1.0815073e+00
 -1.1930313e-01
  7.1694559e-01
 -1.3900367e+00
 -7.7159905e-01
 -5.7729429e-01
 -1.8369552e-01
 -5.2672178e-02
  1.0436309e-01
  6.0198790e-01
  2.4999300e-01
  1.9633151e+00
  5.2921706e-01
  4.9003336e-01
  3.7121770e-01
  5.7924628e-02
  7.0785332e-01
 -7.8206450e-01
  1.1807635e-01
 -7.5251669e-01
  1.8596762e+00
 -9.9515527e-02
 -3.7326121e-01
  2.8129521e-01
 -1.8881977e-01
  6.9987625e-03
  5.2153671e-01
  4.5989018e-02
 -1.7521252e-01
 -1.8611874e-01
 -1.0996056e-01
  3.5187826e-02
  2.0810401e-01
 -1.7247758e+00
 -5.2341497e-01
  7.7114028e-01
 -8.5196368e-02
 -7.1412045e-01
 -2.8529137e-01
 -2.5248012e-01
 -5.3187561e-01
  5.3628618e-01
 -1.7972916e-01
 -2.3745446e-02
  2.9272172e-01
 -2.3008987e-01
 -8.6534148e-01
 -2.1570194e-01
 -3.5293512e-02
 -3.0096129e-01
  5.3536040e-01
  2.0379603e+00
  4.3999225e-01
 -2.0708257e-01
 -4.3310918e-02
  4.9996188e-01
 -1.1038842e+00
  5.2722061e-01
 -6.9819069e-01
 -1.1800335e-01
 -1.2447874e-01
 -1.4066521e+00
 -1.7104676e-01
  1.5584879e+00
  3.9992931e-01
  1.0716289e-01
 -2.4435941e-02
  8.0761951e-01
  7.1372241e-01
  5.1549498e-02
 -3.3857426e-01
  7.2015345e-01
 -3.9668790e-01
 -1.0212291e-01
 -4.4279853e-01
  3.5838661e-01
  4.9792305e-01
 -2.8642556e-01
 -3.9931548e-01
 -4.5915481e-02
 -7.8803897e-03
 -1.4003005e-02
 -9.8493397e-02
  8.2118705e-02
 -1.0070527e-01
  9.8632529e-02
  2.0840156e-01
  9.7335452e-01
  8.9390653e-01
 -2.4602236e-01
 -6.4604305e-02
 -4.0066290e-01
 -2.5939527e-01
  8.4351532e-02
 -8.4245622e-02
 -9.2450386e-01
  3.1084895e-01
  3.0299004e-02
 -1.2931754e-01
  3.6149868e-01
  1.0242121e+00
 -2.2961962e+00
  1.6391481e+00
  1.4741027e-01
 -3.4934518e-01
  1.2321842e+00
 -9.0463363e-02
  7.5173712e-01
 -7.7148139e-01
 -1.2748244e+00
 -1.0229056e+00
  1.9736986e-01
 -7.7109039e-03
  8.3698964e-01
  2.5291070e-03
  1.8410394e-02
 -2.5030559e-01
 -4.7753924e-01
  1.3040277e-01
  8.7559533e-01
  5.9115028e-01
 -5.4146696e-02
 -4.5188043e-01
 -4.5943218e-01
  2.7768009e+00
  1.4961829e+00
  4.0793291e-01
  1.7847492e+00
  3.4381151e-01
 -3.2400161e-01
 -3.0927068e-02
 -1.9028576e-01
 -1.1432829e-01
  7.9946883e-02
  3.4122050e-01
 -4.1349399e-01
  6.5855667e-02
  5.9616923e-01
 -3.5744470e-01
  1.7007325e-02
 -2.3361325e-01
 -4.3469745e-01
  4.9036935e-02
 -1.7769637e+00
  2.8293931e-01
  9.9858642e-01
 -1.2923476e+00
 -6.5442848e-01
 -1.4790286e-01
  1.5701598e+00
  4.2810830e-01
  4.9314874e-01
 -2.3203591e-01
 -4.7683281e-01
  8.7104745e-02
  1.0838619e+00
 -3.0451986e-01
  1.2405816e+00
  8.2273975e-02
 -1.6912134e+00
  3.3394662e-01
  4.7885063e-01
  6.5843612e-01
 -6.0706172e-02
 -2.7299082e-01
 -6.8389691e-02
 -2.3970220e-02
  2.1547511e-02
  5.0774020e-01
 -2.6903035e-02
  9.9277422e-02
  1.3958836e+00
 -1.3177987e+00
 -2.4480048e-01
 -9.0655321e-01
 -1.6169142e+00
  3.2669917e-01
 -5.4783911e-01
  5.3644642e-02
 -9.3364850e-02
 -2.8044096e-01
  2.2291231e-01
  1.0550399e-01
 -1.1467935e+00
  5.5531192e-01
 -1.5859094e-01
 -3.3814633e-01
  6.0733251e-02
 -7.1877100e-02
  7.4541345e-03
 -1.3366328e-01
 -5.5283314e-01
 -5.5102485e-01
 -5.1173466e-01
  4.7941029e-01
 -1.9965287e-02
  1.8717279e-01
 -5.2017754e-01
  6.0685765e-02
  7.5900704e-01
 -4.8527586e-01
 -4.8714402e-01
 -7.2169304e-02
 -1.1819790e-01
 -4.4759178e-01
 -8.8893786e-02
 -5.1690829e-01
 -4.9966535e-01
 -6.4446710e-02
 -5.8772498e-01
  6.9753110e-02
 -9.7094983e-01
  7.2460753e-01
  4.8558828e-01
 -3.6840832e-01
  8.0254602e-01
 -1.9975111e-01
 -1.5164988e-01
 -1.8274729e-01
 -4.0771669e-01
  8.4081907e-03
 -4.3700546e-01
  8.3744079e-01
 -7.5830318e-02
  4.4912681e-02
 -2.0806354e-01
 -1.7850016e+00
 -4.3834937e-01
 -1.3415378e+00
 -2.0635562e-01
 -1.4978082e+00
  2.9525805e-01
  3.7366655e-01
 -2.2479267e-01
  4.8636589e-02
  4.2021745e-01
 -4.3450621e-01
  5.4879016e-01
 -1.2440372e+00
 -7.1858592e-02
  1.6269990e+00
  1.2143777e-01
  2.6878911e-01
  1.1345118e-01
 -1.2491264e+00
 -1.2398792e-02
  5.1356608e-01
 -5.0566995e-01
  4.4427635e-03
 -8.3628118e-01
 -5.0671637e-01
  7.6315612e-02
  2.3138872e-01
  3.7447461e-01
  5.5803746e-01
  2.7172413e-02
  4.6707511e-02
  1.6483877e-02
  1.3661225e-01
  2.5355086e-01
  2.5037117e-02
  6.5576345e-02
 -4.3705508e-01
 -4.8069614e-01
 -3.2245946e-01
 -3.4350330e-01
  1.0059505e+00
 -1.2979478e-01
 -9.6025523e-03
 -2.0215783e-01
  4.6705160e-01
 -1.1335222e+00
 -3.8441285e-01
 -1.5547448e-01
  3.9384261e-01
  4.7988173e-01
  5.5022311e-01
 -5.4496348e-01
 -1.9875419e-01
 -1.2798961e+00
  1.0187388e-04
  3.1658503e-01
  1.4054106e-01
  2.4650010e-01
  2.0054062e-01
  1.4404347e+00
  3.8871955e-02
  3.7611090e-04
  1.3808225e-01
 -4.3066606e-01
 -8.3642676e-02
  2.7385864e-01
 -5.8627516e-02
  5.9188534e-02
  9.5228627e-02
 -1.2541734e-02
 -2.4450809e-02
  3.0874360e-02
  4.0059403e-02
  7.1949285e-01
 -1.0759441e+00
 -2.8857319e-02
 -7.6508045e-02
 -2.7549235e-02
  2.5285426e-01
 -3.1496921e-01
 -2.7644050e-01
 -2.7630502e-01
  1.5118229e-01
 -7.0633131e-01
  2.4809356e-01
  8.0241792e-02
  1.0431233e-01
  2.8984895e-01
 -1.5585397e-01
 -2.4763778e-01
 -3.8513702e-01
  1.5318158e-01
  3.0221230e-01
  4.4193834e-01
 -2.7079231e-01
  5.6565750e-01
  4.2599773e-01
 -8.7457544e-01
  1.5635861e-01
 -7.0759356e-01
 -5.2486867e-01
 -5.9236932e-01
  1.0080377e+00
 -1.1022940e+00
  3.6349690e-01
 -9.6941322e-01
  4.5395903e-02
 -3.3136147e-01
  6.9347247e-02
 -9.6883833e-02
  3.1865534e-01
  3.7826002e-01
  2.5649497e-01
 -1.7087014e-02
  2.6043069e-02
 -2.2401096e-01
  1.1447722e-01
 -1.6207104e+00
 -6.0898013e-02
  7.9365629e-01
 -1.5575397e-01
 -2.4703392e-01
 -5.0148919e-02
 -4.8459443e-01
  6.4294875e-01
  1.3204275e-01
 -1.3091373e-01
  6.0697818e-01
  2.4018933e-01
  4.4398296e-01
 -5.7264280e-01
 -1.2877864e-01
  2.1490163e-01
 -1.9072384e-01
  2.2137837e-01
 -2.2243924e+00
 -1.0150373e-01
  4.5001242e-01
  2.8342691e-01
 -2.5652862e-01
  3.8099378e-01
 -1.2549852e+00
 -1.2409894e-01
  1.1138545e-01
  1.8116048e-01
  4.5826623e-01
 -6.3854225e-02
  4.1949380e-02
 -5.6363618e-01
  1.5242043e+00
 -7.0770186e-01
  5.0245672e-01
 -3.1515855e-01
 -1.1369747e+00
 -2.3904181e-01
 -4.3124415e-02
  1.7240584e-02
  1.0125980e-01
  1.5924954e-01
 -3.9272821e-01
  2.3632638e-01
  9.6898772e-02
 -9.0991810e-02
  1.4134713e-01
 -3.8796651e-01
  6.4880115e-01
 -6.4248490e-01
 -5.6829739e-01
  2.2687396e-01
 -2.6447085e-01
 -1.7263873e-01
  4.0396876e+00
  1.0213774e-02
  6.6841856e-02
  3.5211095e-01
 -6.7436099e-01
  2.7539206e-01
  3.1547102e-01
 -5.4640585e-01
 -2.4220487e-01
  7.3840868e-01
  2.0931976e-01
  9.1120988e-01
  1.8057846e-01
 -5.1867461e-01
 -5.2290255e-01
 -1.7250139e-02
  1.0910619e+00
  5.5148524e-01
 -1.8311766e-01
  4.5380443e-01
 -3.1261008e-02
 -9.1707152e-01
 -3.9662871e-01
 -1.1861742e+00
  3.1560442e-01
 -1.0063272e+00
 -2.1133207e-02
  3.4353128e-01
 -9.4164622e-01
 -5.1334125e-01
  1.1209409e+00
  2.7955297e-01
  3.8807971e+00
 -3.0942482e-01
 -5.4866272e-01
 -3.1242666e+00
  2.9892738e+00
 -2.7430210e-02
 -1.8277230e+00
  4.0819055e-01
  2.5878668e-01
  4.4454151e-01
 -2.8503792e+00
  1.9612756e-01
  7.0622158e-01
 -1.5777217e+00
 -6.9879428e-02
  3.7924519e-01
  1.4661469e-01
  1.3837208e+00
 -1.8776390e-01
  3.2884842e-01
 -7.5198263e-01
 -7.9965037e-01
 -3.0528525e-01
  5.7625693e-01
  2.8943065e-01
  3.7699980e-01
  5.3869247e-01
 -2.0877919e-01
  4.4711210e-02
  3.1812596e-01
 -7.4391949e-01
 -2.9482976e-02
  1.2346629e-01
  4.0468171e-01
  4.1018642e-02
 -7.6872909e-01
  1.8400896e-01
  1.3663342e+00
 -3.9938933e-01
 -1.5783387e-01
 -8.9727774e-02
 -3.2159239e-02
  6.4884281e-01
 -2.0996249e+00
 -4.0143868e-01
  1.1550624e-01
  9.2311427e-02
  5.8719736e-01
  6.4526433e-01
  5.3629315e-01
 -7.9449609e-02
  3.5202733e-01
  2.3261830e-01
  2.2735535e-01
 -2.5678286e-01
  4.8592344e-01
 -1.2252797e-01
 -4.3722250e-02
 -8.9103222e-02
  5.6283459e-02
 -8.4343404e-02
  1.7578367e-02
 -8.0107015e-01
  7.6288706e-01
 -5.7194214e-03
  2.1156815e-01
 -6.0039729e-01
 -6.0265630e-01
  2.7419439e-02
  1.3290544e-01
 -5.5293679e-01
 -5.9608597e-01
  2.0163430e-01
  1.2511578e-01
 -1.3363439e+00
  4.0383902e-01
  2.3537121e+00
 -1.9739863e-01
 -2.7741032e+00
  4.3514770e-02
  2.6889339e-01
 -1.0379570e+00
  2.3538935e-01
 -5.2557439e-01
  5.2576220e-01
 -7.9616886e-01
 -5.9597522e-01
  2.3274821e-01
  9.6861589e-01
  7.6987267e-01
  8.1891708e-02
 -1.1761256e-01
  4.6116242e-01
 -7.1526968e-01
  1.5910482e-01
 -1.2658878e-01
 -4.6498385e-01
 -2.6722667e-01
  4.4081742e-01
 -1.0123560e+00
 -1.5545279e-02
 -3.6993980e-02
  2.2691371e-01
 -1.7041764e-01
  1.4485037e+00
 -1.3267553e+00
  5.3170472e-02
  1.9286662e-01
 -4.3129778e-01
 -2.6943846e+00
  1.8196975e+00
 -3.7460682e-01
 -1.9259635e+00
  9.7631168e-01
  1.6133859e+00
 -4.1115999e+00
 -2.0790756e+00
  1.6727713e+00
  1.1404879e+00
  6.5155911e-01
  2.3905945e-01
 -7.2540402e-01
  2.0346023e-01
  6.6937137e-01
 -1.2782951e-01
 -8.4751807e-02
  3.5000074e-01
  4.1138476e-01
  7.2280383e-01
  5.2018392e-01
  3.2065246e-01
  6.2695831e-01
  2.6451680e-01
 -1.6652144e-01
  3.6353725e-01
  2.2309929e-02
  2.8190237e-01
 -2.9028164e-02
 -7.2213434e-02
  3.4501624e-01
 -1.9676846e-01
  7.7213734e-02
  7.7092156e-02
 -2.1225071e-01
  1.5508186e+00
 -2.8939760e-01
  4.7577675e-02
  4.5628852e-01
  3.4991316e-03
  2.0120981e-01
  3.2804707e-01
 -6.4082062e-01
 -2.4389872e-01
 -2.4836400e-01
  7.3482460e-01
 -5.7053000e-01
 -3.3113220e-01
 -3.7564540e-01
 -9.7941154e-01
 -4.8003048e-01
 -3.6380839e-01
  2.8919178e-01
 -1.2199164e-01
 -7.1325481e-01
  3.6489466e-01
  3.4740558e-01
 -3.0275449e-01
  5.7995009e-01
  2.6264346e-01
 -5.7811648e-02
  4.3828323e-01
  4.6577230e-02
 -5.4624194e-01
  3.0517003e-01
  5.2348483e-01
 -5.0182283e-01
  5.2776301e-01
  2.7143550e-01
 -3.6345297e-01
 -5.2393526e-01
 -1.4922154e-01
 -1.8211031e-01
  4.0026656e-01
 -2.6189411e-01
  3.6837727e-02
 -7.3062247e-01
 -2.3221753e+00
 -9.0678626e-01
  8.8145155e-01
 -9.0491116e-02
  3.9250356e-01
  8.9979446e-01
 -1.4936892e-02
 -1.0089717e-01
 -5.9398633e-01
  8.2503259e-02
 -3.5662398e-01
 -5.8029786e-02
  7.6532209e-01
 -4.6954152e-01
  2.8004590e-01
  5.7646000e-01
 -5.6497395e-02
  1.5013719e+00
 -6.2881708e-01
 -8.1196535e-01
 -2.3149915e-01
 -7.3327214e-01
 -2.0252866e-01
 -8.6130463e-02
  3.6620233e-02
  1.7058830e+00
  1.5510687e-01
  3.7266836e-03
  4.1912687e-01
 -1.5574524e-01
  3.2951632e-01
  6.2497479e-01
  1.4619279e-01
 -3.8761988e-01
 -1.3080058e-01
 -2.2289896e-01
 -8.0163854e-01
  1.1854243e-02
 -8.0353069e-01
 -8.8878006e-02
  2.1677795e-01
 -5.6272514e-02
  2.3233700e-01
  1.8015605e-01
  6.1043346e-01
  6.3714308e-01
  4.8556247e-01
 -4.5740771e-01
  1.7649266e-01
  2.5423456e-02
 -4.9960202e-01
 -7.9320610e-01
  1.5511015e-01
 -1.1549197e-01
  1.2662704e-01
  9.0967065e-01
 -9.1811877e-01
 -3.2313949e-01
  2.8908396e-02
  1.6224264e-01
 -8.3073026e-01
 -3.5238567e-01
 -9.9645180e-01
  2.3076230e-01
 -3.2975885e-01
 -1.3588844e-01
  7.2728503e-01
 -1.5776294e-01
 -9.2215627e-01
 -1.2130361e-02
 -9.4305582e-02
 -7.4871832e-01
 -4.2850692e-02
  6.2144405e-01
 -5.7411581e-01
 -8.8579535e-02
 -5.1330703e-01
 -1.4050139e-01
 -1.3403504e-01
  9.1962904e-02
 -2.7867132e-01
  1.6163410e-01
 -1.2627131e+00
 -3.3951336e-01
  8.0368531e-01
 -7.4369019e-01
 -4.1513959e-01
  6.5359980e-02
  2.1718068e-01
 -3.6589715e-01
  7.3482031e-01
  2.4252382e-01
  2.5312826e-01
  1.1866196e-01
  1.6317998e-01
 -6.4313233e-01
 -1.7044865e-01
  1.0196207e-01
  6.0070461e-01
 -8.1633329e-01
  5.2241242e-01
  2.7893510e-01
  4.8667488e-01
 -1.6209671e+00
  3.4921013e-02
  1.8019441e+00
 -2.7744150e+00
  8.0604464e-01
  1.1753468e-01
 -1.3101521e+00
  3.0836448e-01
  4.6327454e-01
  1.1417402e+00
  2.7953088e-01
  2.4402041e-02
 -6.8366528e-01
  4.3092605e-01
 -2.7321421e-02
 -2.2115964e-01
 -4.7352481e-01
  9.1943108e-03
 -1.8968901e-01
  3.4150457e+00
  3.9936274e-01
 -1.7491578e+00
 -2.1616862e+00
 -1.2017480e-01
 -1.0422820e-01
 -4.4916167e+00
  1.6872280e+00
  3.0405455e+00
 -5.8910388e-01
 -1.3089272e+00
 -1.1164469e+00
 -1.2221557e-01
 -1.0667551e+00
  1.0856955e-01
 -4.5432389e-01
  1.4166205e-01
  5.6300533e-01
 -9.8216766e-03
 -2.2735861e-01
  1.6883342e-01
  3.2648955e-02
 -7.8637414e-02
  2.7556226e+00
 -5.0730026e-01
  5.6081805e-02
  2.5986239e-01
  2.9916126e-01
  9.3843505e-02
 -6.4549230e-02
  8.6506635e-02
 -4.4685805e-01
  1.5696779e-01
 -1.3305630e-02
 -6.1586952e-01
  2.8061786e-01
 -4.7375578e-01
 -4.8874408e-01
  9.0808913e-02
 -3.8393921e-01
  4.5079869e-01
  6.2624246e-01
  1.0819296e+00
 -1.2317756e-01
  4.8177645e-01
 -4.7822157e-01
  1.8389493e-01
  6.1398232e-01
 -3.0241221e-01
 -1.7542486e-01
 -6.4217597e-02
  7.8748509e-02
 -7.8608841e-02
  7.3413658e-01
 -2.1074076e-01
 -2.0538208e-01
 -3.3106002e-01
 -2.9357800e-01
  7.9646548e-03
 -1.7777195e-02
  1.1431777e-01
 -2.7361710e-02
  1.1535300e+00
 -2.4068799e-02
  4.2334461e-01
  3.2433924e-01
 -2.7821818e-01
 -8.4934849e-01
  6.7461520e-02
  8.6762750e-01
 -7.5139081e-01
 -1.0466229e-01
 -6.2751994e-02
 -2.3441260e-01
 -2.2666048e-01
 -2.2575554e-01
 -3.1426299e-01
  1.3127881e-01
 -4.5233157e-01
  9.6909374e-02
  1.0546303e+00
  1.1491349e-01
 -3.9410189e-01
 -2.5893292e-01
  5.0379419e-01
 -1.6888762e-01
 -1.0441617e+00
 -4.9485320e-01
 -3.4383029e-01
  4.7423963e-02
 -2.7863789e-01
 -6.6582000e-01
  4.8963761e-01
 -5.9163022e-01
  1.5065302e-01
 -1.0709769e+00
 -5.4269469e-01
  1.2994948e-01
  9.5251575e-02
 -4.0542525e-01
  4.7524911e-01
 -2.2814521e-01
 -2.1120507e-01
  6.8879849e-01
 -1.7568406e-02
  2.0534210e+00
 -4.6958737e-02
  1.1405296e-01
 -1.1923524e-01
  5.8120573e-01
  5.3426516e-01
 -5.3433359e-01
  6.7182600e-01
  1.9380663e-01
 -1.5005684e-01
 -6.7426652e-01
  9.1995716e-02
  2.8194590e-02
  2.8366476e-01
 -4.1654313e-01
 -7.0312887e-02
 -9.8440133e-02
 -3.7968123e-01
 -2.0137277e-01
  1.8178275e-01
 -2.7500856e-01
 -8.0492921e-02
  2.8206661e-02
 -6.4137316e-01
  1.4261487e+00
  1.1333487e-01
 -4.3117979e-01
 -6.5427586e-02
 -3.7538937e-01
  8.2888484e-02
 -4.0607938e-01
  1.3879712e-01
 -9.3976095e-02
 -9.3995973e-02
  2.0569474e-01
  2.2488539e-01
 -1.0748848e-01
  2.0575151e-01
  1.3868833e-01
  3.2790083e-01
  4.5274639e-01
 -5.6745303e-01
  1.0025625e+00
 -1.2647340e-01
 -1.6325100e-01
 -1.6740842e-01
 -3.4558281e-01
  3.0517158e-01
 -4.1412696e-02
  1.3109811e-01
  1.2468131e+00
  2.7719146e-01
 -3.8604161e-01
 -8.0116856e-01
  1.7566937e-01
  6.9103956e-02
  4.9768871e-01
 -5.9172791e-01
  2.6197633e-01
 -1.2658146e-01
 -4.6116132e-01
  4.9192455e-02
 -1.4306538e+00
 -3.7053269e-01
 -8.0987573e-01
  7.7687156e-01
  2.6536638e-01
 -7.2906703e-01
  1.9371481e-01
  1.7420527e-01
  6.2036682e-03
  1.0423338e-01
 -3.9108152e+00
  1.6880690e+00
 -4.0638356e+00
  2.8926146e+00
 -1.8186971e+00
 -9.6995634e-01
 -1.0518965e+00
  1.5123674e+00
 -3.2455200e-01
 -7.7678126e-01
  2.0969756e-01
  2.5058177e+00
 -1.2017583e+00
  2.5715420e-01
  2.1728153e+00
 -4.0349570e-01
 -1.5001999e-01
 -2.4193780e-01
 -1.0190513e+00
 -1.1084282e-01
 -1.0082515e+00
 -2.7955723e+00
 -1.0451795e+00
 -5.0454301e-01
 -6.9621211e-01
 -1.0554299e+00
  6.8152231e-01
  9.4280191e-02
 -1.5490296e-01
 -6.2681645e-01
  5.3690201e-01
  7.0766973e-01
 -1.5225865e+00
  5.2641696e-01
  1.8675908e+00
 -2.5990686e-01
  3.4620896e-01
  4.8392135e-01
 -3.0853912e-01
  1.3171868e+00
  1.5868400e-01
 -1.1183267e+00
  2.4568474e+00
 -2.8293693e-01
  6.6479719e-01
  7.0594855e-02
  3.5430267e-01
  2.6422507e-01
 -1.2929242e+00
  2.2586489e-01
 -1.2858813e-01
 -2.5013692e+00
 -3.7411079e-01
 -6.2180835e-01
  1.5232369e-01
  1.4956360e-01
  4.2702532e-01
 -7.6612517e-02
  1.3416207e-01
  1.2275100e+00
 -1.1600870e+00
  9.4707005e-02
  1.1011429e-02
  1.0292315e-01
  2.1686402e-01
  5.5433996e-02
 -5.6692962e-02
 -2.5891842e-02
  5.0218439e-01
 -8.1875257e-02
  1.5501742e-02
  1.1158444e-02
  1.8192172e-01
 -2.4972171e-01
 -2.4946816e+00
  9.6128076e-01
 -9.7824484e-01
 -1.9167099e-02
  4.9130803e-01
 -2.6543614e-01
  5.2167900e-02
  4.0806377e-01
  4.7067222e-01
  1.3847221e-01
  2.8039912e-02
 -5.6815809e-01
 -3.8267943e-01
  1.9202607e-02
 -2.5313097e-01
  5.8049685e-03
  6.1512113e-01
  5.1321685e-02
  8.0692083e-01
  1.5379253e-02
 -6.7438766e-02
 -1.6945462e-01
 -1.4716069e-01
  1.1350315e-02
  2.4901895e-01
 -4.5507029e-01
 -2.0701411e-01
 -5.6106663e-01
 -3.1286302e-01
 -2.9351494e-01
 -1.0307230e+00
 -5.0264138e-01
  5.3870803e-01
 -1.4471046e-02
  7.0983076e-01
 -4.9186862e-01
  1.2390758e+00
  6.5773189e-01
  5.0364655e-01
 -2.8030285e-01
 -2.5306913e-01
 -4.9385390e-01
  1.9231457e-01
 -3.0247140e-01
  3.0874383e-02
  4.8652062e-01
  2.6080375e+00
 -1.4919100e+00
 -4.1947743e-01
 -2.6230928e-01
 -4.0967911e-01
  1.6280100e-01
  1.9983941e-01
 -4.6986267e-01
  7.3384129e-02
  9.9119174e-01
  2.7828455e-01
 -9.2270064e-01
  4.8428676e-01
 -9.8317437e-02
  2.4499256e-02
  4.1677633e-01
  1.2042455e-01
  2.0683490e-01
  2.7957425e-01
  1.7313236e+00
 -4.4276357e-01
 -3.3406997e-01
  1.2333255e-02
 -5.1022649e-01
 -1.2469521e+00
  6.2634295e-01
 -5.2694656e-02
  1.1698266e+00
 -6.7468435e-01
 -1.1999184e+00
 -2.5468016e-01
 -2.1684670e+00
 -1.9523863e+00
  7.8714520e-02
  6.3336790e-01
 -3.9935151e-01
  1.4770328e-02
 -5.9735432e-02
 -2.9069383e+00
 -8.4749889e-01
  1.2519779e+00
  6.7094845e-01
 -8.4749299e-01
  2.5278908e-01
 -1.2953581e+00
  1.6322806e-02
 -6.2231261e-02
  1.8363287e+00
 -5.8760531e-02
  4.4371512e-02
 -3.2150235e+00
 -3.2055233e+00
 -2.4226079e+00
  1.8480203e+00
  4.8695275e-01
  1.8257331e+00
 -8.6909533e-02
  1.7683278e-01
 -9.3229616e-01
  8.9194693e-02
 -4.6243051e-01
  7.9370439e-03
 -1.7705017e-01
 -1.1176029e+00
 -3.9694732e-01
  9.8331463e-01
  5.3054756e-01
  2.9812461e-01
  7.6810175e-01
 -1.7824067e-01
  4.4112808e-01
 -1.7278442e-01
  2.3411860e-01
 -2.8239784e-01
 -9.9454165e-02
  1.1778600e-01
  1.5197603e-02
  3.4798715e-01
 -9.2447114e-01
  1.4410223e-01
  6.1698198e-01
  8.6196131e-01
 -2.7860813e-02
  8.2092963e-02
 -1.2914191e-01
  1.0411963e+00
 -9.9801980e-02
  6.1927634e-01
  1.1268613e+00
 -1.4430635e-01
 -1.6262398e+00
 -3.2423711e-01
 -1.7526511e-02
  9.1319060e-01
 -1.2421845e-01
 -3.9092085e-01
 -8.0851972e-01
 -7.4914351e-02
  2.7449772e-01
  3.7839925e-01
  2.2141817e-01
 -1.1966499e-01
 -3.4711668e-01
 -4.0924138e-01
 -3.0001897e-01
 -1.2141869e+00
 -1.1471903e-01
 -3.2063745e-02
 -8.9041337e-02
 -2.1044940e-01
 -1.8263543e-01
  7.0436710e-01
 -3.8142735e-01
  1.1605091e+00
  1.5554306e-01
  2.0202777e-01
  2.2028411e-02
 -1.4141817e-01
 -4.1869223e-01
 -1.9461913e-01
 -1.3113414e+00
 -8.9346491e-02
  1.5026394e-01
  4.1421294e-01
  7.2208416e-01
  2.7863434e-01
  1.3951272e-01
 -7.2890729e-02
 -2.2835070e-01
  7.3664546e-01
  8.2111603e-01
 -4.3738642e-01
 -2.3805782e-01
  3.3253204e-02
 -2.6792133e-01
 -1.5890481e-01
  1.0521864e+00
 -1.1561271e+00
  4.5338920e-01
  3.9261431e-02
 -6.2524730e-01
 -1.2362460e+00
  4.5422982e-02
 -6.2662166e-01
 -6.8770602e-02
  6.0481477e-01
 -1.2091942e-01
  6.9287670e-01
  5.0487235e-02
  2.1490477e-01
  4.3283141e-01
 -2.2486959e-01
  1.0702716e-02
  5.8863378e-01
  3.2071948e-01
 -1.2560332e-01
 -1.3342682e+00
  9.6346092e-01
 -1.8752611e-01
 -1.9793281e-01
 -6.8195634e-02
  3.5257268e-01
  1.4159396e-02
  1.4695680e+00
  3.3789366e-01
  6.0573097e-02
  1.7493637e+00
  4.1761810e-01
  3.6751188e-02
  2.7398533e-01
 -7.3966980e-01
 -1.4558104e-03
  6.1985666e-01
  2.5705698e-01
  9.2776038e-02
 -8.3778471e-01
  1.0631819e+00
  5.6061655e-02
 -2.2870232e-01
  8.3252173e-03
  2.5432697e-01
  1.7247215e-01
  1.2538936e+00
  1.4227933e-01
 -1.4822904e+00
  3.0218010e+00
 -5.2961789e-02
 -1.8282577e-01
 -1.0767109e-01
  5.7682615e-02
 -1.6028193e-01
  3.3637900e+00
 -1.7214368e-01
  1.0498143e-01
 -3.8055474e-01
  1.1601483e+00
  3.4032404e-01
  6.5252918e-01
  1.3283114e-01
 -8.4683979e-01
  2.7905824e-03
  3.1824532e-01
 -5.4738116e-01
 -3.4978531e-02
 -8.9837797e-02
 -1.8832359e-01
 -4.3808330e-02
  7.9421633e-01
 -5.9096813e-01
  5.8160114e-01
  1.1369911e+00
  2.3463379e-01
 -2.6363416e-02
 -1.8104662e-01
  2.8495622e-01
  4.8458821e-01
 -2.7522030e-01
  1.0397062e-01
  6.6170537e-01
  1.0512758e-02
  3.2193664e-01
 -3.4556451e-01
 -3.8793448e-01
  3.0040387e-02
 -1.2552853e-01
 -9.8260450e-01
  3.4327629e-01
  2.1983448e-01
 -1.5241879e-01
  4.7877559e-01
  9.5196515e-01
 -4.6331607e-02
 -8.5691243e-02
 -8.0798405e-01
 -9.3763244e-01
 -8.2489803e-02
 -1.0548735e-01
  4.5703664e-01
  1.3316691e+00
 -5.0884776e-02
 -4.8199188e-02
 -9.8180401e-01
 -4.9541163e-01
  5.3449295e-02
  3.3565843e-01
  2.0874915e+00
  4.1525742e-01
  3.2999653e-01
 -7.3116249e-01
 -4.6994200e-01
 -1.5176980e+00
 -3.8666797e-01
 -4.2167765e-01
  4.7405176e-02
  1.1528662e-01
  5.6777626e-02
  5.6868363e-02
 -4.9147514e-01
  4.4604942e-01
 -7.8275150e-01
  2.1452291e+00
 -7.8544304e-02
 -2.1019857e+00
 -3.4283444e-01
  3.0274749e-01
  2.9559091e-01
  6.9623935e-01
  1.8043837e-01
  4.1303569e-01
 -6.9255233e-01
  1.3802952e+00
  1.7296396e+00
  1.4357898e-01
 -1.6977553e-01
 -8.6389589e-01
 -4.7926000e-01
 -6.2572926e-01
  1.6838661e-01
 -8.7328553e-02
 -1.8529122e-01
  1.6283485e-01
  2.1372396e-01
 -2.4773704e-01
 -1.7188895e-01
  1.1445781e-01
 -4.0971845e-02
  1.1098477e+00
  9.6603699e-02
  2.0453490e-01
 -6.2317893e-02
  2.9029751e-02
 -2.4000925e-01
  2.6140749e-01
 -7.9374564e-01
 -3.5683829e-01
  8.8974124e-01
 -4.9838561e-01
 -3.2770294e-01
  1.9029154e-01
  2.0653036e+00
  1.0852659e+00
  1.0795198e-02
  6.3639057e-01
 -2.4757807e-01
 -7.4363321e-01
 -2.1362782e+00
 -4.0929252e-01
 -6.5107286e-01
 -4.7007740e-01
 -4.0984750e-01
 -3.1508312e-02
  1.1044106e-01
 -3.8454059e-01
  7.3212177e-01
  1.1171387e-01
  5.1451749e-01
 -1.9861963e-01
  1.3896622e-01
 -3.2880771e-01
  2.2178103e-01
  5.0876611e-01
 -1.3641484e+00
 -4.9813846e-01
 -4.7764632e-01
  5.2766150e-01
 -5.4980963e-01
 -6.0869002e-01
  1.7315220e-02
 -6.0528442e-03
  1.7360103e-01
 -9.8347440e-02
 -2.0143290e-01
  8.2535356e-02
 -7.9083198e-01
  3.6542237e-01
 -4.3098580e-02
  1.8362354e-02
 -2.0330891e-01
  1.0182966e-01
 -1.6552965e-01
 -6.2363479e-02
 -6.2640660e-02
 -4.0735055e-02
  2.4971256e-02
  1.1125872e-01
 -6.8839312e-01
 -2.4685587e-01
 -3.9459085e-01
  6.8307281e-02
  1.2011598e+00
  7.2587526e-01
 -9.6722662e-02
  6.2184757e-01
  1.0698248e-01
 -1.0756900e+00
 -2.8623877e-02
 -1.4868861e-01
  4.6941584e-01
  1.2401583e-02
  1.0051169e-01
  3.9577377e-01
  1.0224455e-01
  7.2763395e-01
  1.3515191e+00
 -1.6167991e-02
 -6.0867018e-01
 -1.3689431e+00
 -3.8976061e-01
 -1.2103209e-01
 -3.2055256e-01
 -3.4934390e-01
  4.7653702e-01
 -3.2929057e-01
  2.8850555e-01
 -6.3824728e-03
  3.9123905e-01
 -1.2105491e-01
 -2.9360470e-01
 -1.7157149e-01
  1.1568106e+00
 -2.1354492e-01
 -3.9489248e-01
 -2.0433956e-01
  9.3762711e-02
  9.3092996e-01
  1.1655610e-01
  4.0218276e-01
  2.4784094e-01
 -2.4997191e-01
 -3.6460677e-01
 -2.0255525e-01
 -2.7880275e-01
 -1.9895945e-01
  2.5033051e-01
  1.9834487e-01
 -8.1495814e-02
  3.9520794e-01
  3.7291348e-02
 -1.0444710e+00
 -3.0767345e-01
 -4.0546563e-01
 -3.3720866e-02
 -6.7672855e-01
  2.1121871e-02
 -4.9053770e-01
 -1.2323618e-01
  7.2992617e-01
 -5.2710403e-02
 -9.2700064e-02
  2.1854261e-01
 -1.6537076e-01
 -4.0743768e-01
 -1.1764613e-01
  1.8234798e-01
 -7.5876266e-03
 -2.4663664e-02
 -4.1988003e-01
  6.6252220e-01
 -1.3685811e-01
  3.5697043e-02
 -1.1403031e+00
  3.8752344e-01
  4.5041791e-01
 -1.1268514e-01
  1.3129728e+00
  1.3413393e+00
 -5.9924465e-01
  1.6061994e+00
  1.3858241e+00
  6.1660981e-01
 -1.3650775e+00
 -5.9031475e-02
 -8.1418705e-01
  1.1908236e+00
 -3.9719126e-01
 -7.3451065e-02
 -2.9163465e-02
 -2.5822628e-01
  2.8747833e-01
  1.2548361e-02
  8.0124015e-01
  1.6917199e+00
 -8.2534868e-01
 -2.2426054e+00
  1.3110490e-01
 -1.1719602e+00
  5.3906971e-01
  4.6059188e-01
  2.2995426e-01
  1.7983377e-02
 -8.6458361e-01
 -7.7978760e-02
 -6.0952604e-01
  4.8308477e-01
  3.4554541e-01
  1.8910760e+00
  7.0759821e-01
 -1.4302380e-01
  1.4532986e-01
  7.3502451e-02
  1.2271535e-01
  2.0368330e-01
  2.5121942e-02
  1.0612409e-01
 -1.1349295e+00
  1.1039579e-01
 -1.1386854e-01
  1.1583427e-01
  1.1659863e-01
  5.7241891e-02
 -8.8132888e-01
  1.2818775e-01
 -4.2246786e-01
 -1.4408320e-01
  9.4164521e-01
  1.8220414e+00
 -1.2695339e-01
  3.4758767e-01
  2.1308294e-01
  7.6472461e-02
 -7.5277030e-01
  3.4208992e-01
 -7.2089799e-02
 -1.8590501e-01
 -1.0000845e-01
  2.4031885e-01
  2.1371517e-01
 -4.2291689e-01
 -2.3090754e-01
 -6.6724491e-01
  2.7432825e-02
 -2.4365665e-01
 -5.3297997e-02
 -3.9123651e-01
 -9.4262475e-01
 -3.3250117e-01
 -4.8362660e-01
  4.3773237e-01
  2.1266626e-01
  6.0066080e-01
  9.1721185e-02
  2.8781411e-01
 -2.0250271e-01
 -8.6051893e-01
  5.7289243e-01
  4.5086563e-02
 -1.0731994e-01
 -4.6348131e-01
  1.9903482e-01
 -1.8492645e+00
  1.7794162e-01
  3.8171768e-01
 -2.1717130e-01
 -1.6156465e-02
  6.2682724e-01
 -4.5820701e-01
  6.3804433e-02
 -2.6855916e-01
  1.7866409e-01
 -4.1158417e-01
 -5.0085910e-02
  2.4151931e+00
 -4.6634007e-01
 -3.7131491e-01
 -4.8900300e-01
  8.0688551e-02
 -2.4259408e-01
 -1.0029739e-01
 -3.0422217e-01
  3.1660521e-01
  1.5427411e-01
  1.5586516e-01
  5.1356163e-03
 -2.7624214e-01
  6.9918388e-01
 -3.2197642e-01
 -2.3687884e-01
 -9.5587552e-02
 -8.4273195e-01
  1.2090488e-01
 -4.3634510e-01
  3.4380440e-02
  1.4687007e-02
  2.6416314e-01
  2.2012711e+00
 -1.2682262e-01
  2.7079853e-01
  4.7292200e-01
  4.3681714e-01
 -1.3526751e-01
  2.6353905e-01
  1.9909887e-01
 -3.6232546e-02
  1.3904803e-01
 -5.2404076e-01
  3.9739594e-01
 -4.1854447e-01
  2.4564679e-01
  6.4925492e-01
  3.3677763e-01
 -1.0430797e+00
 -1.0763057e-01
  8.6705118e-01
 -7.7155888e-02
  2.5139058e-01
 -9.7513691e-02
 -2.0365280e-03
 -5.7920039e-02
 -1.5962480e-01
 -1.7173287e-01
  9.1378909e-01
 -2.6971214e-02
  7.1262497e-01
 -6.0527974e-01
 -7.9386061e-01
 -4.7935748e-01
 -2.6024151e-01
 -6.4526103e-02
 -7.2116625e-01
  8.3819658e-01
  5.7518142e-01
 -1.7111483e-01
 -4.1475007e-01
  2.4472278e-02
 -4.0230137e-01
  6.6859651e-01
  4.5237666e-01
  2.1945448e-01
  5.0678414e-01
  9.8007393e-01
 -5.5786550e-01
 -4.4513944e-01
 -1.6181597e-01
 -1.8783655e+00
  6.0581658e-02
  7.9117589e-02
 -5.8376056e-01
 -2.1260002e+00
 -5.0507891e-01
 -3.8683370e-01
  2.0113456e+00
  6.5970325e-01
  3.5422558e-01
  2.5174904e+00
 -7.2948980e-01
 -3.4903616e-01
 -9.4329327e-02
  1.0960453e+00
 -2.2237737e-01
  6.4086807e-01
  1.4516903e+00
 -1.3400339e+00
 -1.1699244e+00
  1.7471800e+00
  3.8592386e-01
  1.5372217e-01
 -1.0059544e+00
  1.7227402e-01
 -3.6146125e-01
 -7.9260212e-01
  1.3339313e+00
  2.4341735e-01
  1.2239778e+00
  1.6066011e+00
  1.7386973e-01
 -4.8483819e-01
 -8.9727953e-02
 -6.8788844e-01
 -1.0294532e+00
  8.5141456e-01
 -3.4934580e-03
  2.1609280e-01
 -8.1494153e-01
 -3.9407134e-01
  1.3205109e+00
  7.2572100e-01
 -2.1916226e-01
 -2.3881184e-01
 -4.5711336e-01
 -1.9178979e-02
  1.3401727e-01
 -1.7240067e-01
  4.0773812e-01
  1.0838163e-01
 -9.6325189e-02
  7.4006516e-01
 -6.5057099e-02
  1.8082237e+00
 -5.9331203e-01
 -1.4155059e-01
 -2.7260492e-03
 -3.3646944e-01
  7.7899083e-02
 -8.4427702e-01
  5.9356160e-02
 -6.1256818e-02
 -8.5121877e-03
  3.3922666e-01
 -4.2738536e-01
 -1.3850234e-02
  4.9799016e-01
  3.2564685e-01
 -1.0881981e+00
 -3.6172572e-01
 -3.4081213e-02
  2.3250100e-01
  3.8003810e-03
 -1.2418818e-01
  1.4982070e-01
 -1.0013452e-01
 -1.6062304e-02
 -2.8480459e-02
 -1.3126445e+00
  1.0726090e-02
 -3.1427461e-01
  2.6950173e-02
 -2.8969955e-01
 -1.5127796e-01
  5.2207965e-01
  5.1075521e+00
  2.5290184e-02
 -3.8101757e-01
 -2.9245016e-01
 -6.3318688e-01
 -1.9365450e-02
  1.5204458e-01
  2.0592986e-02
 -5.4238304e-02
 -3.4427184e-01
  5.3442258e-01
 -1.9340459e-01
  1.2936090e+00
 -4.0078115e-02
  3.3709514e-01
  1.1219879e-01
  1.8864301e-01
 -2.1977283e-02
  1.5814838e-01
  3.7080786e-01
 -7.7442601e-02
 -2.2427370e-01
 -1.3969121e+00
  2.8636569e-01
  2.1853399e-01
 -1.0347911e-01
  5.4130960e-01
 -7.3025428e-02
 -1.5276380e-01
  5.9274113e-01
 -7.4279703e-02
  2.4601535e-01
  2.7863714e-01
 -3.7486139e-01
 -5.6166261e-01
 -4.8887379e-02
 -5.5619348e-02
  4.1597903e-01
 -7.7754833e-02
  1.1900730e+00
 -8.1094325e-01
 -7.5682119e-02
 -4.5184400e-02
 -4.5542862e-02
 -3.5152414e-01
  6.4227504e-01
  8.9207612e-02
 -5.8129080e-02
 -3.5790622e-01
  3.3345729e-01
  7.8693175e-01
 -2.8527439e+00
 -2.3433487e-01
 -1.5601512e+00
  3.5717347e-01
 -9.8414314e-01
 -2.4069013e-01
  3.7700254e-02
 -5.2614301e-02
 -3.3377653e-01
  2.2495842e-01
  6.6766709e-02
 -2.8102870e+00
 -3.6024928e-01
 -2.2538620e-01
  6.2510848e-01
  1.6220410e+00
  2.1817623e-01
  1.4946821e+00
 -1.8987697e-01
  5.5236980e-02
 -2.3173667e-01
 -7.1512312e-02
  3.1439537e-01
 -6.2687173e-02
 -1.1787631e-01
  1.9120027e-01
  4.1102841e-01
  8.5366797e-01
 -6.6857859e-02
 -3.7512666e-01
 -4.7703531e-01
  1.0221118e+00
  1.9448660e-01
 -1.4355344e-01
 -1.8179253e-01
  3.7286872e-01
  1.9561492e-02
  3.9626944e-01
  9.8368004e-02
  3.5042304e-01
 -4.7759391e-02
  2.7450516e+00
 -7.9338789e-01
 -5.0525439e-01
  6.4429563e-01
  1.3463516e+00
  8.0713964e-01
 -6.0561347e-01
  2.4544217e-01
  3.9856368e-01
 -3.6979625e-01
 -1.8340091e+00
 -7.5571036e-01
 -1.2070211e+00
  8.8738680e-01
  1.1910279e+00
 -6.2807518e-01
 -9.2944521e-01
 -1.5437387e+00
  1.4377487e+00
  8.9537305e-01
  1.4404844e+00
  7.9681498e-01
  8.3017254e-01
  3.8232648e-01
 -1.8816947e+00
 -4.3427578e-01
 -4.6313500e+00
 -4.3035892e-01
 -2.9413359e+00
 -8.4723927e-02
  2.2353129e+00
  6.4480978e-01
  2.9545555e-01
  3.1940868e+00
 -5.3687525e-01
 -1.1767278e+00
  1.4082958e-01
 -1.0729324e-01
 -1.7796224e-01
 -3.1823149e-01
  3.4699655e+00
  1.0094489e-01
 -8.6921734e-01
  1.4564734e+00
  2.2467299e-01
  3.0787721e-02
 -4.4203329e-01
 -5.4844260e-01
 -3.9816076e-01
  4.5470902e-01
 -1.0114131e+00
 -3.8787517e-01
 -5.2654648e-01
  1.4323820e-01
 -2.8431869e-01
  2.0379455e-01
  3.5220689e-01
  4.6836066e-01
 -3.0758515e-02
 -8.3375573e-02
 -6.5740764e-01
 -2.7229142e-01
  2.5955096e-01
 -9.3662910e-02
  3.8520372e-01
 -1.2313858e-02
  5.0992131e-01
 -2.6873282e-01
  1.5191588e-01
 -4.8706740e-01
  5.0409323e-01
  2.9181024e-01
 -1.9535792e-01
  2.5491908e-02
 -2.8139453e-02
 -1.2057519e+00
 -7.6109990e-02
 -7.9068020e-03
 -1.2349477e-01
 -4.4536078e-01
 -3.6311600e-01
  4.0768862e-01
 -2.0126347e-01
 -7.0674919e-02
 -1.3442691e-01
  3.0544910e-01
  1.6813250e-01
 -3.0670010e-02
 -3.0008003e-01
  3.0708420e-01
  1.4604030e+00
 -2.2245820e+00
 -9.1280711e-01
  5.1798213e-01
  1.8446249e+00
  1.0423474e+00
 -1.6014577e+00
  7.6750332e-01
  1.2461913e+00
 -1.6991228e+00
  1.0418538e+00
  3.6402658e-01
  2.6183352e-01
  5.3240424e-01
  3.2430407e-02
 -1.4319006e-01
 -4.2769354e-02
  1.8935692e-02
  9.6209526e-02
  4.8305791e-02
  3.6938283e-01
 -9.5276542e-02
 -7.3119527e-01
 -2.3224951e-01
  1.9034054e-02
  2.1659443e-01
  1.8058717e+00
  6.2278640e-01
  3.2138076e-01
 -5.1316619e-01
 -2.7939525e-01
  7.6916002e-02
  6.6225147e-01
  1.9841160e+00
  5.9423372e-03
  3.5827821e-01
 -7.7107102e-01
  5.5413777e-01
 -3.6733869e-02
  9.4259396e-02
  4.3418837e-01
 -8.9995250e-02
 -6.9751328e-01
 -3.5378075e-01
 -2.8043205e-02
 -4.4361152e-02
 -7.3252857e-02
  3.4958196e-01
 -7.0569837e-01
 -2.6607934e-01
  1.6912207e-02
  8.1316119e-01
 -3.9173770e+00
  3.0870637e-01
 -8.8574320e-01
 -7.5077701e-01
 -4.2456013e-01
 -2.7664432e-01
  2.2321673e-01
  9.6910340e-01
  1.3717080e+00
 -2.5304770e-01
  2.6402237e-02
  1.7174056e-01
 -8.0821313e-02
  3.1035308e-02
 -9.8011367e-02
  8.5053392e-02
 -3.5429129e-01
 -1.8417419e-01
  1.8681318e-02
  1.8052696e-01
  6.2189108e-01
 -1.8765737e-01
  8.0164307e-01
  1.3642047e-02
  3.2584384e-02
 -5.5844712e-01
 -2.5525492e-01
 -3.2674178e-01
  7.3286116e-02
  2.3909062e-01
  1.0921475e+00
 -4.9634367e-01
 -2.4347438e-01
 -4.8292384e-01
  6.0793388e-01
  7.9806745e-02
 -5.0579488e-01
  5.6391305e-01
  3.4289142e-01
 -4.8050293e-01
 -6.4983100e-01
  3.7393138e-01
 -4.2212355e-01
 -9.9542737e-02
  1.3199782e-01
 -8.9988008e-02
  1.1233202e-01
  1.3467929e-01
  3.1667633e+00
  2.0266263e-01
 -5.7375103e-01
  3.3348450e-01
  6.8320259e-02
 -2.6990208e-01
  2.5078225e-01
 -9.8703504e-01
  3.6151356e-01
  5.4908746e-01
 -3.3169633e-01
 -3.9496735e-01
  6.4946666e-02
 -2.0594536e-01
 -1.0230665e-01
  1.6689110e-01
 -6.9531178e-01
  5.4510212e-01
  1.4668318e+00
 -3.4626380e-01
 -8.9939274e-02
 -4.4473401e-01
  9.5651060e-01
  3.7517852e-01
 -1.3727552e-01
  6.0851604e-02
 -2.6691180e-02
  6.1759764e-01
  2.0571059e-01
  1.8433633e-01
  3.9557669e-01
  1.5746751e-01
 -5.2295554e-01
 -2.3042803e+00
  1.6134985e-01
  5.7084280e-01
 -1.2606667e-02
  2.6449445e-01
 -3.0877769e-01
  8.3210075e-01
  1.7555425e-01
 -1.2812740e-01
 -8.3921212e-01
 -8.1547260e-01
  9.0353942e-01
 -1.7696038e-02
  2.5602335e-01
 -1.7218250e-01
  1.7250749e-01
  2.2316375e-01
 -1.8778253e-01
 -2.5517890e-01
  5.4468483e-01
 -6.0302988e-03
 -8.7951565e-01
 -3.6168057e-01
 -7.7884215e-01
  6.2253863e-01
 -2.8015068e-01
  1.3679808e-02
 -5.2220953e-01
 -2.1771881e-01
 -2.2747340e-03
 -2.4853455e-01
  1.3252993e-01
 -4.3827569e-01
  1.8138203e-01
 -5.7660711e-01
  3.4004036e-01
  1.9684526e-01
 -3.3479458e-01
  2.9670221e-01
 -1.9927326e-01
  1.1829678e-01
  4.3718421e-01
  6.5848731e-02
 -1.1380233e+00
  7.8649884e-01
  7.7091938e-01
  6.1877608e-01
 -7.4224138e-01
  8.1673879e-03
 -4.4113645e-01
  4.1527241e-01
  1.3640876e-01
 -9.1987282e-01
 -3.3622032e-01
 -2.2080354e-01
 -2.0599589e-02
 -2.2790581e-01
  1.4746909e-01
 -1.7868632e-01
 -1.6038878e-01
 -2.2284429e-01
 -6.7304528e-01
 -1.2887789e-01
  5.4467499e-01
  1.3551531e-02
 -1.1537865e+00
 -3.9346042e-01
  2.8784731e-01
  4.0393034e-01
  3.8101441e-01
  1.4931071e-01
 -1.0673286e-01
 -4.3390048e-01
  1.1356853e-01
 -9.8883733e-02
 -7.2964773e-02
 -1.9420691e-02
  4.4048718e-01
  1.1174128e+00
 -2.5338987e-01
 -1.3363926e-01
  1.0419693e+00
 -9.5108795e-01
  8.4725432e-02
  3.2333416e-01
  5.6768525e-01
 -9.3421750e-02
  6.5466702e-01
 -4.9690637e-01
 -3.0504068e-02
 -2.5230888e-01
  7.9414183e-01
  5.1290631e-01
 -3.6910579e-02
  1.4881358e-01
  7.9199725e-01
 -2.9931605e+00
  1.0158645e+00
  6.4296640e-02
 -9.1170579e-02
  6.7991763e-03
  1.2953530e-01
 -5.4673773e-01
 -3.6210597e-01
 -4.7852516e-01
 -4.7506876e-03
  1.9852912e-01
  3.0306402e-01
 -4.8595384e-01
 -3.2556748e-01
 -2.6857883e-01
 -2.3558080e-02
 -5.4198319e-01
  7.8019410e-02
  1.5060154e-01
 -5.3565264e-01
 -1.2058872e-01
 -8.7331600e-02
 -3.9121616e-01
 -2.4953747e-01
 -5.5929589e-01
  1.8768813e-01
  1.6713206e-01
  1.1829510e-03
  3.3181123e-02
  5.0036103e-01
  1.4078493e+00
  1.4990866e-02
 -5.3792679e-01
  6.9971853e-01
  1.9698104e-01
  4.2404756e-01
 -1.1281413e+00
  4.4633815e-01
  5.5800136e-02
  2.5963148e-01
 -8.8535771e-02
  1.3438345e-01
  1.1529263e-02
 -3.0972341e-02
 -2.3761097e-01
  5.5141491e-01
  2.1801855e-01
 -1.8101418e-01
  9.1266155e-02
 -4.2515841e-01
  4.5276678e-01
  1.1607672e-02
 -5.5835748e-01
 -1.1383584e-01
  8.3793652e-01
  1.9204496e-01
 -1.2250995e-02
 -1.8741716e+00
  2.2045866e-01
 -4.6559742e-01
  2.7574873e-01
 -4.0553421e-01
 -2.4991992e-01
  3.9718780e-01
  2.3724467e-01
 -3.6934111e-01
  8.2455836e-02
  2.6844578e-02
  2.1114709e+00
 -8.3277762e-01
  4.1092208e-01
  4.7635123e-02
  6.8852687e-01
  6.7614779e-02
  2.9945591e-01
  3.4014621e-01
 -9.7322710e-02
 -1.9087759e-01
  5.5674940e-01
  1.0464493e-01
  4.7661436e-01
  3.9651391e-01
 -1.2919286e-01
 -4.2695993e-01
 -8.8984513e-01
 -2.9645124e-01
  2.0524579e-01
 -2.2815235e-01
  8.0030578e-01
 -5.0610520e-02
 -8.2973665e-01
 -2.0263085e-01
  1.4836475e-01
 -2.3884945e-01
  2.3590651e-01
  4.1942939e-02
 -2.3618445e-01
  1.1835214e+00
 -1.9526517e-01
 -8.0856681e-02
 -4.4174928e-02
  3.7886775e-01
  5.3546548e-01
 -4.5058635e-01
  2.1629480e-01
 -2.7029514e-03
  6.2516823e-02
 -5.0004721e-03
 -3.5746744e-01
 -1.0623453e-01
 -2.0244695e-01
 -7.4750207e-02
 -8.3400384e-02
 -1.3372333e+00
  1.7594723e-01
  1.0093062e+00
  1.0488906e+00
 -8.0421823e-01
  1.3694857e-01
  4.0572068e-01
 -7.7327095e-02
  2.3354664e-01
 -1.7361066e-01
 -8.7476373e-01
  6.1698586e-01
 -1.7601833e+00
 -1.0189675e+00
  1.5029633e-02
  6.5089637e-01
  6.3684398e-01
 -5.2298152e-01
 -1.6625149e+00
 -1.3917758e+00
  1.7377979e-01
  6.1548191e-01
  7.1656358e-01
  3.9711266e+00
 -2.0547581e+00
 -6.9236881e-01
  2.6230068e+00
 -1.9701884e+00
  1.4401059e+00
 -1.9185052e+00
 -8.8749272e-01
  5.9303397e-01
 -7.8179193e-01
 -4.8007408e-01
 -9.7374833e-01
  8.3677536e-01
  1.3574187e+00
 -1.1665078e+00
 -4.8157392e+00
  1.8757472e+00
 -1.3622819e-01
 -8.4897299e+00
  8.8894084e-02
  1.5923561e+00
  3.5215467e-01
 -2.4532939e-01
 -5.0321746e-01
  1.1240835e+00
  1.3031014e+00
  1.4358401e-01
  7.7142216e-02
 -5.2659404e-01
  3.4949499e-01
 -8.5852131e-02
  5.5246073e-01
 -9.3869016e-02
  9.1944113e-02
  2.6275098e-01
  7.0485789e-01
  3.0800359e-02
  4.5482269e-01
 -6.7884612e-01
  4.2877871e-01
  4.7962806e-01
 -9.3888253e-02
  2.8043565e-01
  1.9869135e-01
  1.1263287e-01
  3.3245724e-01
  2.1144436e-01
 -1.5061963e-01
  4.2871717e-01
 -2.9694435e-01
  1.4256559e-01
  1.3837621e-01
  5.4778701e-01
  7.2139210e-01
 -4.3315977e-02
 -2.8035462e-02
  8.8108426e-01
  3.5292581e-01
  3.0484572e-01
 -5.1701778e-01
  1.6069083e-01
 -1.3909175e-01
  3.4498012e-01
  1.3315289e-01
  3.7422691e-02
 -4.6523032e-01
  6.7442083e-01
 -6.2809998e-01
  3.1052691e-01
 -2.8625149e-01
 -2.1286467e-01
 -2.3639548e-01
  3.3228049e-01
  6.2821287e-01
  1.0881455e-01
 -4.8325264e-01
  4.8548868e-01
 -1.0676894e+00
 -2.6881337e+00
  5.1872569e-01
  7.2738640e-02
  1.1060522e+00
  1.4187858e+00
 -2.0800416e+00
 -2.3343870e-01
  1.1301968e+00
 -1.1884324e-01
  4.6854052e-01
 -8.8729572e-01
 -1.3152033e+00
  1.7961236e+00
 -6.9923055e-01
  2.1947983e-01
 -3.5280281e-01
 -3.0689552e-01
 -6.3775085e-02
 -2.8711474e-03
  1.3822980e+00
 -5.0331366e-01
 -7.4103004e-01
  5.3516877e-01
  7.0874757e-01
  8.3238697e-01
  6.8431789e-01
 -3.1563476e-01
 -2.1396486e-02
  8.7003857e-01
  1.8730572e-01
 -1.2847710e+00
 -4.4896495e-01
  8.5351628e-01
 -2.8098580e-01
 -7.2386920e-01
  2.7355692e-01
  3.4765539e-01
 -1.2053423e-01
 -3.8901588e-01
 -3.2252395e-01
 -9.0897143e-02
  1.7612535e+00
 -4.0224385e-01
 -5.1202619e-01
 -8.3394155e-02
  9.1938734e-02
  8.6214244e-02
 -1.2879170e-01
  2.5565397e-02
 -5.4996896e-01
  4.1275695e-02
  1.7134336e-01
 -2.7272612e-01
  4.1402251e-01
  1.1681214e-01
  5.3384200e-02
 -1.2122771e-02
 -1.4526264e-01
 -3.6745170e-01
  3.3818212e-01
  8.8422769e-01
  2.3798262e-01
  1.4406253e-02
  3.3101636e-01
  3.1802702e-01
  7.0832163e-02
 -1.7472176e-01
  1.8850222e-01
 -6.0692087e-02
 -3.9999839e-04
 -2.2302356e-01
 -5.1981367e-02
  1.0843334e+00
  2.1751857e-01
 -4.4284201e-01
 -3.9688954e-01
 -3.2184124e-01
  8.8776541e-01
 -1.0190105e+00
  2.2832002e-02
 -1.6792439e-01
 -1.6511737e-01
 -1.3476309e-01
 -3.0696172e-01
 -1.3622555e+00
  1.4805417e-01
  4.1761494e-01
  5.3411239e-01
  1.4531101e-01
  6.7576997e-02
  2.0867370e-01
  5.7372648e-01
 -1.0601615e+00
 -1.0839123e-01
 -1.2689525e-01
 -4.4279575e-01
  8.0955416e-01
 -4.3131208e-01
  1.2901468e+00
  2.5144914e-01
 -3.0442333e-01
 -2.4882114e-01
 -5.2836323e-01
  3.8413888e-01
 -1.3668779e-01
 -2.4576856e-02
  1.6075941e+00
 -7.3090649e-01
  9.1557556e-01
  8.1354864e-02
 -3.1282234e-01
 -7.2878629e-01
  1.6027586e-01
 -6.7911014e-02
  4.4650647e-01
  2.9132408e-01
  4.7052525e-02
 -7.2974128e-01
  1.3901442e+00
 -2.0251822e-01
  1.7101522e-01
 -6.0171878e-01
 -1.1624156e-01
  9.0797149e-02
 -4.1351614e+00
 -1.6979784e-02
  1.4365040e+00
 -1.8134116e-01
  3.3870351e-01
 -1.1053735e+00
  2.9503196e-01
 -2.3963782e-01
 -3.1440597e-02
 -7.8705019e-01
 -5.5253112e-01
 -3.1959906e-01
 -3.5004237e-01
 -4.2964384e-01
  2.4160585e-01
  5.3978682e-01
 -4.3822485e-01
  6.5950745e-01
  1.1123361e-01
  4.9303615e-01
 -2.4668993e-01
  1.0852387e+00
  1.9729707e-01
 -9.8746672e-02
  1.2057518e+00
  3.2777187e-01
  2.4857146e-01
  9.1801929e-01
 -9.5509470e-01
  6.2194741e-01
  2.3417819e-01
  2.3256086e-01
  1.7943072e-01
 -3.7152869e-01
 -4.0775701e-02
 -9.8590297e-01
 -2.5796077e-01
  1.9974494e-01
  3.2962158e-01
  5.9665114e-01
 -1.1332425e-01
 -2.9287934e-01
 -2.5934619e-01
 -8.0679066e-02
  1.9402197e-02
  1.1411491e-01
 -1.5310110e-01
  2.3855151e-01
 -1.6707054e-01
 -2.5971231e-01
 -1.9820227e-01
  2.4269582e-01
  7.8587934e-02
  2.3468800e-02
 -2.0191629e+00
 -1.2607168e+00
  8.0168211e-01
 -1.3943967e-01
 -7.6114672e-01
  1.1733454e-01
  1.1440275e+00
  2.0120049e+00
 -5.6136739e-02
 -4.2883107e-01
 -2.3344488e+00
 -3.2738006e-01
 -7.4244636e-01
 -4.7438157e-01
 -8.9209020e-01
  1.6256484e-01
  5.8316529e-01
 -1.5865362e-01
  5.4274046e-01
  5.4529447e-02
  7.5714481e-01
 -4.8958504e-01
 -1.4313748e-01
  2.0176584e-01
 -1.6862532e-01
  7.3153581e-03
  7.2572148e-01
  8.9732337e-01
 -1.1410091e-01
 -4.9682346e-01
 -4.7848475e-01
 -5.6794703e-02
  7.4238397e-02
  1.0424051e+00
  8.1430262e-01
 -2.6811031e-01
 -3.0446303e-01
  2.9349327e-01
  4.7519010e-01
 -2.7485302e-01
  4.8530743e-01
  8.5839170e-01
 -1.3665488e-01
  1.7930736e-01
 -9.9283293e-02
 -2.9161990e-01
 -2.1779168e+00
  2.6369953e-01
 -1.4684293e-01
 -5.0851274e-03
  1.7118847e-01
 -3.9161451e-02
 -2.0334552e-01
 -4.1555861e-01
 -4.7673488e-01
 -1.6232659e-01
 -3.4699774e-01
  1.9882202e-01
  1.8001212e-01
  4.3396320e-02
 -1.7427687e-02
  1.8350855e-01
 -2.8339213e-01
  5.4885799e-01
 -2.8607154e-01
 -3.3451748e-01
 -2.7821207e-01
  2.3758169e-01
  4.4680335e-02
 -7.5486159e-01
  1.2101900e-01
  7.5233066e-01
 -2.3342143e-01
  1.8005326e-01
  7.1797911e-03
 -3.2394192e-01
  1.5481311e-01
 -1.4305872e-01
  8.1070459e-01
 -2.0219904e-01
 -5.7639515e-01
 -4.2272830e-01
  1.7654361e-01
  1.2049458e+00
  2.2296870e-01
  3.6981545e-02
  1.7836294e-01
  1.0955018e+00
 -2.1833280e-02
  6.5272236e-01
  5.6133920e-01
  1.9689304e-01
  3.9096102e-01
 -1.7410983e-01
 -5.4020923e-01
 -4.3613926e-01
 -2.2559749e-01
  2.7915046e-01
 -1.4813073e-01
  7.8062427e-01
  5.2043192e-02
  2.9266191e-01
 -2.0703340e+00
  1.0810243e+00
  1.2655829e-01
  7.7838480e-01
 -2.4372479e-01
  1.1410375e-01
 -6.5394312e-01
 -9.5009916e-02
  3.1820303e-01
 -4.7656137e-01
 -3.5573328e-01
  4.4095320e-01
  7.6193191e-02
  6.6461152e-01
  5.0805426e-01
 -6.2009662e-02
  1.5432431e-01
  1.0127573e+00
  6.1410375e-02
 -7.7281690e-01
  1.7705591e-01
  1.7748751e-02
  1.0777371e-01
 -4.0208939e-01
  2.6241872e-01
 -2.2238255e-01
 -1.7920040e-01
 -3.9626139e-01
  2.2668719e-01
 -1.4727771e-01
  9.5648301e-01
  2.7201962e-01
  6.2019341e-02
 -3.2037073e-01
  1.9540888e-01
 -1.9345975e-01
 -1.5917976e+00
  3.1191036e-02
 -2.9466721e-01
 -3.4821066e-01
 -4.9918997e-01
  1.7966142e-01
 -7.9748943e-02
 -4.2850018e-02
 -4.2204846e-02
  2.4312091e-01
  7.0774741e-02
  7.7147439e-02
 -1.7611162e-01
 -2.3443861e+00
  4.0470798e-02
  1.4090525e-01
  5.3215921e-01
  3.0878887e-01
  1.5132102e-01
  4.5487586e-01
  6.4919913e-01
  1.8410501e-01
 -3.2575198e-02
  5.0166065e-01
  2.9927123e-01
 -9.1381006e-02
  2.3023138e-02
 -3.9756662e-01
  1.8536529e-01
 -2.5662997e-01
 -1.0071940e-01
  1.3190478e-02
  1.4702371e+00
  3.6239341e-01
  1.7760627e-01
  2.0992100e-01
 -1.0086217e+00
  1.2904667e-02
  6.3245460e-02
  4.4706297e+00
 -1.8310010e-01
 -2.8059593e-01
 -4.3303043e-02
  1.9929215e-01
 -1.6148490e-01
 -1.9986956e+00
  2.3162846e-01
  9.0448394e-02
  5.0333014e-04
 -4.8004168e-01
 -8.7998182e-01
 -2.2907661e-01
 -7.6058722e-01
 -3.8545054e-01
  2.0937189e-02
  2.2229795e+00
  2.8778046e-01
  2.7206595e+00
 -1.2792346e+00
  1.9304781e-01
 -5.2573532e-01
 -4.8532832e-01
  4.4945031e-02
 -7.7690244e-01
  4.6900502e-01
  2.8792500e-01
 -1.3881581e-01
  2.5228652e-01
  6.8414390e-02
 -2.2148342e-01
  2.4620603e-01
  1.4556603e-01
 -7.2457248e-01
  1.1575751e+00
 -6.2508893e-01
  5.6653380e-01
 -5.4486501e-01
 -6.7955039e-02
 -1.5410417e-01
  1.0289234e+00
 -8.1807069e-02
 -2.5491083e+00
  2.3386665e-01
 -1.6532632e-02
  1.2504421e+00
  1.1693392e+00
 -1.0002677e+00
 -1.0420197e+00
  5.3301251e-01
  1.1308163e+00
 -1.5613829e-01
  5.6173575e-01
 -6.9090372e-01
 -4.6066928e-01
  1.1842083e+00
  2.1243739e+00
  1.2384719e+00
  1.9268172e+00
  4.5763424e-01
 -1.7012891e-01
 -1.0994867e-01
  1.8736018e+00
 -8.1304766e-02
 -1.1377399e-01
  6.7674622e-02
  2.6822001e-01
  5.3692043e-02
 -1.7434978e-01
  1.0857232e-02
  8.6942995e-01
 -4.9067086e-01
 -1.0449134e+00
  2.6060643e-02
  2.1811498e-02
 -3.8411081e-01
  2.1999493e-02
 -1.2823740e-01
  5.2366082e-02
 -1.2276939e-01
  3.7055844e-01
  1.5027359e-01
 -1.2745480e-01
  9.1058701e-01
 -3.3207485e-01
 -2.1751487e-01
 -4.2953598e-01
 -1.6690673e-01
  5.8993435e-01
  6.8461657e-01
  6.5053356e-01
  9.5542866e-01
  9.9510312e-02
  6.3199502e-01
 -5.4237866e-01
  7.9439390e-01
  3.1826571e-02
 -3.6602974e-01
  1.0391279e-01
 -8.3440959e-01
  2.5289115e-01
  2.0070422e+00
  8.4609920e-01
  2.3734228e-01
  2.0953529e-01
  3.1318378e-01
 -9.6376725e-03
 -1.7913160e-01
  1.1659328e+00
  3.5611588e-01
 -4.1380042e-01
 -7.6281637e-01
 -3.3351010e-01
 -1.9926590e-01
 -2.0503797e-01
  1.0685091e+00
 -2.4677299e-01
  2.3642226e-01
 -1.1165421e-01
  4.1247204e-01
 -1.0556161e+00
  6.3896604e-02
  1.2964796e-01
  8.9955330e-02
 -8.2864738e-01
  5.8764565e-01
  4.0870181e-01
 -1.8157916e-02
 -5.7379290e-04
 -4.3062365e-01
  1.1395705e-01
 -3.7381010e+00
  1.0735341e-01
 -2.8708422e-01
  2.9099607e-01
 -2.2066934e+00
 -1.2465154e-01
 -8.1810856e-01
 -2.5555670e-01
  2.0908116e-01
 -1.3975070e-01
 -1.0421561e+00
  4.3560721e-02
  7.9147527e-03
 -2.9639700e-02
 -3.8606858e-01
  4.6524521e-02
  7.6060519e-02
  6.4692594e-02
 -2.2345330e-01
  5.2121870e-02
  5.8554149e-01
  4.8239756e-02
 -7.2869599e-01
 -8.4451079e-02
  2.9543585e-01
 -8.8649414e-02
 -1.8273856e-01
 -3.3390736e-03
  1.4861056e-01
  9.2358673e-01
  2.5195961e+00
 -1.3618840e+00
  2.8528123e+00
  2.1131370e+00
  1.7988175e+00
  8.6244196e-01
  3.0453873e-01
 -9.3595678e-01
  1.6352290e-01
 -1.3985046e+00
  1.3262732e+00
 -3.5281143e-01
  8.8781446e-01
 -1.7402912e+00
  8.1187040e-01
  1.5880185e-01
  1.3710886e-01
 -9.4664067e-02
  1.9516646e+00
 -1.4043988e-01
  3.5686377e-02
  9.5159137e-01
  4.2879689e-01
 -1.9312434e+00
 -9.3373132e-01
 -1.1652471e+00
 -1.8280091e+00
 -3.0015688e+00
 -3.7133333e-01
  3.0106738e+00
  1.7526748e+00
  9.3049765e-02
 -3.1338220e+00
  1.1155798e+00
 -3.6471498e+00
  2.0647314e-01
  3.6787403e-01
 -3.2288537e+00
  1.2890366e-01
 -5.5731082e+00
 -1.1338309e+00
 -2.3682411e+00
  3.5465679e-01
 -1.7522929e+00
  1.8266484e+00
 -2.1551445e-01
 -3.5936825e+00
 -6.2478382e-02
 -3.1762156e+00
  6.0751593e-01
  2.1945245e+00
 -1.4696912e+00
  3.6885114e+00
 -1.1923940e-01
  3.8799068e-01
  1.5631473e+00
  1.4759067e+00
  2.5450544e+00
  2.4253147e+00
  7.8285581e-01
  4.3560737e-01
 -1.2319847e+00
 -1.0075698e+00
  2.5811269e+00
  2.5674340e-01
 -4.5777742e-02
  1.8213918e+00
  2.0140898e+00
 -4.9472216e-01
 -1.2798141e+00
  3.9614017e+00
 -1.9624695e+00
 -9.5782310e-01
 -2.0222418e+00
  4.1794336e-01
 -1.7738812e+00
  4.4063884e-01
  2.7800713e+00
  9.4123371e-02
  8.2720906e-01
  1.7944762e-01
 -1.6854617e-01
  1.6161549e-01
  2.6300564e+00
 -2.6893513e+00
  1.4589020e+00
 -8.5119510e-01
  1.7879599e+00
  3.7546110e+00
 -3.8482150e-01
  1.1565616e+00
  1.3524653e+00
 -1.3405157e+00
  9.5311129e-01
 -1.0223863e+00
 -5.5822116e-01
 -2.0620184e+00
  1.8238996e-01
 -4.5390195e-01
  1.3785758e+00
  7.7107561e-01
  2.0286613e+00
  1.0138180e+00
  3.3397522e+00
  4.9483758e-01
 -2.8898227e+00
 -2.3078358e-01
  1.0816145e+00
 -8.4809822e-01
 -2.2048659e+00
  1.1162207e+00
 -1.2141507e-01
 -2.3423779e-01
  5.8837700e-01
  8.5168272e-01
 -4.7615469e-01
 -6.1715102e-01
 -1.5065378e+00
 -1.0529096e-01
  9.2418820e-01
 -1.9302115e-01
  2.7538908e+00
 -1.1266432e+00
 -1.4827123e-01
  4.9153313e-01
  7.5963205e-01
 -2.4720917e+00
  2.2756186e-01
  1.8280398e+00
 -6.0814357e-01
  3.3292851e+00
 -9.1003686e-02
  1.5587467e+00
 -2.8689954e-01
  1.0931516e+00
 -6.4084303e-01
 -5.3277624e-01
 -2.9162833e-01
 -1.4978191e-01
  2.4284543e-03
 -1.1419792e-01
 -1.2169971e+00
 -8.6874819e-01
 -2.7823491e+00
  5.0209677e-01
 -3.2885480e+00
  1.8380796e+00
 -1.5853523e+00
  1.4999245e+00
 -2.1125052e+00
  9.0783638e-01
  1.0748296e+00
 -3.1631575e+00
 -3.6411738e-01
  2.0021503e-01
  1.0565234e+00
 -1.9887851e+00
  1.4374183e+00
  8.5977620e-01
  1.5041182e+00
  1.9911875e+00
 -2.9356241e-02
 -1.2907173e-02
  1.0279138e+00
  3.4735739e+00
  5.1989374e+00
 -7.3000342e-01
 -2.5330148e+00
  2.5456250e+00
 -8.3426964e-01
  2.4032681e+00
 -2.4379196e+00
  8.4778047e-01
 -1.4432604e+00
 -4.7529376e-01
  2.5199261e+00
  2.9472916e+00
  9.5410544e-01
  2.7363235e-01
  2.5895143e+00
 -1.6040589e+00
 -1.2296973e+00
  4.9280605e-01
  4.4472909e-01
  2.8968892e+00
  6.3616145e-01
  1.0346469e+00
 -4.1980758e-01
 -3.3522445e-01
 -1.4061016e+00
 -2.1757514e+00
  1.1348292e-01
 -2.7922633e-01
  1.2284248e-01
 -2.1550333e+00
  2.3617145e-02
 -7.6509756e-01
 -4.9827293e-01
  1.9930147e+00
 -2.2742984e+00
 -4.0184554e-01
  2.6151675e-01
  1.3075885e+00
 -3.0629009e-01
 -1.6415442e+00
  7.0369816e-01
 -1.6952893e+00
  6.7368734e-01
 -8.1385005e-01
 -1.8195692e+00
  6.7273474e-01
  2.3817222e-01
  1.0567546e+00
 -1.5964024e-01
  2.7101517e+00
 -2.7220085e+00
 -1.5039903e+00
  9.5361173e-01
  4.1833463e+00
  5.2963197e-01
  5.4093438e-01
  6.9727057e-01
  5.3960276e-01
 -1.1953643e-01
 -1.5907836e+00
  2.8931122e+00
 -7.2758043e-01
  1.2099144e+00
 -1.2689267e+00
  6.3868934e-01
 -8.2431394e-01
 -1.6325594e+00
 -2.1868665e+00
  8.9244503e-01
  7.1577936e-01
  1.2261068e+00
  1.1313562e+00
  4.1362968e-01
  1.6304989e+00
 -3.2193908e-01
  1.4853947e+00
  6.5788758e-01
  4.6029506e+00
  2.7562530e+00
 -1.6986293e+00
 -2.6900032e+00
  5.3592831e-01
 -1.1028707e+00
  4.0313587e-01
 -2.1875466e-01
 -2.3874551e-01
 -6.0966170e-01
  3.0257869e-01
 -1.1162364e+00
  7.4479920e-01
 -1.9143915e-01
 -1.0790565e+00
 -1.2055844e+00
 -1.8761073e-01
 -2.4651052e-01
  2.4366701e-01
 -9.8886842e-01
 -1.2315584e+00
  3.8233275e+00
  1.1251551e+00
  3.1631637e-01
 -4.2908840e+00
  1.3965702e-01
 -5.5636674e-01
 -8.3307636e-01
 -1.8841124e+00
  5.9306216e-01
  6.9315696e-01
  1.0584879e+00
 -1.8744640e+00
  1.1317011e+00
  6.3813709e-02
 -2.5017176e+00
  1.6771995e+00
 -7.4170339e-01
  7.5456953e-01
  1.0815552e+00
  7.9727650e-01
 -2.0072348e+00
 -4.0277916e-01
 -8.2243735e-01
 -1.4272140e+00
 -1.9540156e+00
 -3.0803561e+00
 -1.9077816e+00
 -3.7186682e+00
  9.0763760e-01
 -7.0154929e-01
 -1.7297858e+00
  2.5727835e+00
 -3.4556315e+00
 -2.9640198e-01
  2.5841920e+00
 -9.6657068e-01
 -1.6829416e-02
 -2.6890594e-01
 -1.8519520e+00
 -2.8234558e+00
  3.2359016e+00
 -5.4918432e-01
 -9.8619908e-03
 -3.1864356e-02
  3.2343778e-01
 -1.3080648e+00
 -5.5531210e-01
  1.1292521e+00
  1.6226668e+00
 -2.4281852e+00
 -6.3782912e-01
 -1.1539546e-01
 -7.7577752e-01
  6.5842074e-01
 -4.2250839e-01
  2.7817242e+00
 -5.0617534e-01
  2.8160408e-01
 -2.1718926e+00
 -1.6862915e+00
  8.4269226e-02
  1.1660569e+00
  1.4433358e+00
 -3.7522656e-01
  5.1270986e-01
  1.4161856e-02
  8.3963744e-02
  2.2230532e+00
  1.4176787e-01
  7.9489447e-02
  4.4794115e-01
 -8.7855291e-01
  6.4740047e-02
 -1.7949098e+00
  2.2164887e-01
 -2.8578913e+00
  2.9047675e+00
 -2.8601009e-04
 -2.6631457e-01
 -2.7384958e-01
 -5.7724614e+00
 -1.1112789e+00
 -5.1993799e-01
 -3.7989156e+00
  1.2287160e+00
  2.3055062e+00
 -1.3035558e+00
 -1.8809614e+00
 -9.9695474e-01
  6.8398082e-01
  9.3744266e-01
 -4.5991647e-01
  3.5000674e-02
 -5.9045196e-01
  1.6144009e+00
  1.3585865e+00
  1.7373523e+00
  2.3665902e-01
 -2.0111697e+00
  4.3244060e-02
  3.5073652e+00
 -1.4446778e+00
 -3.1318223e+00
 -2.7072353e+00
  7.8824526e-01
 -3.6923227e-01
 -2.0581496e+00
  2.2656739e-01
 -1.1823142e+00
  1.5031352e+00
  1.1496092e+00
  3.3358517e+00
 -4.2404013e+00
  8.8309973e-01
  2.4838883e-02
 -5.6471354e-01
  1.5013422e+00
  4.1095452e+00
  7.5635545e-02
  2.8686535e+00
  2.8448899e+00
  3.2195881e-01
 -3.4641862e+00
  1.0732330e+00
  3.6852438e-02
 -3.0335361e-01
  1.9852948e-01
 -1.6504173e-01
  1.1249171e+00
  3.2392819e+00
 -2.6725030e+00
  2.1417215e+00
  2.7352552e+00
 -4.2681164e-01
 -1.2171168e+00
 -9.9712741e-01
 -1.6915718e+00
 -9.5140904e-02
  7.2300875e-01
 -3.0436759e+00
  2.0228882e-01
 -4.5043573e+00
  9.7265875e-01
  1.1888617e-01
  2.7818925e+00
 -1.0313007e+00
 -6.0963355e-02
  2.1582792e+00
  4.6569023e+00
  5.3793460e-01
 -1.1385679e+00
 -3.3766162e+00
  2.0345764e+00
 -6.8870080e-01
 -1.9381678e-01
  5.2573907e-01
  1.0819293e+00
  4.5598701e-01
  4.2031164e+00
 -2.7911472e+00
  3.5486895e-01
 -2.2320350e-01
 -1.8396634e+00
 -2.3164315e+00
  5.1288998e-01
  1.1953714e-01
  3.0252557e+00
 -5.9039805e-02
 -9.8000890e-01
 -2.7814283e+00
  8.9168197e-01
 -6.2933320e-01
 -1.6332762e+00
 -2.7301717e-01
 -2.2055553e-01
  1.5925087e+00
  1.0005150e+00
 -1.3081148e+00
 -1.6369567e+00
  1.0038699e+00
 -4.4998426e+00
 -1.3412596e+00
  1.2273152e+00
  2.9712749e-01
 -6.8882740e-01
  2.9865882e-01
 -2.2415137e+00
  3.1977596e+00
 -3.6943838e-01
 -3.7654181e+00
  2.0735493e-02
 -5.2607441e-01
  1.0137804e+00
  1.9165592e+00
  2.2965834e+00
  9.8809801e-02
 -1.8568956e+00
 -1.1531101e+00
  2.4210656e+00
  4.4062982e+00
 -3.3653691e-01
  2.8036747e+00
 -4.4242787e+00
 -2.9110959e+00
  2.8418776e-01
  1.2888762e+00
  9.5570916e-01
  5.7769012e-01
 -2.0048227e+00
  1.0105785e+00
  8.5995935e-02
 -4.0599167e-01
  1.1748468e+00
 -1.9525230e-01
 -1.2136272e+00
 -1.2334329e+00
 -1.6845727e-01
 -6.8780917e-01
 -1.4031267e+00
 -1.2648445e+00
 -2.8668547e-01
 -1.1626959e+00
  3.3817795e-01
  5.5291176e-01
 -2.4558879e-01
  6.4973354e-02
 -1.7859831e+00
  1.7718991e+00
 -4.6818754e-01
 -2.0946372e-01
  5.8044249e-01
 -3.6219120e-01
  1.6481057e+00
  7.4661100e-01
  2.7708752e+00
 -1.1479353e+00
  2.1613586e+00
 -7.5644746e-02
  2.3544476e+00
 -3.5855882e-02
  8.5061693e-01
 -3.1086525e-01
 -5.7407910e-01
 -2.5165638e-02
  7.0008785e-01
 -1.7015510e+00
 -5.4788238e-01
 -1.2046056e-02
  2.3596601e+00
  1.6546637e+00
  3.2620758e-02
 -9.7508055e-01
  3.2417645e+00
  2.7519020e-01
 -5.5634201e-01
  8.9807379e-01
  6.7229146e-01
 -1.8402578e-01
 -2.5513647e+00
  3.6903617e-01
 -3.2854903e+00
  3.2924023e+00
 -1.5475774e+00
  1.2249215e+00
 -4.8064280e+00
  2.5166798e+00
  6.4758815e-02
 -2.2829396e-01
 -2.6537056e+00
 -2.9419407e-01
 -3.0388954e-01
 -2.6920602e-01
  7.3118460e-01
 -1.4119642e+00
  5.4904312e-01
 -6.5640944e-01
  1.3248849e+00
 -1.0260183e+00
 -1.9212397e+00
  1.5087661e-01
 -8.5422391e-01
  3.5225648e-02
  1.7639962e+00
  3.8933584e-01
  7.6556355e-01
  1.4511761e-01
  4.4550195e+00
  3.0080834e-01
 -2.7372566e-01
 -3.5398081e-01
  1.2700821e-01
  9.2766708e-01
  1.0848174e+00
 -1.2433175e+00
  9.2318040e-01
 -2.2342045e+00
  1.6087372e+00
  8.5888052e-01
 -8.8062519e-01
 -3.4942958e-01
  2.9934442e-01
  1.5416079e+00
 -3.0607501e-01
 -1.0380092e+00
 -3.1271031e-01
 -1.9868396e-01
  9.3721122e-01
  4.3087978e-02
 -3.8682908e-01
 -2.2094982e+00
  5.4174298e-01
 -9.0211147e-01
 -1.4577879e-01
 -1.2697927e+00
 -8.2148886e-01
  3.0496626e+00
  4.9117056e-01
 -6.2083725e-02
 -4.6380348e+00
  2.2576816e+00
 -1.4786750e+00
 -2.1431209e-01
 -1.2105671e+00
 -1.8332057e+00
  1.6776043e+00
  2.5231867e+00
 -6.1382889e-03
 -1.4165670e+00
  1.2521029e+00
  1.9521036e+00
  7.0249125e-02
  2.0179968e+00
 -6.0204662e-02
 -3.9917898e+00
  2.0358086e+00
  2.0044620e+00
  1.0650921e-01
  1.5698507e+00
  2.3839855e+00
 -3.3770359e-01
  7.0978492e-01
 -8.6553353e-01
  1.2830504e+00
 -2.2937853e+00
 -5.0511307e-01
  4.2414269e-01
 -1.9111884e-01
 -8.3999431e-01
  1.4929662e+00
 -2.0882499e+00
  6.1898786e-01
 -1.2447107e+00
 -1.1495417e-01
 -2.2684872e+00
  1.2929195e-01
  8.1108409e-01
  4.9202036e-02
  1.2684280e+00
 -2.1673579e+00
 -2.8261950e+00
 -8.8847524e-01
 -1.2158552e+00
  1.3150960e+00
 -1.5572472e+00
 -5.1543194e-01
  4.1356802e-01
  1.1359704e-01
  2.1897001e+00
  5.4876608e-01
  7.7776510e-01
  8.5017508e-01
  4.2518821e+00
  1.3241367e+00
  1.3476778e+00
  1.2129819e-01
  5.8276516e-01
 -1.9098373e-01
  1.3471292e+00
  7.1712261e-01
 -3.3775458e-01
 -6.4554894e-01
  8.5760288e-02
 -8.4741431e-01
 -1.3345170e+00
  1.3508746e-01
  5.1058549e-01
 -1.6854793e+00
  2.4140425e+00
 -1.2559673e+00
 -1.0435788e-01
  2.0735402e+00
  3.6362240e+00
 -1.7022806e+00
  4.0320840e-01
 -6.3534814e-01
  5.6166476e-01
  8.3276814e-01
  1.3092761e+00
  7.1342164e-01
 -1.2787379e+00
  1.6645371e+00
  2.0119286e+00
  1.4744090e+00
 -1.2061927e+00
  8.2636064e-01
  1.7550247e-02
  4.0687478e-01
 -1.8709902e+00
  2.4640727e-01
 -1.7208307e+00
 -5.2519634e-02
 -3.5157427e-01
 -1.0059285e+00
 -1.1694123e+00
 -5.3295952e-01
 -1.4382846e+00
 -8.4892595e-01
 -5.4036665e-01
  4.1334552e-01
 -3.8668969e-01
 -7.1113753e-01
  1.3900578e-01
  1.8761564e+00
 -3.0875456e-01
  3.0114627e-01
  1.6321565e+00
 -2.0061939e+00
  3.2842588e+00
  7.4316758e-01
  7.4057448e-01
 -2.2191849e+00
 -1.5116413e+00
 -3.7302944e-01
  1.7865295e+00
 -1.7778876e+00
  4.7233981e-01
  3.0432911e+00
 -1.2836839e+00
 -2.2498860e+00
 -1.9541709e-01
 -1.2283263e+00
  1.0754032e-01
 -1.1346384e+00
  6.1191720e-01
 -8.3796102e-01
  5.6856883e-01
 -1.2108666e+00
  9.6847606e-01
 -3.6190655e+00
 -5.3226066e-01
 -2.7233796e+00
  4.9787182e-02
 -7.4392337e-01
  8.5255617e-01
  2.6601058e-01
 -9.8519754e-01
 -1.0177710e+00
  6.5921074e-01
  6.1365969e-02
  6.1365969e-02
  6.1365969e-02
  6.1365969e-02
  6.1365969e-02
  6.1365969e-02
  6.1365969e-02
  6.1365969e-02
  6.1365969e-02
  6.3997507e-01
  6.3997507e-01
  6.3997507e-01
  6.3997507e-01
  6.3997507e-01
  6.3997507e-01
  6.3997507e-01
  4.8960969e-01
  4.8960969e-01
  4.8960969e-01
  4.8960969e-01
  4.8960969e-01
  4.8960969e-01
  4.8960969e-01
  4.9574204e-02
  4.9574204e-02
  4.9574204e-02
  4.9574204e-02
  4.9574204e-02
  4.9574204e-02
  4.9574204e-02
  2.7057746e-02
  2.7057746e-02
  2.7057746e-02
  2.7057746e-02
  2.7057746e-02
  2.7057746e-02
  2.7057746e-02
  8.1162006e-01
  8.1162006e-01
  8.1162006e-01
  8.1162006e-01
  8.1162006e-01
  8.1162006e-01
  8.1162006e-01
