nep3 1 C 
cutoff 7 4 185 36
n_max 10 8
basis_size 10 8
l_max 4 2 0
ANN 50 0
 -9.3593035e-06
  7.1848136e-01
  3.4095621e+00
 -5.9834037e-02
  1.6429818e+00
  6.8204992e-02
  1.3707695e+00
  7.5340949e-02
 -1.8514907e-04
  6.4107284e-02
  1.9553898e-01
 -8.9340889e-01
 -2.0190606e+00
 -8.7182248e-01
 -9.3918514e-01
  1.1418854e+00
  1.4367299e-02
  1.5570557e-01
 -1.2505555e-04
 -4.3179035e-01
 -5.8868813e-04
 -3.0013463e-01
  7.9071534e-01
 -6.0636872e-01
 -1.9969063e+00
  8.2206041e-02
  2.2754854e-01
  1.8895373e+00
 -4.4572729e-01
 -7.6005298e-01
  8.2910364e-04
  2.4484675e+00
  1.2527235e-01
 -3.2261105e+00
  1.8030658e-03
  2.2496895e-01
 -2.2458014e+00
  8.4975410e-01
 -8.3189264e-02
  1.0256902e+00
  1.2417883e+00
 -2.5496426e-01
  1.4341449e+00
 -4.1796429e-06
 -1.6112387e+00
 -1.9073138e+00
  1.2131135e+00
  3.6768797e-05
 -9.6051091e-01
  4.0502447e-01
  1.1949939e-04
  1.2437736e+00
 -1.8831863e-05
 -1.1512384e-04
 -9.2143607e-01
  1.2340581e-04
  9.3158746e-01
  3.4066841e-01
 -8.3448350e-02
 -2.7564320e-01
 -1.0194842e+00
  8.8847506e-01
 -2.2808340e+00
  1.1783158e+00
 -1.7166736e+00
 -2.6437864e-01
 -8.2388926e-01
 -3.5028849e+00
 -1.0212262e+00
  1.6659142e+00
  7.8632277e-01
  1.6952502e-02
  3.5488911e+00
  1.6896148e+00
  2.7415586e+00
  1.3859417e-01
 -1.4063004e-01
 -2.5595489e+00
  1.4712006e+00
  1.5725224e+00
 -5.1455843e-01
  8.3085662e-01
 -1.1021010e+00
  7.1025741e-01
 -2.9314184e-01
 -2.3069342e-03
 -8.4538716e-01
 -3.6678788e-01
 -4.7821537e-01
 -7.8602707e-01
 -1.0017003e+00
 -3.1571126e-01
 -1.4997771e+00
  5.5481273e-01
  4.9238202e-01
 -6.9417948e-01
 -4.5646369e-01
  1.3029027e+00
 -8.9380896e-01
 -9.3587325e-05
 -5.7984275e-01
 -1.9622378e+00
 -6.4130497e-01
  5.4918694e-01
 -6.3967025e-01
  2.7116923e+00
 -2.6019737e-02
  1.0638133e+00
  1.0131464e+00
  1.3867539e-01
 -5.2386086e-02
  1.3972111e+00
 -3.5292313e-05
 -8.4837967e-01
  1.1548792e+00
 -1.6366966e+00
 -2.3549889e-01
  9.5518577e-01
 -1.0070523e+00
  1.0583506e+00
  2.3030013e-01
  2.3886350e-01
 -1.8012789e+00
  2.1049692e-03
 -6.0483336e-01
  3.9572256e+00
 -4.7434881e-01
  1.9687841e-02
  4.0968832e-01
  4.1734200e-02
  1.3873160e-03
 -1.7040515e-02
 -1.2893912e-05
 -1.3520913e+00
  1.3635232e+00
  2.6556519e-01
  3.2434087e+00
 -8.5673350e-01
 -1.4408898e-05
 -1.0953197e+00
  1.1845449e-01
  6.8775274e-02
 -3.6352977e-01
 -1.5938500e+00
  1.3947667e+00
  1.7664744e+00
  9.1470492e-01
  7.5634158e-01
  1.9009223e+00
  1.3177940e-01
 -1.6952057e-01
 -1.1008339e-01
 -3.1857968e-03
 -7.2905183e-01
  2.6961195e+00
  3.9899796e-01
  2.7584596e-02
 -7.3736347e-02
 -1.5014188e+00
 -2.9184854e-05
 -1.6327482e+00
  5.0383043e-01
 -3.4892927e-03
 -9.9302351e-04
 -3.0376541e-04
  6.7714020e-05
 -4.0774098e-01
 -2.2029536e+00
  4.5015404e-06
  4.0571886e-05
 -6.0711847e-07
  3.2416853e-04
 -9.9777728e-03
  6.0489179e-05
 -4.7547586e-02
 -2.1851258e-05
 -4.8842863e-05
  2.7788263e-05
  1.4570974e-03
 -6.6743174e-05
 -1.1309849e-02
  5.6467380e-04
  7.4679101e-06
  8.2743543e-05
  9.3077585e-07
  1.5565380e-04
  7.3317606e-06
  2.1783870e-02
  4.3233194e-05
  1.7663320e-05
  5.4552877e-01
 -8.4420323e-02
  1.9292206e-02
 -1.9232362e-05
  8.5603778e-04
  5.3698561e-05
  1.0873643e-04
 -1.2517379e-06
  3.3027201e-04
  7.9263009e-02
  3.9227065e-03
  2.8335951e-05
  3.2428413e-06
 -1.4371557e-04
  3.8286608e-02
 -6.0073212e-03
 -1.6520135e-04
  6.8378766e-05
  2.2827927e-04
  4.9856342e-05
  5.3871707e-05
 -1.4257363e-04
 -7.3420303e-04
  6.4895544e-03
  1.5997397e-02
  1.9053787e-05
 -4.8946380e-04
 -2.2390322e-04
  1.8749188e-07
 -6.7467809e-05
  2.4499499e-05
  9.7338198e-06
  1.1816587e-02
 -6.8841509e-05
  6.5574204e-07
  6.9854237e-02
  4.7307702e-05
  5.4013153e-06
 -3.1308606e-05
 -4.9053448e-05
 -1.7513281e-05
  2.3132040e-06
 -2.6225192e-05
  2.6279063e-06
  7.3651951e-05
  2.7067122e-06
  1.9011430e-05
 -4.7249250e-07
  1.0077660e-04
  7.9531288e-05
  1.1276222e-06
  1.1441961e-04
  7.8960831e-05
  1.4602293e-01
  6.8897985e-05
  2.8944865e-05
 -1.3746235e-05
  4.2577472e-04
  1.2984557e-05
 -3.8618577e-06
 -1.0109678e-05
 -1.0070804e-05
 -4.1867832e-05
  6.8141948e-05
  3.1107858e-05
  2.1618581e-04
  2.9761394e-04
  9.6174754e-06
 -9.2785940e-06
 -3.3048436e-05
  8.4149890e-02
 -1.3946593e-05
  8.3186897e-06
 -1.7632143e-05
  3.2404674e-05
 -2.1230855e-05
 -5.1244730e-05
 -4.6153087e-07
 -2.1595907e-04
  1.6981104e-03
  2.3203947e-06
  8.6601067e-06
 -1.4503417e-05
  1.8640012e-05
 -3.9013375e-05
 -8.0480888e-05
  1.2130095e-05
 -6.1216670e-06
  8.8213883e-06
 -2.1668047e-01
 -3.7825885e-06
  5.1767161e-06
 -1.0724728e+00
 -3.6643793e-05
 -9.8051012e-02
 -4.2518591e-06
 -6.6647291e-01
  1.1095130e-05
 -6.1545206e-06
 -3.9137944e-05
  7.0277363e-01
  1.5149121e-06
 -1.6850716e+00
  1.2364794e-06
 -6.2918240e-01
  1.8485614e-06
  8.1980634e-01
  4.0749321e-05
  3.6354486e-05
  1.6835518e-01
 -4.2517699e-05
 -9.0784438e-02
  3.4608027e-01
 -7.0120908e-02
  8.3156377e-03
 -5.7153109e-05
 -4.0954379e-07
 -9.9780813e-02
 -7.2457796e-01
 -2.8939958e-05
  2.1544120e-01
  5.7705805e-05
 -4.8977000e-01
 -1.4198031e+00
 -6.6228691e-05
 -1.5612439e-05
  3.0122213e+00
 -7.4555719e-01
  1.2980673e-06
  2.7772358e-02
  5.2892527e-04
  5.8404166e-06
  4.9687359e-01
 -5.5647956e-07
  3.2539294e-05
 -9.8178017e-01
  5.0823875e-02
  1.2431115e-05
 -9.5212102e-01
  4.5001906e-01
  4.8791502e-05
 -8.7409087e-02
  3.9715487e-06
 -3.7997746e-05
  1.8286024e-05
 -4.6344829e-01
  8.3365630e-05
  1.0408853e+00
  1.0097346e+00
  8.6345845e-01
 -5.0018650e-01
  3.1712359e-01
 -1.0299129e-01
  1.5525746e+00
 -5.8687321e-04
 -1.3118290e-06
  2.7990118e-03
 -4.5321018e-02
  8.1596836e-02
  6.0370382e-02
  1.0480083e+00
 -2.1298734e-02
 -2.0328365e-01
  3.5849109e-04
 -5.8376914e-01
  1.3186846e+00
  4.3696320e-01
  1.2750587e-01
  1.3328336e-01
  8.0899072e-01
  1.7468050e+00
  9.3703926e-01
  7.9126334e-01
  5.1544291e-01
  5.5070329e-01
 -8.8566191e-02
 -4.3485835e-01
  1.8220833e-01
  8.0864817e-01
 -2.4332589e-01
  6.6518602e-05
 -4.9303187e-04
 -1.3109739e+00
  1.2634139e+00
  1.1202371e-02
  1.1601436e+00
  1.6016904e-02
  7.0229715e-01
 -7.5155742e-02
 -8.5760081e-01
 -1.2678232e-03
 -9.0924338e-02
  1.2573968e+00
  1.0890292e-04
  6.4533001e-01
 -1.2493966e+00
 -1.3686836e-04
  2.6820573e-01
  2.0196238e-03
 -4.8679034e-05
  1.3053534e+00
  1.4202620e+00
 -4.7416095e-05
  1.7018018e-06
  4.3452768e-05
 -4.0990813e-06
  9.5490132e-06
  5.4453903e-06
  2.9332321e-05
  1.7056700e-06
 -1.7023518e-05
  9.9743911e-06
 -2.5738351e-04
  6.8128102e-05
 -1.0517060e-06
  3.2355158e-06
 -1.0723084e-05
 -1.4806909e-05
  1.3534132e-05
 -4.0938907e-05
 -2.1251564e-05
 -7.9789437e-02
 -2.1176425e-06
 -3.2702730e-05
 -6.1744548e-05
  1.6190259e-05
 -1.1297627e-05
 -5.8582827e-05
  1.6798158e-06
 -1.6849619e-05
 -1.3065435e-05
 -1.7804918e-05
  5.6274330e-06
 -8.7880682e-05
 -2.1829597e-05
 -5.2647088e-06
  1.6017002e-05
 -1.5475054e-05
  5.3285254e-07
  7.6675769e-06
  1.3455554e-04
  2.2675837e-05
 -6.9777702e-06
 -9.2623646e-05
 -1.3364358e-04
  1.9774119e-05
  6.8079185e-05
 -8.9975947e-05
 -6.3836706e-06
  6.1694486e-06
  6.5474436e-05
  3.4457717e-05
 -1.1160498e-04
  4.5808051e-06
 -9.6642430e-07
  5.9335700e-05
 -1.2573239e-05
 -1.7009054e-08
  6.7915964e-01
 -7.1783382e-01
  8.7168169e-01
  2.5479219e+00
  2.7609127e+00
 -1.2865428e+00
 -6.9604111e-01
 -3.0795677e+00
  4.1930020e-01
 -2.3975875e+00
 -1.7708911e+00
 -1.7386509e+00
 -3.6895819e+00
  7.1523690e-01
 -5.8213413e-01
  1.5215068e+00
  2.8322320e+00
 -1.0079713e+00
  4.0784935e-03
 -5.9386301e-01
  1.6029908e-01
  2.1712337e+00
 -2.1205163e-01
  3.7594724e-02
  2.6606974e-01
 -2.7090936e+00
 -1.1568568e-05
  4.9323386e-01
 -2.2515550e+00
 -1.0225662e+00
  1.1462779e+00
  1.0440836e+00
  3.7356731e-01
 -1.4268463e+00
  6.1459716e-02
  9.5811802e-01
  2.0348287e-01
  4.3791071e-02
  6.6665310e-01
 -2.6064882e-01
  9.8281896e-01
 -4.0079594e-01
 -2.9633376e-01
 -3.2141185e-01
  2.0635329e-01
 -1.2828847e+00
 -2.7996000e-02
  1.5178783e-05
  1.8195142e-01
  9.0296045e-02
  1.5192537e-05
  2.3751643e-01
 -1.5519030e+00
 -1.6337985e-05
  1.0017890e-01
  8.4039545e-01
  7.4921769e-01
 -8.5647333e-01
  2.1065636e+00
  1.8492260e+00
 -1.8802506e+00
  9.2847186e-01
 -1.3508056e+00
 -1.8288034e+00
  1.2427545e-04
 -4.7252157e-01
 -6.0338491e-01
 -2.9481080e-04
 -7.8421187e-01
 -1.6295898e+00
 -8.9627278e-01
 -7.3824227e-01
  2.1507239e-02
  1.4941111e+00
 -6.5198436e-02
 -1.7943127e+00
  6.0611564e-01
  1.0786537e+00
 -9.3537346e-02
  1.3998172e+00
  4.9411628e-01
  4.5304623e-01
  9.5546782e-02
  4.6442512e-01
  6.6624987e-01
 -4.8943520e-01
  2.1878643e+00
  9.1816086e-01
 -3.1016173e+00
  5.5766273e-01
  2.1305786e-01
 -5.5730146e-01
 -1.8573712e+00
  1.3959528e+00
  5.9306778e-05
 -1.1236271e+00
 -6.1800909e-01
 -1.9009101e-01
  1.5352002e+00
  2.2895561e-01
 -9.0595901e-01
  1.5268822e+00
  1.7039067e+00
  9.5404290e-02
 -1.2111572e+00
 -5.0505187e-02
 -1.6018336e-01
 -1.8681035e+00
 -8.6828395e-06
 -2.0486593e-02
  2.0025481e-01
 -1.8078220e+00
 -2.6804941e-05
  5.5504779e-06
  1.8966746e-05
  4.2487940e-05
 -1.5865273e-05
  1.6812308e-05
 -2.2087270e-05
  9.9657063e-06
 -2.6008116e-05
 -3.4997407e-05
 -3.6111585e-05
 -4.2153875e-05
 -4.9548335e-06
  1.6326267e-05
 -3.1838465e-06
  6.7618766e-06
 -1.1901222e-05
 -2.2861957e-05
 -7.0234755e-06
  9.8383980e-06
 -1.3680912e-05
 -1.2893066e-05
 -3.6665580e-05
  8.2627594e-05
  2.9226121e-05
 -4.0351856e-06
 -3.8393107e-05
 -1.1243342e-05
  6.7443791e-05
 -4.2963118e-05
 -7.3587730e-06
 -1.1961140e-05
 -2.7699355e-07
 -1.2102133e-05
 -1.4930260e-05
 -3.0482863e-07
  4.5836887e-06
  9.5589394e-06
 -7.2203824e-05
  1.0146397e-05
  7.5153701e-05
  1.1254437e-05
 -8.5473093e-06
  2.0373995e-05
  1.2167629e-04
 -1.3474823e-05
 -1.1079675e-05
 -1.5458025e-05
  8.8498058e-07
  4.8289817e-06
  4.2533837e-05
  1.3998708e-04
 -5.0869066e-06
  1.8768795e-05
  4.9996015e-06
  2.4030394e-05
 -3.7868296e-05
  9.6115160e-05
 -4.0482178e-02
  9.8161090e-06
 -7.6778575e-05
 -4.9156508e-05
  2.6015991e-03
  4.8255956e-06
 -2.5391841e-05
  1.0333271e-06
 -7.6625984e-06
 -1.2999903e-05
  1.4676956e-02
  1.2640557e-01
 -7.3953735e-05
 -2.4172601e-05
 -1.3100978e-02
 -8.9513342e-06
  8.6574473e-06
  3.7552550e-04
 -6.0697930e-05
  4.5840925e-01
  3.3000097e-02
  7.0042402e-04
 -8.1034061e-03
  7.5189635e-02
  2.8509870e-05
  2.2112989e-01
  2.1881765e-01
  1.6507953e-04
 -1.4619486e-01
 -5.0777823e-01
 -4.2163625e-01
 -9.3719000e-01
  1.3086804e-04
  8.8704155e-06
 -2.3552133e-05
 -3.4316090e-01
  1.0675200e-05
 -1.7728053e-05
  3.2669694e-05
  1.0165815e-05
 -1.0152026e+00
 -5.6056574e-06
  6.7703127e-06
 -1.0649050e+00
 -2.8016961e-05
 -6.8481818e-06
  7.2859577e-04
 -2.9471976e-05
  5.1866533e-05
 -1.1035125e-05
  4.6233265e-05
 -3.7498965e-05
 -2.2162628e-01
  5.0016199e-05
 -1.8859975e-01
 -6.7247041e-02
 -2.9708084e-01
 -6.3028550e-01
 -9.9004164e-02
 -4.3760142e-01
  3.3970293e-01
 -2.3838757e-01
  5.8751181e-03
 -3.0881330e-01
 -1.1225057e+00
 -3.6149219e-02
  4.9139407e-01
 -3.2993031e-01
 -1.0551835e+00
 -1.1640754e-01
 -9.7773725e-01
 -3.6188369e-03
  2.7237564e-01
 -1.9945528e-01
  5.6923158e-02
 -6.3118887e-01
 -1.8070574e-01
  3.1788085e-02
  4.3379329e-03
 -8.4511912e-01
  1.0080036e-01
 -1.1134673e+00
  9.2803594e-03
 -1.4289993e-02
 -5.1256406e-01
 -2.2143385e-01
  1.1910278e+00
 -5.5813547e-02
 -4.6435624e-01
 -1.1669315e+00
  9.4689947e-01
  2.2777359e+00
 -4.1926061e-05
  6.3344194e-03
 -1.1520995e-01
  2.1299089e-01
 -2.7247787e-01
 -6.5353251e-01
 -8.5383105e-01
  7.7787644e-01
 -1.5716408e-03
 -3.7017977e-05
 -4.9121298e-02
 -5.3928328e-01
  4.4697863e-05
 -3.4046507e-01
  2.3580827e-05
 -7.7167831e-02
  9.8933496e-02
 -9.2136934e-03
 -5.9360519e-02
  6.5100682e-01
 -4.3944919e-01
  8.5574567e-02
  4.8253196e-01
 -2.1002318e-01
  9.8269567e-02
  1.0497327e-04
 -4.9712611e-03
  2.2096498e-05
  1.0638026e-01
  2.8814668e-02
  7.0020890e-01
  5.7908583e-01
 -4.8626509e-01
 -2.3795156e-01
  1.3614394e-05
  1.4265395e-05
  3.4200788e-05
  1.1989214e+00
  2.2483147e-04
  1.0149961e+00
  3.6585304e-01
  8.5597998e-03
  1.5766919e-01
  5.1636291e-01
 -6.5012234e-01
 -4.3911183e-01
 -5.5765260e-02
 -3.4971337e-05
  5.5206310e-06
 -3.0707759e-01
 -4.2701581e-01
 -3.0609378e-01
 -1.0982434e+00
 -1.3485034e-01
 -3.0643263e-01
  6.8665665e-01
  5.9023809e-01
 -2.3523028e-01
  8.8111032e-05
  1.3696855e+00
 -3.0241078e-02
  1.3531491e-04
  2.7847993e-03
  7.1694392e-01
  1.1773511e+00
 -4.0095401e-05
  8.7656248e-01
 -3.6533803e-02
  3.9119418e-03
  2.7966636e-01
  1.6189964e-05
  2.0309602e-04
 -3.8440039e-06
 -7.4127674e-02
 -1.1482039e-04
  3.5430316e-05
  6.1826149e-06
  2.7305200e-06
 -1.0092715e-05
  4.0719406e-05
  1.0961468e-05
  4.1003779e-05
 -1.2799777e-05
  6.7302331e-05
 -1.1905281e-05
  1.3917884e-05
  3.5973442e-06
 -1.2340464e-05
 -4.2765203e-07
 -2.4911884e-05
  1.5434840e-05
 -3.2814723e-06
  1.4378572e-05
 -4.3715234e-05
 -2.6356840e-05
  3.8432769e-05
  1.6583626e-05
 -4.2078473e-06
  4.2946423e-05
 -8.0160926e-06
 -1.5801952e-06
 -7.3995452e-06
  5.4211414e-05
  2.7307802e-05
 -1.8179997e-05
 -2.2203840e-05
 -2.9245724e-05
  5.5813955e-05
 -7.3464980e-07
 -4.1974348e-05
 -1.6498730e-05
  6.3354601e-05
  3.9271576e-06
 -7.6988079e-05
  1.1159334e-06
 -1.6323636e-06
 -1.1592967e-05
 -4.3698565e-06
  3.7428581e-05
  1.4995122e-05
 -7.0447131e-06
  1.1973579e-05
 -1.8099863e-05
  5.7772204e-06
 -1.3503455e-05
 -2.1327965e-06
  9.9061017e-06
  9.0721969e-06
 -9.6776239e-07
 -3.6549000e-06
  2.3585364e-06
 -1.4687546e-05
 -4.3054144e-05
  1.2631819e-05
  1.1700561e-02
 -1.5924151e-04
  1.1491533e-01
 -5.0500385e-06
 -9.5937350e-05
 -1.1246338e-05
 -1.4814915e-05
  2.7512238e-05
  2.4069322e-03
 -3.1189645e-02
 -3.9432492e-02
  1.6079053e-01
 -8.3492843e-05
 -9.9621214e-02
 -9.8460296e-06
 -8.5248789e-03
  1.8739023e-05
  4.9402447e-06
 -2.1982658e-01
  2.0941337e-05
 -1.9463310e-02
 -1.5724176e-05
  9.1624470e-06
 -9.4662691e-06
 -1.8105207e-03
 -1.8749430e-05
 -8.3447874e-01
 -1.2311637e-01
 -1.7466719e-01
  8.7321923e-06
 -9.9134259e-06
 -4.2576130e-07
 -2.4527979e-01
  3.3652088e-01
  1.4801748e-05
  1.1386732e-05
 -1.4112312e-05
 -1.5907321e-07
  1.1572762e-05
  7.2073322e-05
  8.0976688e-04
 -5.2397035e-02
 -2.1860498e-01
 -1.5179035e-06
  2.8012579e-05
  4.3409880e-05
 -8.1111815e-05
  1.3743584e-04
  1.8862838e-06
  1.9934170e-05
 -1.9172359e-02
  4.1283292e-05
 -7.3083494e-05
  5.0996259e-06
 -4.8101737e-04
 -7.0159425e-05
  2.0657561e-05
  1.0544138e-06
  7.4038639e-06
  3.8959479e-05
  7.2370487e-05
 -3.0535397e-05
 -1.2139365e-05
  4.1171934e-05
 -7.2333605e-05
 -1.6957863e-05
 -1.7339845e-01
 -7.2261469e-06
  1.0526795e-05
 -9.5985903e-05
 -3.8582617e-05
  4.8213060e-06
  1.5887686e-05
  3.4343182e-05
 -2.2809423e-04
  2.5136882e-05
 -3.1988693e-05
 -8.6682066e-06
  1.3657671e-05
  7.7607019e-06
 -7.6555596e-05
 -2.2205995e-05
 -4.3745764e-05
 -1.4502351e-03
 -7.7855357e-06
  6.7649431e-05
 -9.1188913e-06
  2.5531895e-06
 -2.0644889e-04
  6.4343098e-05
  1.0813807e-04
 -9.7909367e-05
 -2.6871468e-05
 -4.8872312e-06
  1.1075351e-05
 -2.4632316e-06
  9.0484784e-05
 -1.2330056e-04
  4.2429756e-06
 -1.5275846e-06
 -1.2630965e-05
 -1.3978692e-05
 -8.8749011e-06
 -1.2001974e-06
  9.5510535e-05
  8.0014870e-06
  4.2036008e-05
 -1.1127379e-05
  7.6701268e-05
 -3.2920718e-05
 -1.2452574e-04
 -7.6708922e-05
  9.3640825e-05
 -3.6367001e-06
  1.2907326e-05
 -2.6887994e-05
 -3.3232507e-05
  1.3736886e-05
 -4.7831135e-04
  1.1783472e-04
 -1.4462108e-04
  5.0476465e-05
 -4.7113193e-05
 -6.3123451e-05
 -9.3975767e-05
 -3.0457798e-01
  5.7015541e-06
 -4.8853297e-02
  4.7310274e-05
 -6.7829664e-05
 -3.6864921e-03
  5.3253447e-05
 -6.1871833e-04
 -1.5639827e-04
 -8.6519263e-05
 -7.6638389e-04
 -4.1909821e-04
 -7.7895456e-06
  7.9819140e-05
 -3.9736807e-02
 -5.8804541e-03
 -3.6496273e-05
  3.6401612e-05
 -9.6723243e-06
 -2.1213467e-01
  1.6350192e-01
  1.2214144e-04
 -6.1313745e-05
 -1.4808027e-05
  2.8243290e-05
 -1.3739150e-05
  1.1794259e-05
  1.0284611e-05
 -9.0421026e-04
  2.4299779e-05
 -3.6882786e-05
  2.5054839e-04
 -1.4186085e-05
 -1.1060903e-05
  1.0819781e-05
  8.2927181e-06
  7.2642877e-05
 -9.6079282e-05
 -1.3011416e-05
 -1.2252568e-01
  3.0056033e-01
  4.6418461e-01
  6.9105726e-01
  7.2728600e-03
 -1.9034667e-02
 -4.8257998e-06
 -8.0928999e-01
  4.3759221e-05
 -2.1072659e-01
  9.8129570e-01
 -2.2882952e-05
  1.9130085e+00
 -8.3408833e-02
  1.6804671e-01
  1.1444120e+00
  1.1141955e-01
 -1.3182000e-05
 -2.3556501e-01
  6.2904395e-02
 -2.8925640e-05
  1.0123913e+00
 -7.5320989e-02
 -9.6346617e-01
  7.7588832e-01
 -6.0134578e-01
  6.6593969e-03
 -1.8187594e-01
 -4.6192589e-01
  1.6316917e+00
 -8.4029794e-01
 -1.5906322e+00
  6.8942726e-01
  3.8129166e-01
 -8.3501294e-02
 -8.0914900e-02
  1.1503426e+00
 -8.1544304e-01
 -1.9001341e-06
  2.8745912e-06
 -1.7569266e-02
  1.0647900e-05
  4.5505803e-02
 -1.2883584e-01
 -3.9435482e-01
  4.5882232e-02
 -1.1006852e+00
  3.2146556e-05
 -2.3480766e-01
 -8.0989999e-01
  1.1270492e-04
 -6.4640200e-01
 -7.0838596e-06
 -3.1696819e-02
  5.2852690e-01
  4.0983269e-01
  1.4317343e-05
 -1.3559527e+00
 -7.6661092e-01
 -6.4446140e-05
  4.8904169e-01
  2.6276624e-05
  8.7096810e-02
  3.1688068e-02
 -8.1886268e-05
  5.4845783e-05
 -1.4912446e-05
  6.3017142e-01
  6.8000174e-01
  5.3580946e-01
 -3.0650895e-02
 -1.4801996e+00
  7.9615086e-01
  1.1163185e-01
  2.0251111e-05
 -7.4042130e-01
  3.5995927e-01
  1.4715008e-01
 -1.0009493e+00
 -6.7989231e-06
  2.9490713e-04
  1.6133462e+00
 -1.0611526e-03
  3.8743568e-05
  7.9243135e-01
  7.4100226e-01
  1.0258387e-01
  1.5068654e+00
 -5.8718909e-02
 -8.7383837e-01
 -1.7636053e-01
  7.7584916e-01
 -2.5113692e+00
  3.3102125e-01
  5.0680125e-01
 -5.1437221e-03
 -8.5249740e-01
 -3.6520392e-02
 -1.3249087e+00
  4.4414850e-05
  2.2501918e-05
  1.9225308e+00
 -1.8330687e+00
  4.4668950e-06
 -1.0437716e-04
  4.6851683e-01
 -4.7185122e-06
  2.8408337e-03
  1.0494768e-04
  2.1858277e-06
 -1.9295140e-04
 -6.3806772e-01
  7.6679885e-01
 -5.6913677e-03
  5.4914075e-01
 -8.5781085e-01
 -3.4451542e+00
  2.0808791e-01
 -2.9672754e-01
 -3.0095786e-01
 -2.9089233e-01
  3.6105106e-08
  2.8665036e-02
 -1.2586349e-01
 -6.3660175e-01
 -3.1527191e-01
 -1.1590823e-01
 -8.5343316e-02
 -8.4729731e-01
 -1.2598034e-04
  9.9691731e-01
 -1.7153248e-01
  1.2613790e+00
  1.8660478e-02
 -1.4086131e+00
 -1.3375093e+00
  1.4559874e-01
 -5.2198917e-01
 -1.4591669e-01
 -2.5860682e-02
 -1.8326139e-01
  4.4771302e-01
  1.8631837e-01
  1.0071230e+00
  5.8014172e-01
  5.5723423e-01
  4.6267828e-01
 -1.4828420e-02
 -3.5110551e-01
  5.3304130e-01
  1.4798296e-05
 -6.5282786e-01
  1.0409457e-04
 -1.6714097e-05
  6.3029206e-01
  5.9858069e-02
  6.0960072e-01
  8.1728823e-02
  9.4727045e-01
  2.7644157e-05
 -3.9127469e-01
  1.5730613e-01
 -3.6863180e-06
 -1.9704705e-01
  8.1178665e-01
  6.4165241e-01
 -7.1401113e-01
 -4.6572532e-06
  1.1386404e-04
  1.4088400e-05
 -2.3473121e-06
  2.6665035e-05
  4.1711661e-05
  3.2514945e-05
  7.2909184e-05
 -2.9340174e-05
  5.1617561e-05
 -7.0583294e-05
  1.1687662e-05
 -6.8792151e-06
  1.0691620e-05
  8.3694358e-06
 -1.3473511e-05
  3.6247307e-05
  2.1330896e-04
 -7.1977025e-05
 -8.9647083e-06
 -5.4553839e-06
  1.1685186e-06
 -4.7286896e-05
  9.7533857e-06
  7.2606608e-06
  4.8658394e-06
  6.0456109e-06
  2.4930276e-05
  3.8490747e-05
 -2.1150829e-05
 -8.6213970e-07
  5.9853014e-06
  5.1835505e-06
 -2.0653009e-05
  3.5938112e-06
 -6.4668211e-06
  5.0510102e-06
  2.5002955e-05
 -2.8755194e-06
 -5.2494793e-06
  1.1931877e-05
 -1.6311744e-06
  1.0619122e-05
 -1.2978101e-05
 -1.1441796e-05
 -5.9698770e-05
 -6.8037043e-06
  7.7312316e-06
  3.4516193e-05
  4.4709042e-05
  1.4032921e-05
 -1.6539001e-05
 -1.0302595e-05
  9.8414239e-07
 -1.0548893e-05
 -1.4323232e-05
 -5.7810099e-05
  6.8208373e-01
  3.4623329e-02
 -8.5316133e-01
 -7.3277064e-02
 -2.2871218e+00
 -9.7607183e-01
  8.1381398e-01
 -3.9493725e-01
 -6.5265924e-01
 -6.5984124e-01
 -5.4450428e-01
 -8.4628516e-01
 -6.9316614e-01
  1.7861432e+00
 -8.1693447e-01
  1.5965453e+00
  1.7290161e+00
 -1.4220060e-01
  8.0155635e-01
 -2.1963568e+00
 -1.9387383e-04
  3.6340648e-01
 -2.4875674e-01
 -2.6626270e-03
 -5.3235215e-01
  1.0717682e+00
  3.0216777e-01
  2.2506531e-01
 -4.6023262e-01
  1.1884954e-01
 -1.8524979e-01
 -2.5113623e+00
  5.1588404e-01
  1.1102960e+00
  3.9884573e-01
 -1.8049181e-01
 -7.8321856e-01
  5.7137966e-02
  5.0383276e-01
 -1.1163524e+00
 -6.7955440e-01
 -4.3557438e-01
 -3.7317969e-02
  2.5240082e-01
 -1.0026573e+00
 -8.5060495e-01
  3.0007708e-01
  5.8061749e-01
 -9.3891536e-04
 -1.2876630e+00
  4.5527196e-01
  5.7091113e-02
  6.0630149e-01
 -5.5750210e-02
  1.2266992e-01
  3.2135645e-01
  6.2457855e-07
  4.5551478e-05
  7.8192652e-06
  1.4753435e-04
 -4.7922571e-05
 -7.3288829e-05
 -2.0470761e-05
  7.6050899e-05
  5.6731910e-06
 -5.7549587e-05
 -4.2465504e-06
  4.8838547e-06
  7.0299975e-06
  3.0593736e-05
  6.6455218e-06
 -1.7241484e-05
  1.5756870e-05
  7.5591038e-06
 -5.7483544e-06
  9.3349525e-05
 -7.3211422e-06
  1.1301990e-05
  8.5034126e-06
  3.2582357e-05
  9.2028013e-06
 -6.8680356e-06
 -7.3096821e-06
  1.2540849e-04
  1.3694950e-05
 -1.5556208e-05
  1.0778939e-05
 -8.7756107e-06
 -9.2194032e-06
  8.5720712e-06
  2.6986556e-05
 -4.3721710e-05
  1.4551580e-05
 -5.2202722e-06
  3.5670822e-05
  3.9028495e-05
  3.5384939e-05
 -3.7125199e-05
  4.5977449e-05
 -1.1437035e-05
 -3.3260996e-05
  6.3365398e-05
 -1.4072963e-05
 -1.3694198e-05
  1.3159125e-06
  6.1104797e-06
 -1.1546355e-05
 -9.4807685e-05
 -7.5911867e-06
  1.4850653e-05
 -1.9369642e-07
  1.5000372e-04
  1.1977981e+00
 -9.6591616e-01
  1.2254539e-03
 -5.6024516e-01
 -2.2535269e+00
  4.3599644e-01
  1.9484526e+00
 -7.1570373e-01
 -9.0743859e-05
  7.1249437e-05
 -2.2799222e+00
 -1.1411401e-01
  2.7512245e+00
  2.1943112e-01
  2.5331205e-01
 -1.5134377e+00
 -9.1609061e-02
  4.0969762e-01
  2.6207542e-04
 -1.0629956e+00
  1.6302442e-05
 -1.3130249e+00
 -1.9151278e-01
  8.0768037e-01
 -1.5440888e+00
  4.8261467e-01
  6.8431679e-04
 -6.4954132e-01
 -1.6132621e-02
 -9.6314296e-05
  2.3519193e-01
 -3.4437597e-02
  2.2080061e+00
  2.2180220e-01
  1.0290823e-05
  8.4299099e-06
 -1.9022065e-01
  8.6073065e-01
 -1.5737179e-01
  4.3542656e-01
  4.4514935e-02
 -4.5273438e-02
 -7.0835061e-02
  2.3503331e-05
 -9.5798719e-01
 -4.8889363e-01
 -4.1157877e-01
  8.9391842e-06
 -5.1148278e-01
 -8.0904967e-01
  6.0852954e-06
  3.9965227e-01
 -4.0451232e-05
 -6.3831736e-05
  6.9487536e-01
  5.5815929e-01
  3.7971396e+00
 -1.2856793e+00
 -1.9734403e+00
 -5.9068149e-01
  6.7913651e-01
  2.4249530e-06
  1.6088560e+00
 -2.0786824e+00
 -1.4783033e-03
 -9.5519856e-05
 -3.0178149e+00
  4.7610632e-01
 -1.4157901e+00
  3.7278447e+00
  6.1472226e-02
 -7.9265463e-01
  1.1455716e+00
  2.3563521e-01
 -1.6404818e+00
 -1.2549121e-02
  7.1617236e-05
 -2.8437810e+00
  3.9318421e+00
  3.4391064e-02
 -1.0233737e+00
  1.3609666e-01
  1.6811618e-01
 -2.1413083e-01
  2.7178617e+00
  1.9194287e-01
  6.0145319e-02
 -1.4704355e+00
  1.4958025e+00
 -8.2221694e-02
  9.5867014e-01
  3.9666921e-01
 -9.1576874e-02
 -1.6701280e+00
  6.3373673e-01
 -3.2603963e-05
 -5.1174361e-02
  1.8682715e+00
  6.7901093e-01
 -9.2043900e-01
  6.8676841e-01
 -1.0189610e-01
 -1.4855419e+00
 -4.3457610e-05
  6.6003926e-02
 -8.4606308e-01
 -4.6016878e-05
  8.0975387e-06
 -9.9846133e-05
  1.0720793e-01
 -1.2686141e-01
 -2.0387694e-01
 -1.1738051e+00
 -7.5787514e-02
  2.9906434e-01
  1.8416581e+00
  1.4407277e-01
 -4.4582632e-01
 -2.8840022e-05
 -3.7715411e+00
  2.6498121e-01
 -8.1558170e-04
  7.2566366e-01
 -4.9845595e-04
 -2.3666601e+00
  1.2221236e+00
 -1.1059190e-05
 -9.6468881e-02
 -2.5374940e-01
  8.7838143e-04
  1.4021256e+00
  3.1862730e-01
 -3.8568425e-04
 -2.5451705e-01
  6.7470509e-01
  8.4536001e-03
  5.1369232e-01
 -8.7856883e-01
  1.7263421e-05
 -1.2289941e-01
 -6.6590762e-01
 -1.2679400e-01
  8.9878982e-01
 -1.5040897e-01
  2.1050088e+00
  2.2323269e-01
  1.8322803e+00
  1.1980655e-01
 -1.6612369e+00
 -3.9493628e-02
 -6.1751455e-01
  8.4713709e-01
  1.2440764e+00
 -6.1170626e-01
  2.1541156e-01
 -1.0670088e-02
 -1.9813878e-04
  5.5843246e-01
 -3.3492842e-04
 -3.1923537e-06
 -1.3962981e-01
 -5.8277801e-06
 -1.4811431e-05
 -6.4077264e-01
  6.3563464e-04
  3.0118425e-05
  1.3082653e-03
 -7.7333963e-01
  7.5031949e-08
  2.6887757e-01
  8.6300123e-01
  1.3288830e-05
  8.6762255e-01
 -4.0757100e-04
 -2.3208199e-01
 -3.9553219e-01
 -1.1045629e+00
 -1.4231795e-04
 -7.1278727e-01
 -2.1379155e-05
  6.5026456e-01
  1.5623872e-01
 -7.4183301e-04
  2.1509774e-01
  9.5429993e-01
 -2.5342416e-02
  2.2823037e-01
 -1.6012552e-01
 -2.2468310e-05
  3.7405401e-01
 -8.3900440e-01
 -3.9493778e-05
  6.2172049e-01
  3.6731148e-01
  1.4117081e-04
  8.0398083e-01
  2.8198680e-01
  6.2240374e-01
  7.6731406e-02
 -1.1123648e-01
  6.6225368e-01
  2.2410953e-01
 -2.5675781e-05
  1.0204352e-05
 -2.5887029e+00
 -4.3404898e-01
  5.6353725e-02
  7.0883788e-02
 -6.4169645e-02
 -2.6227879e-05
 -3.9759845e-01
 -6.3013402e-04
 -7.7947007e-05
 -7.5229925e-01
  1.6989704e+00
  2.6516891e-05
 -1.3153796e-01
  1.2767102e+00
  1.1806930e-05
 -1.1069138e-01
  7.1147588e-05
 -1.8635250e-05
  3.7650752e-05
 -2.8083014e-01
  1.6128219e-05
 -2.0769359e-05
  1.5050689e-05
  1.9092565e-04
 -2.5966181e-05
 -2.1092468e-05
  3.9617469e-05
 -5.6219478e-06
 -2.8021879e-05
  6.5476206e-06
  5.4353601e-05
  6.8728143e-05
 -2.9499388e-05
 -1.9836978e-05
  1.0709932e-05
 -4.8674319e-06
  2.0638903e-05
 -2.3221537e-05
 -3.0272131e-05
 -2.7564494e-05
 -1.6556547e-05
 -2.7993145e-05
 -6.5780783e-05
  9.9458412e-06
  3.9779807e-05
  6.1311766e-06
  1.6771304e-06
 -1.5424426e-05
 -5.7057441e-06
  1.2238742e-06
  2.4784975e-05
  4.0403633e-05
  2.2215165e-05
  1.1774077e-05
 -2.8673760e-05
  2.4004949e-06
  1.1721570e-05
  2.2621240e-05
 -7.2271250e-05
  2.0958751e-05
  4.0846095e-05
  2.0302759e-05
  3.6027272e-05
  1.0536545e-05
 -1.7690694e-05
 -1.3443283e-05
 -1.4532236e-05
 -1.8476761e-05
  1.9053470e-05
 -1.1906822e-05
  2.2142520e-05
  5.7728041e-05
  9.9714907e-06
  1.3595455e-05
 -2.2788085e-05
  7.6771275e-06
 -1.1010436e+00
 -9.8215975e-02
 -8.5722215e-02
  1.2186836e+00
  2.1850176e+00
 -8.0650381e-05
 -7.1240586e-01
 -1.9448420e-05
  5.9255868e-01
 -3.3573827e-04
  8.3645564e-01
  2.6571535e-05
  5.1635391e-01
 -4.5607713e-04
 -1.6634682e+00
 -1.1931847e+00
 -3.1797948e-01
  7.3870432e-01
  8.3980961e-03
  7.0233256e-01
  6.6995257e-05
  1.9156784e+00
 -1.4659262e+00
  7.6124734e-01
  3.8711593e-02
 -3.6144701e-01
  9.0822941e-01
 -3.6806458e-01
  3.7131969e-02
 -2.4709581e-01
  1.1732113e-01
  1.1663454e+00
  6.5578657e-01
  5.5072731e-01
  1.3478663e+00
  2.3641391e-03
 -2.5993876e+00
 -5.7289368e-01
  3.5525835e-03
  4.6724984e-01
 -7.8364825e-01
 -7.0955619e-05
  3.5802928e-01
 -1.1741922e-01
 -4.6035997e-03
 -7.2400993e-01
  3.6767151e-02
  1.2894317e-04
  1.1723635e+00
 -4.8554665e-01
  7.5718842e-02
  2.4892546e-02
  2.4899422e-05
 -1.9154868e-04
  4.6459526e-01
  6.2906444e-01
  4.5274905e-06
  6.3030762e-05
  1.4848241e-05
  1.3365726e-05
  8.0761492e-05
  2.4660136e-05
 -2.7959051e-05
 -1.1190027e-05
  1.2506382e-05
  2.7065902e-05
 -1.5541911e-05
 -1.5885530e-06
  1.7142462e-05
  2.1708127e-05
  6.0040486e-05
 -9.1201335e-05
 -2.7119540e-08
 -1.9088120e-05
  2.8406137e-05
 -2.5199126e-05
  1.3602535e-05
  1.7872578e-04
 -7.4163454e-06
  2.2996292e-05
 -2.4031280e-05
  3.3913748e-06
 -5.4446768e-06
 -1.8771925e-05
 -6.7194618e-05
 -9.0907752e-06
  2.3113065e-05
  4.6561820e-07
  8.4815083e-06
 -2.3674298e-05
  2.4990059e-05
 -1.0950887e-05
 -2.0756859e-05
  4.7547048e-05
 -9.4217976e-06
 -2.5979052e-05
 -1.6605503e-05
 -2.7418646e-05
 -1.1221618e-05
  1.6891323e-05
  2.4831272e-05
 -1.5034972e-05
  7.0823721e-06
  1.4542144e-06
 -9.1486196e-05
 -2.3205728e-05
 -2.2152932e-05
 -6.0487588e-07
  2.0962454e-05
 -2.9209550e-05
 -2.6011030e-06
 -2.9383804e-05
  1.2710558e-04
 -6.3137621e-01
  2.3123481e+00
 -2.0454507e+00
 -1.2488956e+00
  1.7297131e-01
 -1.0795182e+00
 -2.8754325e+00
  1.3684698e+00
 -4.0496635e-01
  1.4006548e+00
  4.9999759e-01
 -2.8205760e+00
  2.3701547e-01
  3.5492203e-01
 -4.1943946e-01
 -6.2946952e-04
  1.7414224e+00
  8.9293188e-01
  1.2074265e+00
 -2.4349929e-01
 -7.7305692e-01
  2.4684722e-02
 -2.0168945e-01
  2.0053866e+00
  5.8881861e-01
 -1.5415029e-03
 -1.0071460e+00
  8.6688000e-01
 -5.5178288e-02
  1.3871449e+00
 -1.9909011e+00
 -4.4496112e-02
 -5.4719043e-01
  1.4844372e+00
 -1.0395126e+00
 -2.1049831e+00
 -2.4733353e-01
  1.7069250e-01
 -4.2842194e-01
  1.0448374e+00
 -4.6377618e-02
 -3.5264140e-01
 -2.9329163e-01
  9.9475228e-06
  4.3648574e-01
  2.2541257e-03
  7.3288422e-05
 -5.9253489e-05
  1.4157228e-05
  8.7071829e-05
  2.6299251e-05
  1.2396274e-05
  3.5406524e-06
 -3.0081716e-05
  1.2225535e+00
 -1.6825388e-05
 -2.8707707e-05
 -3.5668095e-04
  2.5590913e-05
  8.4555522e-02
 -7.0353592e-05
  2.8898405e-02
  2.9778195e-05
  3.3186414e-05
  2.9723946e-05
 -2.2304897e-01
 -1.9792007e-05
 -1.2689157e-01
 -3.3066340e-04
  3.5735966e-06
 -2.0668124e-04
 -1.0744470e-06
 -4.8732595e-06
  1.6348380e-05
 -6.0573615e-02
 -9.0466501e-06
 -2.2604811e-05
 -5.9238516e-02
  1.5466734e-05
 -2.1241169e-04
 -1.5875830e-04
 -3.0289419e-05
  6.0347893e-06
 -8.9227862e-05
 -1.4895236e-05
 -8.9749345e-05
 -5.9236538e-02
 -5.3236216e-02
 -1.4924708e-05
  1.0952698e-05
  1.2493553e-04
 -2.3873582e-01
  2.4473441e-01
  6.2170479e-06
 -2.1228603e-05
  1.0900758e-05
 -8.1546488e-05
  1.3059544e-05
  2.1512507e-05
  1.6677801e-05
 -5.1665137e-04
 -2.4175382e-04
  1.8341295e+00
  1.9820708e-04
  2.1120950e-06
 -2.7305332e-05
  4.7632830e-07
  2.8438455e-05
 -1.1287810e-05
 -4.5170466e-04
  2.0524978e-05
 -1.0868188e+00
  7.8815311e-01
 -8.3883464e-01
  9.0363032e-01
 -1.6925867e-01
 -8.0378932e-01
  1.6708378e+00
  2.1369493e-01
  2.2145623e-05
 -1.8686960e-05
  9.7353458e-01
 -1.3505340e+00
  3.2574105e-01
  1.4583970e+00
  5.9330549e-02
 -6.3967234e-01
 -2.3701611e-01
 -7.0009667e-01
 -7.6984420e-02
  2.0496221e-01
 -9.9690813e-01
 -1.4614260e-01
 -2.0336630e+00
  3.8235438e-01
  2.6313894e+00
 -1.3898224e+00
 -6.2515642e-03
 -5.1339638e-01
 -2.0094888e+00
 -2.6643494e-01
 -1.4270787e+00
 -3.2961977e-01
 -5.2954781e-01
  1.3386817e+00
  1.5989082e-02
  1.9421475e+00
  3.7813838e+00
 -7.4457717e-01
  8.6188316e-05
 -1.2764560e-01
  2.9316169e-01
 -1.2938294e+00
 -1.0429068e+00
 -5.7421523e-01
  8.9381021e-05
  7.0100641e-01
  1.1522409e+00
 -1.8882740e-05
 -1.4711471e+00
  9.9573545e-03
  4.0334052e-01
  5.7594466e-01
  7.5964941e-05
 -8.5142610e-06
  9.3467754e-01
  7.4702984e-01
 -1.0674800e-03
  9.9012125e-01
 -1.8594323e+00
  1.5644211e-04
 -1.7105471e+00
 -2.9407589e-05
 -8.9941877e-01
  1.7920756e-05
 -5.1642091e-05
 -2.5088711e-05
  8.9474422e-01
 -1.0793962e-01
  1.6740097e-01
 -1.9074010e+00
  4.0828917e-02
  4.5410955e-01
 -7.4303335e-01
  1.2607321e-06
 -2.2435402e-04
 -1.2251760e+00
  7.4287200e-05
  1.4180820e-02
  4.7564104e-02
  2.4033257e-05
  7.7865452e-02
  9.0450965e-02
 -1.5445818e-05
  5.6629306e-01
  1.0303690e+00
 -3.0702142e-02
  2.2737017e+00
 -6.6860497e-01
  1.5474156e-01
 -3.0668598e-02
  3.2335491e-05
  1.7789165e-02
 -5.6368822e-01
 -1.5175322e+00
  4.9097407e-06
 -2.6296845e-01
 -4.5491356e-01
 -4.6318051e-05
  7.3459044e-02
  4.1152944e-05
  2.2985046e-06
  1.0943090e+00
 -3.9655164e-01
  1.8640819e-06
  1.9167760e-01
 -1.5030275e-02
 -7.7452278e-06
  9.0376061e-06
  2.8396051e-05
 -9.2336140e-06
 -6.1248851e-05
 -4.8214063e-01
  3.8518259e-01
  3.5783249e-01
 -7.1571767e-01
  1.3563478e+00
 -9.5489025e-02
  8.5500425e-05
  1.6473452e+00
 -1.1361953e+00
 -6.8550497e-02
 -4.8302719e-03
 -1.1949992e+00
  3.5084280e-01
  2.3360907e-01
  6.7777252e-01
 -1.6981969e-05
 -1.5483491e+00
  5.6380403e-01
  7.8978056e-01
 -9.1139504e-05
  6.6289282e-01
 -1.0780388e-01
  2.0530773e-02
  4.8356340e-03
 -6.4461106e-01
 -2.1785382e-02
  1.6579044e+00
 -5.5721158e-01
 -1.3544188e+00
 -2.6296112e-01
  2.5686014e-01
  2.5016108e+00
 -2.2869900e-01
 -2.2513103e+00
  1.1109656e+00
  9.8342625e-03
 -2.5229035e-02
  1.9718727e+00
 -4.6517891e-01
  1.7021464e-01
  8.9657265e-01
  1.5797954e+00
  2.5368646e-01
  7.7344972e-05
  2.3474732e-01
 -2.7753217e-03
  9.8944986e-01
 -5.2992684e-01
  3.2681579e-04
 -1.8697858e-01
  1.4293209e+00
  1.4840838e-05
  1.2456524e+00
  2.6810143e-05
  2.2051470e-05
  9.6964157e-01
 -3.2930136e-01
  9.6925795e-02
 -1.0040411e+00
  2.8146105e+00
 -1.7970922e-05
  1.6473684e-01
  1.3660675e-01
 -3.3523405e+00
  3.0825502e-01
 -3.2853585e-04
  3.4759882e-01
 -1.7359294e-02
 -5.7908982e-01
  5.8540410e-01
 -8.0180001e-01
 -5.0912052e-01
  1.3894558e+00
  1.8142853e-05
 -1.3479902e+00
  4.0357944e-01
 -1.5750252e+00
 -8.8774107e-02
 -1.0610243e-02
 -5.2337939e-01
  1.5519746e-01
 -4.7049367e-01
  2.4477756e+00
 -2.1319810e-04
  4.8291996e-01
 -1.5705685e-01
 -2.4148339e-05
  2.0737023e+00
  6.6691421e-02
 -2.2087120e-01
 -4.2574677e-01
  5.9500959e-04
  6.5699017e-01
 -9.4693489e-02
 -3.8813255e+00
 -2.8190723e-05
 -2.7980714e-05
  4.9927786e-02
 -1.7685024e+00
 -1.3089776e+00
  1.9515153e-05
 -5.7858902e-05
  3.4723178e-01
  1.7111100e-01
  5.2340973e-05
  2.9841182e-01
  1.5093987e-01
 -4.5926499e-05
  8.5681432e-01
  1.8062294e-05
 -2.7692265e-06
 -2.3340395e-01
 -4.0810308e-01
 -5.9383756e-01
 -2.0472083e+00
 -1.6273450e+00
  1.9862840e-04
  4.5717452e-03
 -1.2898883e-01
  2.7327559e+00
  5.3545769e-02
  6.9028365e-06
 -1.2712585e-04
  5.6445807e-01
 -7.1731338e-05
 -4.0102655e-01
 -2.3421371e-06
 -1.6423024e+00
  2.0493509e-03
 -1.2466031e-01
 -5.2009439e-01
  6.6307895e-02
 -1.0472592e+00
 -6.1965060e-01
 -5.1167790e-02
 -5.0854471e-02
  5.3563988e-05
 -8.6955003e-02
 -2.2897102e-01
 -2.3127506e-05
 -5.7655585e-01
 -3.2071581e+00
  3.3680061e-01
  6.9264597e-01
 -5.1258612e-01
  9.8445070e-01
  1.8290015e+00
 -3.0513895e-01
  2.1419334e-01
  1.5101509e+00
  1.2956625e-02
  2.7096845e-05
 -4.8976469e-01
  1.4336240e+00
 -1.8872547e+00
  1.3319359e+00
  3.4188813e-01
  1.9403973e-01
 -1.1163533e+00
  1.5512363e+00
  1.4233691e-05
  7.6402066e-06
 -8.9150810e-05
  2.5759377e-05
 -2.4966024e-01
 -5.8854673e-02
 -1.5037252e-04
  2.0652430e-02
  1.5753350e-01
  1.0154598e+00
 -1.8301865e+00
 -3.2069167e-01
 -1.4094474e+00
 -4.7648339e+00
  2.0877291e-04
  2.7306128e-01
  3.4052853e-02
 -1.2954044e-01
  1.9396862e-01
 -8.5768944e-01
 -2.6885893e-03
  2.2890318e-02
  1.6825216e+00
 -2.9702267e-01
  1.6556673e-02
  6.7584288e-01
  6.2133676e-01
 -4.0266193e-03
  5.8468205e-01
  6.4852542e-01
  6.7647710e-02
  1.3440064e+00
 -1.9936802e+00
  3.3050258e-02
 -1.2225556e+00
  4.0324762e-01
 -4.5207520e+00
 -1.3531125e-02
  1.4629821e+00
  1.3776812e-01
 -1.3161306e+00
  7.1477300e-01
 -5.7694423e-01
  1.8830737e-05
  6.5841365e-01
  2.0526617e+00
 -1.8154103e-01
 -1.3288095e+00
 -9.2830747e-01
 -7.1508633e-03
 -7.8991019e-05
  2.6741499e-04
  2.6010455e-05
 -3.2408336e-01
  1.4528930e+00
 -1.6361728e+00
  2.6130760e-05
 -8.9198485e-02
 -1.1552531e+00
  1.8667748e-05
 -1.1603065e+00
  2.4327799e-05
 -1.4885045e-04
  2.9746125e+00
  9.7869940e-02
  1.5365582e+00
  7.9647273e-01
 -7.7385666e-06
 -3.0902845e-01
  5.4774687e-02
  5.9204686e-01
 -1.3752613e+00
  8.8759738e-01
 -1.0271792e+00
  1.4207711e-05
 -4.1347218e+00
  9.6274499e-04
 -1.2983551e+00
  8.2207358e-01
  2.7654096e-01
 -2.5262744e+00
 -2.7264902e-01
  8.4497398e-01
 -1.1639017e+00
 -1.5962830e-01
 -1.2574824e-04
 -1.1750710e+00
  3.9908290e-01
 -1.5415903e+00
  6.9138309e-04
  7.8786314e-01
  1.1305869e-05
 -1.8913707e+00
 -5.3558394e-02
 -2.0636287e+00
  1.0960623e+00
 -7.0199633e-01
 -6.0185927e-01
 -1.3227427e-01
 -7.4737704e-01
 -1.9864268e+00
 -7.2854352e-01
  2.7676032e+00
  4.7591490e-01
 -3.2418588e-01
 -2.4685459e-03
  1.2354476e-01
  2.5683114e-01
 -7.0895201e-01
  9.9431071e-04
  1.0007474e+00
 -1.1433388e-01
  1.3949831e-04
  7.3798095e-05
  1.3797851e+00
 -6.5829525e-05
  3.2336492e-04
 -1.7244567e-05
 -2.0165241e-04
  2.0996846e-04
 -3.1256104e+00
 -3.7369817e-02
 -1.9807622e-02
 -8.1790105e-04
 -1.7359106e-02
  1.6894691e+00
  2.2148374e-06
 -4.8806068e-01
  1.5087543e-01
  1.1470997e+00
  1.2318356e-05
  8.4030263e-02
 -4.3543974e-01
  3.2347915e-01
 -3.5208023e-01
 -1.0957895e-01
 -2.1358597e+00
 -1.1909743e-05
 -2.7626708e-01
 -1.0383664e-01
 -2.4680636e+00
  3.4816239e-05
 -2.9113743e-01
 -1.9120495e-01
 -8.2649560e-05
  1.0922301e+00
  7.2595793e-01
 -7.4655101e-05
  4.3561922e-05
 -5.3482282e-01
  3.5422385e-05
  7.2523975e-01
  1.7600170e+00
 -1.8664710e-03
  1.5295953e-05
  6.0218602e-01
  2.3990476e-01
 -9.1665429e-01
  2.3118328e-01
 -6.9786787e-05
  2.4294230e-01
 -5.3780609e-01
 -1.1855797e-03
 -6.9984931e-01
  4.2640342e-05
 -8.7917491e-05
 -9.9121556e-02
 -2.7802107e-01
 -7.9818325e-05
  3.5468680e-01
 -2.9600827e-05
  2.1019837e-06
 -2.8307184e-05
  1.9193297e-04
  1.7216714e-06
 -2.3789575e-05
 -2.5661799e-01
  2.7101503e-05
 -2.4296329e-05
 -3.9036888e-05
  4.8481051e-02
  2.1253189e-05
 -2.3630486e-05
  8.5623789e-05
  5.6820741e-06
 -7.3253459e-06
 -1.5932677e-05
 -2.3676981e-05
  2.8184695e-05
  1.0636026e-03
 -7.0003298e-05
 -1.8792793e-05
 -1.5104935e-04
  1.8778761e-05
 -5.7498746e-05
  6.6211155e-06
 -6.1204123e-06
  2.1729487e-05
 -2.7883169e-05
 -2.8253175e-05
 -3.2940137e-05
 -7.1075359e-05
 -8.2214847e-06
 -2.9805100e-05
  2.9878962e-05
 -2.4112665e-05
 -3.6561357e-06
  8.5201409e-06
 -8.6178741e-05
 -3.5350528e-02
 -2.9347408e-05
 -1.2151287e-05
  2.2138580e-05
 -8.2638472e-01
  1.0476090e-01
  1.5533138e-05
 -8.9458437e-05
 -8.5130319e-05
  3.3602456e-07
 -8.7188906e-05
  1.4196698e-05
  2.1465499e-05
 -5.8973175e-02
  1.0888213e-05
  1.5701280e-05
  8.2081395e-05
  4.2272923e-06
 -1.3367016e-05
  2.2443874e-05
  2.9631814e-05
 -6.9408103e-05
 -1.5077973e-07
  2.1676965e-06
  1.2550876e-01
  6.6728987e-02
 -1.0937620e-02
  1.5021904e-01
  1.6449209e-03
  4.4010580e-02
  2.6598892e-01
  4.4341241e-06
 -1.5627447e-01
 -4.0603478e-05
  4.5625231e-01
 -1.1494874e-01
 -2.5326496e-01
  3.8229313e-01
 -8.5294545e-05
 -6.2645070e-02
 -3.2767799e-02
  3.2187931e-02
 -1.0508944e+00
 -1.2299201e-03
  1.7261355e-05
  7.7682155e-01
  9.2274660e-01
  1.3963910e-04
  1.9437255e-02
 -8.4430315e-03
  2.1238162e-05
 -7.5947349e-03
  6.0983114e-02
  1.7921506e-05
 -1.2279166e-02
 -2.2544488e-02
 -3.7701449e-01
 -4.4566748e-01
 -5.2992457e-01
 -8.3945766e-02
  6.2513280e-01
  8.9788926e-01
 -6.9369940e-05
 -1.3912842e-01
 -5.1783922e-04
  2.1572113e-02
 -2.1327913e-03
  1.9445701e-05
  4.0826681e-01
 -3.7960038e-01
  7.3687136e-02
 -1.1209132e-04
  3.0165532e-01
 -3.0207964e-05
  1.1507004e-01
  2.6808766e-04
 -2.6505590e-05
  5.9187796e-06
 -8.6611593e-01
 -1.8099320e-01
  2.9621994e-01
 -3.1691232e-01
  7.4569530e-06
 -4.0737152e-01
  1.2372131e+00
 -5.5206276e-02
  1.2864014e+00
 -1.7221583e+00
  1.0432390e-04
 -2.2038723e-05
  8.5616916e-01
 -9.0712917e-01
 -2.5556203e-02
 -5.7529449e-01
 -4.5223108e-01
  2.1265021e-01
 -9.8914701e-01
  3.0641184e+00
  1.2220175e-01
  1.9417259e-01
  1.6290171e-01
 -1.7747249e-01
  2.2068503e-01
 -1.0289776e+00
 -2.6676732e-01
 -3.5951000e-01
  2.0861889e-04
 -5.3678870e-01
  4.3463066e-01
  1.7955812e+00
  1.3672629e-01
  9.5229572e-01
  1.5044639e-01
  1.3867062e+00
 -8.8879210e-01
 -4.2151331e-04
  1.3698764e+00
 -2.5036135e+00
 -7.8121090e-01
 -3.9165822e-01
  2.3494984e-03
  1.1974398e-02
 -8.9211696e-01
  2.4140081e-01
  2.0370595e-03
  1.7362404e-01
 -8.0777578e-02
 -4.0860743e-07
  8.3375824e-05
 -5.5762732e-01
  4.4176873e-06
 -8.2119316e-01
 -7.8076413e-03
 -4.9455155e-02
 -1.4251583e-05
  1.7195866e-01
  1.0612614e-05
 -3.0994972e-05
  2.5449770e-05
  1.9225141e-05
 -2.9926230e-05
 -4.6411028e-06
  7.8189469e-06
  6.7763824e-05
 -1.2284940e-05
  6.7243241e-06
  2.8688655e-05
  3.1955040e-07
 -2.4949575e-05
  1.2890417e-05
  5.8627011e-05
  4.9244667e-05
  6.3726739e-06
 -2.8731894e-05
  8.3324960e-07
  1.8997360e-05
 -1.1986549e-05
 -1.9409168e-05
 -2.9494133e-05
  3.1214124e-06
  8.3618368e-05
  1.6391434e-05
 -1.7162207e-05
 -5.9242107e-06
 -1.7454006e-05
  2.7245618e-05
 -2.5900616e-04
  7.7065688e-06
 -8.4218002e-05
  7.5934418e-05
  2.3519424e-05
 -2.0780845e-04
 -3.3617049e-05
 -3.7792220e-06
 -2.0394963e-03
 -3.5812870e-06
  1.8253058e-05
 -1.0756723e-06
 -2.9878354e-05
  3.2033124e-05
 -1.6923761e-05
 -1.9299670e-05
  2.8271634e-05
  1.1847750e-05
  2.3872803e-05
 -2.5696996e-05
  7.0255184e-05
  1.8369899e-05
  1.9182924e-05
 -2.8728367e-05
  6.3860598e-06
 -2.5056510e-05
  1.4220414e+00
  8.9800769e-01
 -2.5279143e-01
  2.4354811e+00
 -1.8550171e-01
 -1.5704280e+00
  4.5339328e-01
  5.6426220e-02
 -9.4375557e-01
 -1.5697013e-05
  4.8048949e-01
  1.9740373e-01
  1.8296005e+00
 -9.2983562e-01
  1.1942079e+00
 -1.1579840e+00
 -8.9059061e-01
 -3.8725607e-02
 -3.0252610e-05
 -1.4045576e+00
  1.5329053e-01
 -6.8574063e-02
  4.8903101e-03
 -7.0231968e-01
  1.2882017e+00
  2.9249117e-01
 -2.0086543e-05
 -2.1804798e-01
 -7.4624079e-01
  6.7318641e-02
 -4.1710892e-01
  1.2807791e+00
 -5.5630207e-01
  1.2893318e-01
 -4.8954013e-01
  1.2104203e-01
  5.5097419e-01
  2.9012802e-01
 -4.9323809e-01
 -2.0724964e-01
  8.4447408e-01
  7.7813584e-01
  3.5478926e-01
  1.4064966e-01
  1.3094680e-01
  3.6544192e-01
 -5.2326375e-01
  2.6224614e-05
 -1.2250084e-01
  1.3503893e-01
 -1.8853538e-05
 -5.3278834e-01
  6.2409614e-05
  2.8613764e-05
 -6.9223142e-01
  9.6969809e-03
  1.1367331e-01
  5.0912809e-01
  8.9352399e-01
  6.6634917e-01
  2.4365838e+00
 -7.0251961e-05
  1.3019658e+00
 -5.3797927e-02
 -1.4850665e-04
  8.7600656e-06
  2.6613319e+00
  4.0964194e-02
 -3.3889881e-01
  1.4091594e+00
 -3.2466111e-01
  9.0053517e-01
 -8.5517591e-01
  1.8161008e-01
 -3.8691700e-01
  1.2707342e+00
  6.2313752e-04
  7.2890520e-01
 -2.8159912e+00
  1.0306818e-04
 -7.4984646e-01
 -1.5374320e+00
  8.9344662e-04
 -9.1469222e-01
 -1.5882603e+00
  6.3978124e-01
  1.6896436e+00
 -4.5813459e-01
  1.4295248e+00
 -4.7596321e-01
 -2.0609357e-04
  7.7655277e-06
 -2.0168602e+00
 -2.0122926e+00
 -3.3163804e-01
  3.0824009e-01
  1.9704138e-01
  1.1884175e-03
  6.6127956e-01
 -1.6511582e-04
  2.4492839e-02
 -6.3393682e-01
  9.0236485e-01
 -1.1202806e-05
  8.9293785e-02
 -5.5111723e-05
  3.6497040e-05
  3.3869335e-05
 -6.0602301e-01
 -6.6659085e-02
 -6.8733076e-05
  6.9759622e-02
  1.2981459e-02
 -4.3958455e-01
  2.3780918e-01
  2.1084787e-01
 -1.0320429e+00
  2.4527192e-01
 -2.7080339e-01
 -1.0036294e+00
 -9.6613392e-02
  3.5457563e-02
  6.2893677e-01
  2.4946079e-02
 -4.6917191e-01
 -1.5408634e-01
 -4.3237379e-01
 -1.3884075e-01
  1.2066371e-01
 -2.7252600e-01
  5.8392191e-01
 -3.0831154e-05
 -4.0604570e-03
  1.5167120e-01
 -3.0085815e-02
  6.9915402e-01
 -6.8128157e-01
  3.1991097e-01
 -4.2906929e-02
 -1.7888696e-01
 -1.0267399e-01
  6.5760378e-04
  4.5452076e-01
  2.0821433e-01
  4.3882061e-02
 -4.1919515e-02
  2.0506662e-01
  6.2750202e-01
  2.9671118e-01
 -2.5391918e-01
  1.8499076e-01
  2.0042935e-03
 -4.7911935e-02
 -4.9003207e-05
 -1.2444453e+00
  5.0845945e-01
 -3.3117890e-02
 -3.9225545e-02
 -1.9927840e-01
 -2.7494758e-01
  2.8399432e-01
  2.2499661e-01
  1.5322016e-04
  7.8643599e-05
 -1.8766281e-01
 -5.9116461e-05
 -1.4797685e-01
 -9.5100202e-02
  3.6582191e-05
 -1.8713685e-05
 -2.2859680e-05
  1.0591429e-05
  6.9979538e-04
 -3.8044738e-05
  7.7001727e-04
  4.0445870e-05
 -5.9947059e-05
  2.4199579e-05
 -5.8203666e-05
  5.6117919e-05
  1.5541886e-05
 -8.1582384e-06
 -6.0267917e-05
 -5.9591966e-05
  3.1255604e-05
 -3.2159249e-05
 -4.6140990e-06
 -1.8729838e-02
  9.3479207e-07
 -1.0121311e-04
 -4.5726872e-03
  5.5928525e-05
  5.1001607e-05
 -2.6033993e-05
 -6.3998486e-06
  2.9632880e-05
 -1.7997329e-04
 -1.0476956e-04
 -3.0045994e-04
 -5.4405368e-04
 -5.2126134e-06
  3.4157845e-05
  6.6534187e-05
 -2.1086602e-05
 -7.2500035e-03
  4.4563618e-05
  9.9889194e-06
 -5.7396315e-05
 -1.8210479e-04
 -3.5591504e-05
 -1.7667317e-05
  5.2512976e-05
  1.7855196e-05
 -6.4136210e-04
 -5.1117964e-05
 -4.6058733e-05
  5.6290992e-05
  5.8069738e-05
 -5.7626279e-05
  1.4594466e-05
 -1.8006323e-04
  5.8271075e-05
 -4.3362183e-05
 -4.4369837e-05
 -3.7196125e-05
 -7.4504496e-06
  3.7713446e-05
 -3.8749495e-05
  2.6290215e-04
  3.7114522e-05
  6.1529463e-05
 -1.7834715e-04
  5.2388623e-05
 -5.3243162e-05
 -1.3080896e-04
  4.1874602e-05
  8.7528849e-01
 -3.9425402e-05
 -5.4437359e-04
 -7.8663573e-04
  3.2476171e-06
 -1.1500219e-04
 -4.7804078e-05
 -1.2748207e+00
  4.4780751e-05
  4.5249151e-05
 -1.7680755e-04
 -3.6384765e-05
 -1.8277435e-04
 -1.6955991e-04
  5.4129381e-02
 -5.0711013e-05
 -1.0511490e+00
 -1.1622452e-05
 -2.8569129e-05
 -2.6592085e-01
 -4.5359990e-05
 -6.0728089e-05
 -3.8878425e-05
  8.0694059e-05
 -3.8596176e-02
 -2.4223490e-02
 -6.9132202e-06
  2.3800365e-05
 -4.2150487e-04
 -3.1792537e-05
  5.9745260e-05
 -2.0857058e-05
 -3.9314695e-05
 -3.0376750e-01
 -3.8979478e-02
 -1.5379471e-04
 -3.6792339e-05
  5.7893081e-05
 -3.3829911e-05
  5.9205220e-05
 -5.4900673e-05
  1.0039982e-05
 -4.0385788e-05
  2.2082662e-05
  5.6581277e-01
  2.0999186e-01
  2.0858750e+00
 -3.8652429e-06
 -5.6506728e-05
 -1.1125049e-01
  9.8088169e-01
  5.1865773e-05
 -1.6790991e+00
  3.2723850e-01
  1.6671578e+00
 -1.8212939e-02
 -7.7400070e-01
  1.5537882e+00
  2.7793974e-05
 -2.3907301e-01
 -2.2908480e-05
 -3.0317338e-05
  1.3931272e+00
 -1.7001659e+00
  3.0621762e+00
  3.3979832e-05
  8.2093638e-01
  5.1717077e-05
 -3.6746103e-01
  8.7607574e-01
  3.8550431e-01
  7.4493068e-01
 -3.0601401e-05
  4.1802427e-01
 -1.0691280e-04
  7.3748255e-01
  3.2971820e-05
 -1.1287102e+00
 -5.8562887e-01
 -1.0336241e+00
  4.2558467e-01
  1.0985701e+00
 -1.9486229e-01
  6.2835681e-01
  6.1272705e-01
 -1.5160207e-01
  1.8094765e+00
 -9.9883783e-01
 -3.1692698e-06
  1.8700193e+00
 -3.2175992e+00
  1.5785054e+00
 -5.1045758e-05
 -1.1735600e+00
 -1.1459155e+00
  8.9045382e-01
 -2.5482178e-01
  2.9033926e-01
  1.0588651e-01
  1.8206662e-01
  3.0057806e-01
 -8.1235185e-02
 -4.6679288e-01
  5.5654389e-01
 -1.6107032e-04
 -2.3590086e-01
  7.2894269e-01
 -5.5499262e-01
 -5.5473069e-05
 -2.0233132e-01
 -9.9914037e-02
 -1.4276065e-01
  3.3831769e-01
 -4.4830093e-01
  1.1433713e+00
  3.8021598e-02
  1.4446273e+00
  1.6357994e-02
  2.5500932e-01
 -6.9573879e-01
  2.6627678e-01
  1.3040792e+00
 -3.3612410e-05
  1.1742493e+00
 -3.3833221e-02
  4.0521085e-01
 -1.5228105e-01
 -1.2184244e+00
 -2.4224809e-01
  2.0407043e+00
 -2.8716975e-01
 -8.5069543e-01
 -7.5420964e-01
 -8.0599672e-01
  5.1080281e-01
 -1.1419332e-01
 -9.2396718e-01
 -5.3161526e-01
  1.6954098e-02
 -8.2390499e-01
 -3.3296546e-01
 -7.2796935e-01
 -1.1316360e-01
 -1.1041038e-01
  8.7241974e+00
 -1.3493456e+00
  8.1928253e-01
  1.7825304e+00
 -2.1178377e+00
  1.1282173e+00
  1.3553704e+00
  1.3475585e+00
  6.9390863e-01
  2.5230336e+00
 -6.7119324e-01
 -2.2784629e+00
  8.0896115e-01
 -2.3098943e+00
  9.5207959e-01
  6.1370701e-01
 -1.0579162e+00
 -2.4008777e+00
  1.9741527e+00
 -2.1388347e+00
  1.7950960e+00
  1.3066995e+00
 -5.8654410e-01
  2.0857911e+00
  9.0991974e-01
  1.0001669e-01
 -1.5913614e+00
  1.3159326e+00
 -9.8269928e-01
  1.2713183e-01
  1.0334073e+00
 -2.2267451e+00
  2.5657346e+00
 -3.4340208e+00
 -3.4441236e-01
  7.1476638e-01
  1.2482272e+00
  4.7686309e-01
 -2.7179515e+00
  1.5801990e-01
  6.8511665e-01
  3.6041045e-01
 -1.8890354e-01
 -3.2254180e-01
  1.0619488e+00
 -2.2117281e+00
 -2.0904249e-01
  2.8163605e+00
  2.4181798e+00
 -4.7185364e-01
  6.6225994e-01
  1.1567432e+00
 -8.0107963e-01
 -2.2008648e+00
  1.4393336e-01
 -1.6976850e+00
  9.4956291e-01
  7.7018613e-01
 -2.3970549e+00
 -1.8215773e+00
  1.8682876e-01
  1.6650884e+00
  6.2127465e-01
  5.2911180e-01
  5.3678995e-01
  2.5347883e-01
 -1.5744482e+00
 -1.0494592e+00
 -4.5673862e+00
  1.5054841e+00
  3.9504781e-01
  9.5733196e-01
  1.6517211e+00
  1.9508666e+00
  2.1622895e-01
 -7.6124120e-01
 -9.3804240e-01
 -1.5248101e+00
  3.0035731e-01
  3.2015138e+00
 -2.2378528e+00
  9.8851532e-01
 -1.5266597e+00
 -6.6754121e-01
 -1.9182916e-01
 -1.2785033e+00
  1.3340323e+00
  3.0430603e-01
 -8.0438048e-01
 -4.0971583e-01
 -1.0002389e-01
 -9.1750973e-01
 -4.2436790e-01
  3.0778655e-01
  1.5871127e+00
  2.1599756e-01
 -1.9329366e-01
 -1.7388164e+00
  1.2402333e-01
  1.0558984e+00
  4.8942912e-01
 -2.5550571e-01
 -2.5333095e+00
 -8.6211956e-01
  2.2392820e-01
  1.1950415e+00
  1.1552726e+00
  1.0447977e+00
 -2.1294793e-01
 -3.1682897e-01
 -8.3461618e-01
  1.9903490e-01
  2.2200286e+00
  7.8276622e-01
  9.5794672e-01
 -1.9882073e+00
  7.8704828e-01
 -4.6050915e-01
 -9.5962101e-01
 -9.5529270e-01
 -8.4391826e-01
  2.0347271e+00
  2.3734760e-01
 -1.0000043e-01
 -6.8975830e-01
  1.0000016e-01
 -1.0000149e-01
 -1.6663756e+00
 -2.5643854e+00
  2.5680537e+00
 -1.0075072e+00
  8.5980195e-01
 -6.4762688e-01
  2.4572141e+00
 -2.6858008e-01
 -1.0000007e-01
  1.4125834e+00
 -2.0070105e+00
  1.1995174e+00
  1.8143007e+00
 -1.5767210e+00
  4.2799893e-01
 -3.1198373e-01
 -9.4827783e-01
  3.0626979e-01
  1.0000005e-01
  7.8538030e-01
 -1.8555293e+00
 -4.2425531e-01
  1.3092630e+00
 -1.1916384e-01
  2.4555247e+00
  3.2379138e-01
 -2.2419128e+00
  1.2949822e+00
 -5.7997751e-01
 -1.2452625e-01
  1.2479335e+00
 -2.9788027e+00
  9.1939265e-01
  6.8282139e-01
  3.0579221e+00
 -1.3965449e+00
  1.7483035e+00
  4.4319458e+00
  1.1049868e+00
 -1.7084725e-01
 -2.1134610e+00
 -1.0365599e+00
  3.4200964e+00
 -1.1162527e+00
 -8.5380960e-01
 -1.9429264e+00
 -1.1332395e+00
  2.5982263e+00
  1.1530565e+00
  1.5642668e+00
 -4.4815059e+00
 -3.6831663e+00
  1.0000005e-01
 -7.9782742e-01
 -1.7286986e+00
 -2.9374387e+00
  5.7975030e-01
  9.8051912e-01
  4.8266700e-01
 -2.1846884e-01
  2.3499134e+00
 -1.4400018e+00
 -1.4875829e+00
  2.6977661e+00
  3.3827385e-01
 -2.9051785e+00
 -1.4562342e+00
  4.0923911e-01
 -1.3709525e+00
  6.3665056e-01
  1.4133910e+00
  1.8352612e+00
  2.9000738e-01
  2.7230308e+00
  1.7480090e+00
 -1.5708910e+00
  9.9520348e-03
  9.9520348e-03
  9.9520348e-03
  9.9520348e-03
  9.9520348e-03
  9.9520348e-03
  9.9520348e-03
  9.9520348e-03
  9.9520348e-03
  9.9520348e-03
  9.9520348e-03
  4.9732327e-02
  4.9732327e-02
  4.9732327e-02
  4.9732327e-02
  4.9732327e-02
  4.9732327e-02
  4.9732327e-02
  4.9732327e-02
  4.9732327e-02
  1.8932788e-02
  1.8932788e-02
  1.8932788e-02
  1.8932788e-02
  1.8932788e-02
  1.8932788e-02
  1.8932788e-02
  1.8932788e-02
  1.8932788e-02
  1.0361388e-02
  1.0361388e-02
  1.0361388e-02
  1.0361388e-02
  1.0361388e-02
  1.0361388e-02
  1.0361388e-02
  1.0361388e-02
  1.0361388e-02
  1.1589789e-02
  1.1589789e-02
  1.1589789e-02
  1.1589789e-02
  1.1589789e-02
  1.1589789e-02
  1.1589789e-02
  1.1589789e-02
  1.1589789e-02
  8.8592265e-03
  8.8592265e-03
  8.8592265e-03
  8.8592265e-03
  8.8592265e-03
  8.8592265e-03
  8.8592265e-03
  8.8592265e-03
  8.8592265e-03
