nep3 1 C 
cutoff 5 5 60 60
n_max 8 8
basis_size 12 12
l_max 4 2 0
ANN 50 0
 -3.9890911e-06
  4.3832846e-05
 -7.3955785e-06
  9.0411422e-06
 -1.8399305e-07
 -2.5310972e-06
  2.6863681e-05
  2.0804677e-05
  1.4793847e-05
  8.2588696e-05
  2.7280255e-05
 -2.3432587e-05
 -6.4368423e-06
 -8.7201057e-05
  9.8892929e-07
  6.0515795e-05
  7.4307827e-05
  3.4574558e-05
  1.7357475e-05
 -1.4688187e-05
 -2.2676528e-05
  3.7287177e-06
 -1.4526284e-05
  2.0662932e-05
 -6.1165665e-05
 -1.8350181e-06
  2.0836862e-05
 -3.4541485e-05
  6.5094224e-05
 -3.8286016e-06
  4.9325616e-05
  1.8592251e-05
  5.5202768e-06
 -6.0321650e-05
  4.9512983e-07
  1.7466064e-05
 -1.2119638e-06
  2.3030803e-05
  8.7330764e-06
  7.2490461e-06
 -3.2141616e-05
 -3.2459462e-05
 -4.3607397e-06
 -9.1412712e-06
  8.3271343e-06
 -6.2642630e-06
  4.0623813e-06
  4.8123045e-05
 -2.8517159e-05
  5.8545447e-07
  3.5896549e-06
 -7.5478611e-06
  2.3900344e-05
  6.3622060e-06
  8.0308831e-01
  9.2774408e-06
  1.2506076e+00
  4.9962407e-01
 -6.5366842e-02
  8.4369212e-01
  9.5907800e-02
  9.5179808e-01
  4.2991873e-02
 -4.4211745e-03
  1.3137279e-01
 -2.3664572e-05
 -2.2321204e-02
  2.6761004e-04
  1.6920532e-01
  1.3121450e-01
 -5.5144787e-01
  1.8203069e-05
 -1.5720037e-01
  2.0708850e-01
 -4.8672503e-01
  4.8353504e-02
  3.3873245e-01
  3.0910525e-01
 -1.0417176e-04
  3.5800844e-01
 -6.6486426e-02
  4.6352965e-01
  8.3716327e-01
 -7.4287748e-01
 -9.1159391e-01
  2.7578562e-01
  2.0576674e-02
  4.9492112e-01
  1.9800646e-02
  6.2872672e-01
 -1.5844484e-01
 -4.5057766e-02
 -2.2537706e-03
  1.9486107e+00
 -2.6368508e-01
  2.5557015e-02
  3.8376763e-01
  1.0117625e+00
  2.8447947e-04
 -1.3540365e-05
  2.6902245e-02
  2.1898361e-01
 -3.6103532e-01
  1.8919554e-05
  2.4855156e-01
  4.5987126e-06
 -1.6887230e-05
 -2.3298483e-06
  1.1308188e-05
  3.2554126e-06
  4.8469195e-05
 -2.1938881e-06
 -1.0101254e-05
 -2.5522815e-05
  3.2781463e-05
  7.9620419e-05
  5.7181751e-07
 -8.7830522e-06
  5.8893511e-06
 -2.3992299e-05
 -2.7621625e-05
 -5.4256401e-05
 -4.9727037e-06
  6.8324123e-05
 -1.9904194e-06
  1.5519639e-05
  5.5921073e-06
 -2.8053493e-05
 -9.3170922e-05
 -6.3504995e-05
  1.5850921e-05
  9.1859374e-06
  2.6627413e-06
 -8.5348065e-06
 -3.9736315e-06
 -1.0841756e-05
  2.3426486e-05
  6.8795939e-06
 -4.6555997e-06
  2.4527561e-05
  5.6175548e-05
  7.9309266e-06
  9.2080982e-06
  1.7956951e-05
  1.0234121e-04
  1.0763027e-05
 -4.5898138e-05
  3.2130870e-06
  1.3677451e-05
  1.2505839e-05
 -3.8250773e-06
 -2.6520752e-07
  9.4255120e-06
 -2.8892237e-07
  1.4633463e-05
 -2.5169677e-05
  1.8611398e-05
  7.3844244e-06
  3.8366390e-05
 -3.8671205e-06
 -1.1677013e-05
  5.5773311e-05
  7.5167018e-01
 -3.3262864e-02
 -1.2227870e+00
  1.3551054e+00
  9.7950673e-01
 -3.3655572e-01
  5.5883604e-01
  7.7274626e-01
 -1.1630027e+00
 -1.4862945e-02
 -1.0644372e+00
  4.6406597e-01
  6.3782758e-01
  2.0983855e-01
  1.5590484e-01
 -8.8356197e-01
  1.1705408e+00
  1.3161598e-06
  1.0930594e+00
 -1.7168768e-01
 -2.5246134e-01
  1.4870838e+00
  1.6766053e-02
 -1.1428652e-03
  1.1499716e+00
 -5.6932902e-01
 -1.3546278e+00
  1.5458827e+00
  2.5666159e-01
 -5.9770083e-01
 -1.8262975e+00
 -1.3859813e-01
 -5.4572817e-02
 -2.2346489e+00
  7.0505655e-01
  2.8170726e-01
  5.0741297e-01
  4.9663529e-02
  2.3618375e-01
  2.5533500e+00
  2.4370149e-01
  2.0683687e+00
 -2.0048674e-02
 -5.9134191e-01
  7.2031391e-01
  4.0212017e-06
  3.1250712e-02
  1.5534157e+00
  7.5763392e-01
  1.8031277e-06
  2.3792136e-05
 -5.9354156e-01
 -2.9150668e-05
 -7.2047508e-01
 -6.7891270e-02
  1.0727142e-01
  8.3527252e-02
 -2.6184335e-01
 -6.7362410e-01
 -2.1732880e-01
 -1.2187335e+00
 -3.1344991e-02
  1.0488955e+00
  1.5726298e-05
 -1.7321858e-05
  3.0996671e-01
  5.1013645e-05
  2.4691755e-05
  4.7955378e-05
  2.4475099e-01
 -7.1774244e-05
  4.6885056e-05
  2.5363616e-04
  1.0125209e+00
  7.5237571e-05
 -3.0258027e-01
  4.3274883e-02
 -2.8107930e-05
  3.8800945e-06
 -2.9906285e-05
 -3.4694087e-06
 -3.4585719e-07
  2.2199547e-01
 -7.5662363e-01
 -1.2559111e-01
  6.5332033e-02
  1.3637982e-01
  1.8009277e-01
 -8.5805141e-06
  1.0125636e-01
  8.7402865e-02
  5.5481625e-01
 -5.3515468e-02
  1.2357208e-04
 -2.6082546e-01
  9.5380388e-02
  1.4830855e-05
  4.2385727e-01
  4.3166943e-05
  1.5783343e-06
 -7.3243774e-02
 -1.7548390e-02
 -4.1716368e-05
  2.9378934e-05
  1.8788583e-05
 -1.0057939e-05
 -2.3774201e-05
  2.5155696e-05
  4.9784423e-05
 -3.5430235e-01
  2.1722486e-05
  3.8162807e-01
 -9.7711784e-01
  5.8570440e-05
  8.3476730e-02
 -8.5938185e-01
  2.0645157e-01
 -2.5194986e-05
  3.6995789e-05
  1.9366685e-06
 -1.1189992e-05
  6.0155089e-06
  2.9600129e-05
 -3.4530317e-06
 -4.1882551e-05
 -1.6587799e-05
  1.8992536e-05
  1.0304156e-01
  6.5151915e-02
 -2.3605788e-05
 -1.0695707e-06
  1.2659359e-05
  1.4109770e-05
  6.4987025e-06
  1.5461251e-01
  7.0469483e-05
  7.5526851e-01
 -6.3341594e-04
 -3.3131506e-05
  5.2672549e-06
  1.5579924e-05
  1.8447161e-05
  3.2108652e-05
 -5.3776439e-06
 -7.6118426e-06
  3.6726105e-01
  5.3021751e-05
 -1.4785964e-04
  7.9304627e-06
  1.2566375e-03
  5.3337940e-06
  3.1358231e-05
  2.1424693e-04
  1.0198597e-04
 -1.1513973e-04
  3.7997551e-04
 -1.3787354e-06
  1.3262942e-05
  5.0422219e-05
 -2.3910323e-05
 -1.4736024e-05
  1.0964794e-05
  1.0843354e-04
  5.4948247e-05
  2.7391525e-05
 -1.1089624e-05
  4.9135193e-05
  3.0663182e-06
  2.0812109e-05
 -2.9016606e-05
  1.7214657e-01
  9.9084118e-06
  2.1963840e-06
 -4.7766283e-04
  1.3447676e-05
  4.5699644e-06
  1.4018854e-05
 -2.0348441e-05
 -1.0422571e-05
  3.8185581e-06
 -4.3555050e-05
 -3.0561658e-02
 -2.9044988e-05
  3.1884898e-05
 -8.5654010e-06
  7.2170682e-05
 -3.5903374e-06
  1.0082294e-04
  7.4453073e-06
  8.5218790e-06
 -1.6385935e-05
  1.8766792e-06
  2.7041458e-06
 -4.3951430e-05
 -1.1097427e-06
 -7.5199109e-06
 -7.6084830e-06
  7.9796046e-06
 -2.4968798e-05
 -9.9513554e-06
 -8.9984651e-06
  1.0838996e-04
 -2.0934111e-05
  1.1835558e-06
 -2.3092775e-06
 -8.5745378e-06
 -6.9684509e-05
  5.2097594e-06
 -9.4380575e-06
 -3.9183262e-05
 -3.0141171e-05
 -4.6218847e-05
  3.9519196e-06
 -5.1546580e-05
  4.8987793e-05
  7.1935619e-06
  6.9394875e-01
 -1.5238153e+00
  4.8098907e-01
  2.0001609e+00
 -5.8681703e-01
 -9.5157258e-02
  6.5997165e-01
 -1.1085845e+00
  5.4641908e-01
  1.5075172e+00
 -8.4044576e-02
 -1.6790177e+00
  1.0318117e+00
  1.1461214e+00
 -1.1204613e+00
  3.0545381e-01
  1.7708218e-04
 -1.9587778e-01
  8.8739705e-01
  2.2274135e-01
 -1.9285001e+00
  4.1482323e-01
  1.7947247e+00
  7.5051732e-02
 -2.7538726e-02
 -1.9173451e-06
 -2.3655417e+00
 -1.4737928e-01
  1.5508267e-01
  1.2396132e+00
 -3.5512695e+00
  1.6607484e+00
 -2.6507673e-01
 -1.1511725e+00
 -4.7718224e-01
  6.3711423e-01
 -4.0424235e-02
  1.6387819e+00
  3.5717633e-02
 -6.6813046e-01
  2.1382036e+00
 -1.1349746e+00
 -2.2722183e-01
  1.1519797e+00
 -1.6484361e+00
 -6.7085350e-01
  4.0564708e-02
 -3.6172296e-06
 -1.0750588e-05
  5.6347162e-05
 -1.0474141e-04
  1.7213273e-01
 -1.0756633e-04
  1.0088384e-05
  2.3503128e-05
  2.3022651e-05
  1.5997832e-05
  1.0220122e-05
 -1.0234889e-05
 -4.8254125e-05
  3.4304692e-06
  6.5883260e-06
  2.6028765e-05
  8.2894503e-06
 -2.4380937e-05
  3.6137870e-05
  6.6887460e-06
  2.4034460e-05
  2.4247124e-06
 -1.2625170e-05
 -3.2936041e-05
  1.7402954e-05
 -6.9820482e-05
 -5.6797999e-06
 -7.9764895e-06
  4.9685523e-06
 -8.9561436e-06
 -3.4778029e-06
  1.6843298e-05
  2.8384607e-06
  5.5393099e-05
 -8.1896196e-06
  1.4464218e-05
 -3.8492958e-06
  1.7449773e-05
  8.6422051e-06
  1.4938580e-05
 -5.3026120e-05
  1.3281104e-05
  2.5784798e-06
 -5.8944747e-06
  1.4955264e-06
 -5.5981386e-06
  2.7320042e-05
 -1.5614243e-05
  2.3337651e-02
  2.8373841e-05
 -2.6346492e-05
  1.2355658e-06
 -6.2499341e-05
  7.0562692e-07
 -1.5289907e-05
  6.3603271e-05
  1.6910870e-06
 -1.4800707e-05
 -3.3178003e-05
 -8.7796316e-06
 -8.0238042e-06
 -7.0170236e-01
 -4.2762786e-01
  2.6467925e-01
 -7.8043729e-01
  2.0931497e+00
 -2.6199991e-02
  8.8645048e-02
 -9.7196460e-02
  9.4002867e-01
  3.2127327e-06
  2.6444232e-01
  5.5893412e-04
  3.0734515e-01
  1.1696035e-04
 -1.2549714e-04
  4.3769166e-01
  4.4149263e-05
  1.4406159e-04
  3.7709196e-04
 -9.1222280e-01
 -9.1051690e-02
 -4.2677209e-01
 -1.4166560e-05
 -2.9052306e-02
  4.3888745e-06
 -9.9193194e-06
  1.7991713e-01
  5.9986574e-05
  1.4465439e+00
  1.7462841e-01
 -3.5351852e-01
  1.2611824e+00
  2.1804282e-02
  1.7733550e-01
 -4.4091007e-01
  2.0479245e-05
 -1.0298353e-05
 -1.5839268e+00
  1.0328927e+00
  1.4154570e-03
 -1.9046664e-01
  7.0687853e-02
 -2.2569479e-01
  4.5268075e-03
  1.4184769e-03
  3.3017204e-05
  9.4519266e-05
  9.3598819e-06
 -1.1777676e-05
  2.1739541e-05
 -1.8142900e-05
 -1.6909347e-05
  4.1447332e-05
  4.8095721e-05
 -4.2604847e-06
 -5.4860651e-02
  3.5630939e-05
  4.1054305e-01
  5.3976101e-01
 -1.3329552e-01
 -4.3548140e-01
  1.4854506e-01
 -4.3289539e-01
 -3.3673719e-01
 -3.8795920e-06
 -5.3483559e-06
  1.7466546e-04
  1.3549955e-04
  2.1694497e-05
 -1.1638525e-05
 -2.9385683e-07
  2.5479765e-05
  2.4026282e-05
 -8.1702560e-01
  4.9910703e-01
 -1.5027065e-05
 -3.6319238e-05
 -1.0896715e-02
  2.3014632e-05
  1.5744701e-05
  1.6614325e-01
 -6.5792397e-06
  9.9355340e-01
 -1.6729206e-05
 -4.2752686e-01
  1.4916383e-01
  1.3391276e-01
 -1.1483701e-05
  7.0208060e-03
  4.7731573e-06
 -1.5583048e-04
  8.1677539e-03
  4.8315509e-05
 -3.9861966e-03
 -2.1788915e-01
  3.0197951e-01
 -2.9408162e-05
  1.8812667e-04
  3.4830980e-02
  4.8907932e-05
  4.7402855e-02
 -9.9319295e-05
 -2.0923766e-05
 -5.0134506e-05
  4.5790671e-06
  4.9150067e-06
 -3.0607659e-06
  4.9654616e-05
  9.6641117e-05
  6.6900952e-04
 -2.6681708e-05
  7.7899567e-06
  5.2237549e-05
 -7.2398570e-06
 -1.2147069e-05
 -1.5204933e-05
  5.6415621e-02
  7.0523006e-06
 -5.9630300e-05
  1.6678987e-05
 -1.0304414e-05
  5.8641072e-05
 -9.7681790e-05
 -3.0083531e-05
  3.9390739e-05
  2.1241098e-05
 -3.7709458e-06
 -7.8326881e-02
 -2.1785987e-03
  4.8884533e-05
  3.4188852e-06
  7.7369823e-06
  3.5512753e-06
 -9.2710698e-06
 -3.1887379e-05
 -1.8073483e-06
 -9.6655153e-02
  2.7270451e-05
  3.8368042e-04
 -9.7129312e-05
 -8.3569350e-05
 -2.5217960e-05
  7.9497462e-05
 -5.2893138e-05
  4.9526803e-05
  3.6749005e-02
  5.0311401e-06
  1.3906072e-01
 -5.9485683e-07
 -2.1687832e-05
 -5.9228796e-06
 -1.6556256e-05
  3.0231752e-06
 -2.0054589e-05
  1.6076093e-04
  4.9895487e-05
  2.4571935e-05
 -3.0624418e-05
 -2.4779005e-05
 -6.9131165e-06
  5.5618216e-06
 -4.3245869e-05
  1.1385226e-05
 -3.6927711e-05
  2.0326110e-05
  1.9328596e-05
 -3.6079000e-05
 -9.8201694e-05
 -1.9599753e-04
  6.0831011e-05
  6.0507235e-05
  4.7533111e-05
 -2.2620896e-05
  4.8416168e-06
  1.7463421e-05
 -2.2500073e-05
 -3.0130403e-05
  5.9134453e-07
 -2.5260833e-05
  2.7071712e-06
  8.5099869e-05
 -2.3597561e-06
  1.0095591e-05
 -1.5489870e-05
  2.1199317e-06
 -2.2025346e-05
  2.0905316e-05
 -1.9529914e-05
 -1.7780256e-05
  3.4005475e-06
 -1.0800808e-05
  2.7894966e-06
  9.6304836e-07
 -3.4704241e-05
 -1.2103725e-04
 -2.8485798e-05
 -8.9651348e-06
 -2.4074876e-05
 -3.0151371e-06
 -2.0869789e-05
  1.6197973e-06
  1.5870122e-05
  1.0749472e-05
 -1.0890202e-05
 -7.3032570e-06
 -1.4891185e-05
  7.9408792e-06
  3.0152027e-05
 -2.0459142e-05
 -2.6672169e-05
  8.2948354e-05
 -4.7489037e-05
  4.9651331e-05
  2.9087076e-05
 -7.9997217e-06
 -8.0992669e-07
  6.9699927e-06
  2.0822305e-05
  9.9192821e-06
  1.4150486e-06
 -2.9395649e-05
  1.2619024e-05
  7.8497360e-06
 -3.2617820e-05
  3.7312841e-06
 -4.4452077e-07
 -8.6986911e-06
 -3.2016062e-05
  2.7253516e-05
 -2.5751369e-05
 -4.2802440e-06
 -2.0984655e-07
 -7.3613455e-07
  2.6619150e-06
  1.3877637e-05
 -9.1223924e-08
  4.0278792e-05
  1.1206937e-05
  2.1125463e-05
 -6.7907013e-06
 -3.5993244e-06
  2.4581541e-05
 -9.5987571e-06
 -4.7925664e-07
  1.5796562e-05
 -9.0811272e-06
  2.2938353e-05
  1.8209123e-05
  2.0905378e-05
  7.6343949e-06
 -3.9015376e-06
  1.9110646e-05
 -1.9966647e-05
  8.1609702e-05
  2.9496578e-06
 -6.3810448e-06
  8.2437538e-05
  9.1705588e-06
 -5.4540001e-06
  3.4863813e-05
  2.8703771e-05
 -3.0630381e-05
  5.9763011e-06
  4.6019100e-05
 -1.7503742e-05
 -3.4957859e-05
  2.1022883e-05
  2.9452985e-06
  8.7179054e-05
 -1.9202445e-05
  5.5117220e-05
  2.2442377e-05
 -9.7149893e-07
 -5.6503786e-06
 -4.7899262e-06
  6.2955010e-06
 -8.6546024e-06
 -1.4198063e-05
 -7.0316135e-05
  7.6653232e-06
 -9.0296871e-06
 -2.9130820e-06
 -2.1935000e-05
 -1.2115874e-05
 -4.1608814e-06
  1.9472003e-05
 -1.1623291e-07
  2.7568009e-05
  4.8482157e-06
  2.2866783e-05
 -3.8999497e-07
 -6.7837614e-06
 -2.7893651e-05
 -4.2210775e-07
  8.7375784e-06
  2.2208484e-05
  3.3922093e-05
  1.1199499e-05
 -9.6229713e-05
 -7.7730529e-06
 -8.5654501e-06
 -1.8957868e-05
 -4.1035040e-05
 -5.2247509e-05
 -1.3258007e-06
  4.4860477e-05
  1.8509567e-05
 -2.0734065e-05
 -2.2887316e-05
 -1.2774467e-05
 -2.4519351e-05
  1.3718425e-05
  6.5501799e-06
 -2.4588422e-05
  8.5736274e-06
 -4.0313611e-05
 -6.5661739e-06
  3.4155742e-05
  2.6990253e-06
 -3.4539022e-05
 -7.8704670e-06
 -3.1884305e-05
 -3.5011672e-05
 -1.5095997e-05
  2.9070639e-05
  8.1521885e-06
  3.6448446e-06
  3.1766736e-05
 -3.1141599e-06
  1.2447279e-04
  3.2402274e-06
  9.6830525e-05
 -2.2624112e-05
 -8.6301616e-06
  2.5327736e-06
 -1.6611317e-05
 -1.7920669e-05
 -9.2390510e-06
  4.9308205e-06
 -1.4592508e-05
  4.9549351e-05
  1.0472201e-05
 -1.9864667e-05
  2.9426834e-05
 -9.0766996e-05
  2.9983705e-05
 -2.0713767e-05
  1.1417991e-05
  4.5743659e-06
 -8.5265501e-06
 -5.5217060e-05
 -6.3222024e-07
 -2.2936235e-06
 -1.3329185e-05
  1.8527200e-05
  4.7954301e-05
 -7.5566896e-07
 -2.3788847e-05
 -4.4031764e-05
  2.1501295e-05
 -1.2810596e-05
 -3.9525330e-06
  8.6291966e-06
  1.3951028e-05
 -2.5754816e-05
  2.3291013e-05
 -1.0336953e-05
  2.2292559e-05
  2.2056098e-05
  4.6212830e-05
 -7.0237284e-06
 -6.8552517e-06
  2.2727841e-05
  7.5771059e-05
  1.9250168e-05
  3.5058241e-05
  8.3107498e-06
 -7.4531650e-05
  5.9305352e-01
  1.8954461e+00
  2.5269411e+00
 -2.0967627e+00
  3.0060321e-01
 -2.7859557e-01
 -3.8368359e-01
  2.2165585e+00
 -3.2457263e+00
 -3.1111360e-01
 -5.5923265e-01
 -1.3081201e+00
 -2.4176104e-01
 -5.6443858e-01
 -1.2974412e-04
 -1.5889789e-01
 -3.9058423e-01
 -2.4383362e-01
 -1.0195378e-01
  6.0976535e-01
  1.0156237e+00
  1.0688998e-05
  4.2630007e-05
  7.8336807e-06
 -1.4519611e-01
 -6.4273358e-06
  2.9342708e-01
 -9.2494577e-01
  9.9571604e-01
  1.0216848e+00
 -4.6028009e-01
  1.1025068e+00
 -2.8694530e-03
  3.5186395e-01
  1.3745836e+00
  1.3667424e-01
  2.0022893e-05
  4.5605505e-01
  4.6875855e-01
 -8.4290467e-02
  3.7615409e-01
 -1.3479444e-01
  3.1203505e-01
  6.9354013e-02
 -1.5138574e-01
  1.4705444e-05
 -6.5636479e-05
 -2.8167613e-05
 -1.3701728e-02
 -3.4967022e-06
  1.1811495e-06
 -4.8482593e-07
  2.2187140e-05
 -2.1417722e-05
 -2.2572985e+00
 -6.3608694e-01
 -1.1563532e+00
  5.8882570e-01
  1.4792029e+00
  8.3086640e-01
  1.3732953e-01
 -5.8789378e-01
 -7.5730151e-01
  2.1577942e-01
  3.1681994e-03
 -2.2196728e-01
 -1.4339703e+00
 -1.4719987e-01
 -1.0867625e+00
 -1.3832362e+00
  5.9099281e-01
 -1.3684170e+00
 -1.7415042e-01
  7.1745515e-01
 -1.5429385e+00
  7.4335063e-01
 -3.9431727e-01
 -1.6831515e+00
  5.7123005e-03
 -1.0454788e+00
 -5.7728934e-01
 -8.2624483e-01
  1.1995765e+00
  5.6118935e-01
 -1.2084264e+00
  2.4005611e+00
 -3.3699900e-01
  6.8519354e-01
  2.3365920e+00
 -8.7892342e-01
 -6.9644958e-01
  3.7945065e-01
  5.5781555e-01
 -1.4616154e+00
  4.2613766e-01
  3.0623314e-01
 -3.3229160e-01
  6.4714813e-01
 -2.8639998e+00
  9.4350137e-02
 -1.7915361e-02
  1.1659100e+00
  1.1405321e+00
 -2.0806274e-01
 -1.3545385e-01
 -3.2605249e-01
  6.9166776e-06
 -9.2902029e-01
  2.0273738e-01
  1.9241512e+00
  6.7840743e-01
 -1.1467432e+00
 -1.3341205e+00
 -3.8940030e-01
 -1.1802485e-01
 -1.7965685e-01
  7.1536976e-01
  3.6791152e-01
 -6.5783001e-03
 -7.5862903e-05
 -1.0202572e-05
 -1.3028130e-05
 -2.6788621e-04
  1.5339119e-05
 -2.1800615e-06
 -1.6307302e-05
 -1.4640923e-04
 -2.2618116e-01
 -4.9899280e-01
  1.8434672e-05
 -1.0788908e-05
  5.6700273e-06
 -7.4027879e-03
  3.5522728e-05
 -2.6709777e-01
 -1.2619990e-01
 -4.5851600e-01
  5.2369533e-06
 -2.7172561e-03
 -5.2062005e-06
 -4.5569855e-01
  8.4004618e-02
 -3.3438110e-01
  1.6212591e-05
  8.4993208e-06
  5.4164165e-01
 -9.4762290e-06
  1.6685214e-02
 -3.9464429e-02
  3.1208485e-05
  3.5997342e-05
  8.0671016e-05
  8.0381453e-02
  3.3206212e-05
  1.9607665e-05
 -3.1321433e-06
  1.5118071e-05
  1.1005247e-06
 -3.7024634e-05
  1.0409928e-05
  3.4630273e-06
 -3.0408898e-02
 -2.8994401e-07
  5.6128029e-02
  5.8711380e-02
 -1.8952218e+00
 -2.6404715e-01
 -4.4125474e-05
  4.5458738e-02
  3.1532520e-01
 -1.3231356e+00
  9.1372913e-06
  6.3893473e-05
 -7.2474693e-05
 -2.7523720e-05
 -7.7016106e-05
 -3.9781211e-05
 -2.0707313e-02
  5.4782129e-05
 -3.7907252e-05
 -3.1914427e-05
  1.0458597e-01
 -2.0484177e-03
  1.5186109e-01
  2.6175738e-05
  5.7202124e-05
 -7.2499802e-07
  2.8603069e-06
 -6.4470507e-02
  1.7418786e-05
 -1.3143557e+00
 -4.9536848e-05
 -1.0254550e+00
 -1.4926372e-01
 -2.5439072e-01
 -1.7351285e-05
  8.6059354e-06
 -6.0399332e-05
  5.3797918e-05
  2.0811978e-01
 -2.8035785e-05
  2.1196066e-01
  4.1303700e-01
 -2.1215011e-03
  3.8292903e-01
 -3.1403598e-04
 -8.9304027e-05
 -3.2776315e-05
  1.7547323e-05
  1.3733977e-04
  4.3759587e-06
 -6.0564347e-05
  6.4537066e-06
 -2.2046444e-05
 -7.7673312e-06
 -2.4455666e-04
  1.7303501e-01
 -1.1710620e-02
 -2.0664831e-01
  1.2423068e+00
  1.0345589e+00
  6.1939192e-01
  2.6137814e-01
  3.6667150e-01
  2.9277536e-01
 -6.3649304e-07
 -2.4852349e-04
  2.0502649e-02
  2.0719302e-05
  1.7186011e-04
 -2.5570704e-04
 -9.9267149e-03
  5.7238270e-02
  6.7193745e-05
  3.2252770e-05
  1.9843096e-01
 -2.3692150e-01
 -2.3770984e-02
 -1.9562212e-05
 -3.2626518e-05
 -3.8263706e-06
  9.3632028e-05
 -4.5919463e-01
  5.5627711e-02
  6.7679072e-03
 -8.4727909e-03
  7.4273485e-01
  2.7796777e-06
  2.5264570e-05
 -3.2451976e-04
 -3.6098006e-01
 -2.1665575e-01
  1.9419031e-05
 -7.4914449e-01
 -3.0148190e-02
 -5.1647109e-01
 -4.3118180e-05
 -1.2026579e-03
 -3.4608796e-01
 -6.6637662e-03
 -3.0638754e-01
 -6.8329409e-04
 -3.4952532e-06
  7.9742350e-02
 -5.3750835e-05
 -2.9224539e-06
  6.9734979e-06
 -7.2715207e-05
  4.0362279e-06
 -4.5963898e-05
 -3.0641080e-05
  4.5510682e-05
  3.0478539e-06
  6.4900537e-06
  1.5207484e-05
  4.1122230e-06
 -2.1415690e-05
 -3.4416908e-06
  1.3695278e-05
  1.0383704e-06
 -7.7189461e-06
  3.9972914e-05
 -1.6274062e-05
 -8.1559938e-07
 -8.5519016e-05
  5.2632595e-06
 -1.1797369e-05
 -4.5706067e-05
 -1.8398032e-06
 -1.1413504e-05
  1.2312034e-05
 -2.2772918e-05
  4.9056289e-06
  1.2826420e-05
  1.6868415e-05
 -4.1800558e-07
  5.0051295e-07
 -4.5507739e-05
  9.8435985e-06
  8.5248166e-06
 -4.3334236e-05
  1.0017679e-05
  6.7091796e-06
  1.5636640e-05
  1.1088559e-05
 -2.1912309e-05
  3.7218440e-05
 -1.9549032e-05
  4.8567625e-05
 -3.8736493e-05
 -5.0231210e-06
 -1.3058885e-05
 -1.5140640e-05
 -7.2627103e-05
 -5.0499939e-06
  1.2273418e-05
  3.1255740e-06
  3.5086072e-05
  1.7583970e-05
  5.0477843e-06
 -2.4942645e-05
 -3.1706608e-05
  9.8072291e-05
 -1.2905683e-06
  9.9527142e-10
  1.8216184e-05
  5.1056745e-06
  3.0650950e-05
 -5.0790211e-05
 -1.6413049e-05
  2.6166043e-05
 -1.1493263e-05
  3.8404878e-02
 -1.5091301e-05
 -6.5415152e-06
  8.2385086e-06
  1.5729329e-05
  2.7286262e-05
 -1.3134449e-05
 -9.3120452e-06
 -4.3194734e-05
 -4.2684837e-06
 -2.2348293e-05
 -3.6979098e-05
  5.3158051e-06
 -3.7787270e-06
  1.4831732e-05
  1.1080726e-06
 -3.9215197e-06
 -1.1166412e-05
  5.6284593e-06
  2.7717702e-05
 -2.1158643e-05
 -2.4631101e-05
  6.4323804e-06
  7.7860368e-06
 -8.2404540e-06
 -7.0245609e-05
 -4.4719559e-06
  1.0888536e-05
 -4.8640133e-05
 -2.3308397e-05
 -1.0421692e-06
 -1.6962473e-05
 -6.4670630e-06
 -3.9627480e-06
 -2.2535245e-05
 -6.6865387e-06
 -3.6741763e-05
 -6.0754788e-05
 -3.2285756e-05
 -5.3299009e-06
  1.2582521e-05
  4.7648682e-05
  1.8225586e-05
 -7.6693605e-06
 -5.4339111e-05
 -1.8370980e-05
  8.3566483e-06
 -1.3571346e-05
 -1.7778603e-06
  6.5671995e-02
 -2.6612274e-02
 -4.2173822e-05
 -6.7734186e-06
 -2.4788027e-01
 -3.1653652e-03
  1.3303412e-04
  1.7872044e-05
 -5.3112472e-06
  1.3416263e-05
 -8.0971279e-07
 -1.5376354e-05
 -6.5913191e-06
  4.5517070e-05
 -8.5123165e-06
  7.5947783e-06
  7.1640132e-04
 -2.0077460e-02
  9.0638787e-07
  8.8768411e-06
 -1.3082001e-06
 -3.8012115e-06
 -8.0049849e-06
 -8.7275785e-06
  2.4453853e-05
  6.0768066e-06
  1.0302645e-04
  1.4930130e-02
 -3.6640540e-05
  4.0146506e-06
 -2.7272459e-05
  7.3980750e-06
 -1.6359838e-05
 -1.6857664e-05
 -2.0906356e-05
 -5.3886997e-06
  6.2316991e-02
 -1.5675869e-06
  9.9594017e-06
  3.4697232e-06
 -4.8357458e-04
 -4.1682233e-06
  1.9863059e-05
 -7.0985283e-05
  2.3207862e-05
  1.8483306e-05
 -2.8229459e-05
  2.5932979e-05
 -3.4163920e-06
 -9.6194535e-06
 -2.4249655e-06
  3.3540840e-03
  1.4844881e-01
 -2.1867374e-05
  1.8049241e-04
 -8.1115074e-02
 -1.9790782e-01
 -1.7227398e-02
  2.9070115e-01
 -2.8826126e-01
 -6.0939710e-06
 -2.6938016e-02
 -6.9436483e-06
 -2.3930152e-04
 -1.2917717e-05
 -1.6452941e-05
 -1.8492255e-01
  8.6785767e-05
  2.9085724e-05
  4.4016484e-05
 -2.1504533e-01
 -3.7616203e-03
  3.2542746e-05
  3.6584795e-05
  2.7047699e-05
  1.0056938e-02
 -3.6035377e-05
 -2.1721998e-01
 -2.3366431e-06
  6.2788315e-02
  4.0634815e-03
 -1.3324010e-02
 -4.5527413e-02
 -1.2894831e-02
  1.7362395e-04
  6.9603548e-06
 -4.6219960e-02
  4.1777956e-05
  4.7302157e-01
  8.8887272e-04
  5.1136082e-01
  1.0993402e-05
 -6.9922993e-05
  1.5295058e-05
 -9.8057592e-04
  1.5180422e-05
 -5.2006868e-05
  9.1730653e-05
  1.3044884e-04
  1.5068752e-05
 -1.7800576e-05
  2.7568929e-05
 -1.3362747e-05
 -5.6083791e-06
 -2.3355145e-02
 -4.8349658e-01
  1.8604503e+00
  3.7200470e-02
  3.1131893e-01
 -4.5619431e-01
 -2.0697525e+00
 -1.0455053e+00
  2.4584493e-01
  6.3739491e-01
 -4.8882406e-02
  5.9287345e-01
 -5.6301750e-02
 -9.2913870e-06
  1.0183856e-05
 -3.0819429e-05
 -5.0438643e-07
 -1.4794515e-02
 -4.9599268e-05
  5.8479768e-01
 -7.5797118e-02
  1.0098534e+00
 -2.7053968e-05
 -8.3655104e-02
 -1.5486382e-01
 -9.5258176e-02
 -1.9353225e-05
 -1.1364960e-03
 -1.4561828e-04
  5.2175564e-01
  8.8748056e-01
  2.4308448e+00
 -2.6887099e-04
  1.2771310e-01
 -2.1677618e-01
  6.3049036e-01
 -6.5297097e-01
  1.7680062e-01
 -4.2480046e-01
 -8.1090651e-02
 -1.4744999e+00
  5.0673294e-01
 -1.6813338e-01
  9.0919751e-01
 -4.5253530e-02
 -4.5749727e-01
  2.1528555e-03
 -2.0186513e-04
 -7.6165813e-01
  9.4953048e-06
 -3.2292708e-05
  3.5121862e-05
 -7.0790766e-06
  5.9657391e-06
  6.5513734e-05
 -1.4896074e-05
 -5.1584383e-03
  6.4672895e-02
  1.3699386e-03
  1.0846212e+00
  6.7015773e-01
 -7.5784065e-02
  2.4910079e-01
 -2.5570600e+00
  2.2064188e-01
 -3.6307558e-02
  2.9919785e-01
  2.6356304e-04
  1.5617536e-01
 -8.5555419e-02
  9.8706514e-05
  2.5601771e-01
  1.1001473e-05
  1.3354352e-01
 -1.5970643e-01
 -1.3703123e-01
 -5.4605860e-01
  4.6711585e-01
 -3.9342034e-05
  5.0379217e-01
 -1.2908931e-01
 -7.8320600e-02
 -1.1590665e-01
 -1.3880292e-03
 -9.8419249e-01
  6.8808697e-02
  2.3980524e-01
  7.9177902e-04
  1.2537670e-01
 -4.9212878e-03
 -1.1253329e-05
  1.3918904e-02
 -2.1497603e-01
  5.4322231e-01
  5.3723848e-01
 -2.4405779e-01
  1.1671894e-01
 -3.4255227e-01
  4.4910908e-01
  1.0125845e-01
 -1.4918613e-04
 -1.9737275e-02
  1.3597967e-01
  3.7628249e-04
 -3.9795741e-05
 -1.2693391e-04
  2.5058705e-05
 -4.6037618e-05
  9.8181308e-06
  5.1872116e-06
 -7.2563664e-05
  6.0078476e-02
 -1.1640589e+00
 -4.2362478e-01
 -2.1391026e-04
 -8.8723786e-02
  1.1110710e+00
 -8.2775587e-01
  1.2167156e-05
  1.4257566e-06
 -1.2344941e-04
 -1.0164867e-05
 -1.1335874e-05
  3.2007621e-05
  6.3143561e-05
 -7.7718278e-07
  1.7071054e-05
  6.6161747e-06
  8.0501300e-01
  2.0616740e-04
  8.0823929e-06
  7.9659203e-06
  6.3755151e-06
 -3.5535591e-05
 -7.5279286e-06
  1.0630357e-05
  2.9036195e-07
 -1.2019685e-01
 -2.4471384e-02
 -5.3214961e-01
 -3.8293263e-05
  1.0089167e-05
 -8.7489816e-06
 -1.3187057e-05
 -1.9161157e-06
  2.0093939e-05
  3.2147089e-01
 -2.9249060e-01
 -4.1108735e-05
  3.6270621e-01
  7.0547094e-06
  2.3378199e-01
  3.1329747e-04
 -3.8015494e-07
  3.6625679e-05
 -2.2643374e-02
  1.6786897e-05
 -5.1783381e-06
  1.5837637e-05
 -1.0098681e-05
 -1.0766790e-06
  8.0347709e-06
 -1.6026685e-05
  2.2179427e-06
  2.2774271e-05
  2.5567006e-05
 -1.7852959e-06
 -1.8761220e-06
 -6.8607351e-06
  8.4609555e-06
  2.0445393e-06
 -4.3176820e-05
 -2.0101006e-05
 -1.0939314e-05
 -6.9876842e-05
 -1.1381370e-05
 -1.3125487e-05
  1.1598505e-05
  1.0920083e-05
 -5.8610126e-06
  7.8418816e-06
 -7.8721368e-06
  6.7880528e-06
  1.5427393e-05
 -1.2474348e-05
  1.6551742e-06
 -8.9934720e-06
  8.3132591e-06
  3.4099616e-05
 -9.1536676e-06
  1.4545232e-05
 -7.3636629e-06
 -1.3334082e-05
 -7.2141088e-06
 -3.3816070e-06
  2.9700159e-06
 -3.4162025e-05
 -9.1020192e-06
  1.4780967e-05
 -5.4204706e-06
 -2.7555830e-05
  3.3371080e-06
  4.8173720e-06
  1.8716630e-06
 -1.9613879e-05
 -2.0336915e-06
 -6.4797073e-06
  2.5555064e-05
  1.2353586e-05
  7.5650940e-05
 -3.0102824e-06
  1.0926358e-05
 -6.5243461e-05
  2.0912359e-05
 -7.4613614e-05
 -8.3276809e-06
  1.2904895e-05
 -5.1331062e-06
 -6.7005239e-02
  6.0892180e-05
  1.1707505e-01
 -2.4949694e-01
  4.5060730e-01
 -3.6068425e-02
  6.1676338e-02
  3.2486281e-01
 -5.2499609e-06
  3.9213028e-05
  1.2106072e-05
  2.1608697e-05
 -1.2622255e-05
  1.4072861e-05
  1.5873167e-05
 -1.3409415e-04
  1.1558998e-05
 -1.3911138e-05
 -9.9045597e-03
  1.7415972e-02
 -1.5038438e-05
 -3.2031447e-05
 -8.8488669e-05
 -1.4026900e-06
 -1.4765736e-05
  1.9485748e-01
 -7.4340464e-06
  3.4380123e-01
 -6.6846497e-02
 -1.5109004e-01
  5.1092288e-06
  5.0679329e-05
 -4.0208372e-05
  1.2732567e-05
  1.8651765e-05
  2.6894818e-06
 -5.7315647e-06
 -6.1730476e-05
 -1.6619073e-01
  2.8529372e-05
  1.0277209e-05
 -1.0267786e-05
  1.7961118e-04
 -4.4128261e-05
 -1.3925775e-05
 -1.3656920e-05
 -2.4402038e-05
 -9.9381738e-05
  3.6974314e-05
  3.7182890e-05
  1.4340426e-05
 -1.1067197e-06
  3.3294682e-06
 -7.0701506e-05
  1.2928863e-05
 -1.5027042e-06
 -9.3590381e-05
  1.3907562e-05
 -2.1314932e-05
  2.5361895e-05
 -5.6178615e-05
  2.7522390e-06
 -9.1768588e-06
  6.3694461e-07
  2.3895900e-06
  3.5188503e-05
  3.6790283e-05
 -9.2360104e-05
  7.5801099e-06
  1.2173833e-05
 -8.9752957e-06
  3.2590116e-05
 -4.8501062e-07
  1.4181602e-04
 -7.1718634e-05
 -2.2028138e-05
 -5.3626027e-06
 -4.4380708e-05
  7.4719610e-06
 -4.1823000e-06
 -9.8874070e-06
 -6.5516804e-05
  2.4894154e-05
  3.7715712e-05
 -5.3211825e-06
  4.1430362e-06
 -5.6816612e-06
  3.7204882e-06
  4.5166071e-05
  9.9731724e-06
 -5.1721152e-05
 -2.6373313e-05
 -6.8035060e-06
 -2.1430158e-05
 -3.0364456e-05
  3.9803810e-05
  1.2041686e-05
 -5.5212178e-05
  1.5622191e-04
 -1.9204517e-05
  1.5131761e-06
 -1.0523581e-05
 -3.5458364e-05
 -1.4490774e-05
  3.3237910e-05
  1.3719126e-05
 -3.8564676e-06
  6.9520734e-02
  3.9263651e-02
 -2.3754881e-01
  1.9323539e-02
  1.7630150e+00
  2.6687205e-01
 -6.8323624e-01
  2.9226413e-01
  2.3133610e-01
  4.1127421e-08
 -4.0388042e-01
  3.9936513e-06
 -5.2176636e-01
  3.3328099e-05
  3.8586285e-02
  2.2837612e-05
 -7.0731367e-05
  6.5724889e-06
  1.3287362e-01
 -1.7905507e+00
 -7.4713153e-01
  1.0159697e-05
  1.8510006e-01
  6.2973194e-02
  1.6409194e-01
 -5.1155007e-06
 -1.6135976e-01
  2.7465445e-01
 -2.4165728e+00
 -3.4160316e-01
  1.2796347e+00
  2.5879216e-01
 -3.9974403e-01
  1.2524800e+00
  2.3170331e-01
 -1.4546676e-02
 -3.5361373e-01
 -9.5971513e-01
 -7.8144938e-01
  5.1405096e-01
  5.3296457e-03
  4.7276448e-02
  6.5261595e-02
  9.6272552e-01
 -7.8712814e-02
 -1.2215355e-05
  7.3311305e-01
 -1.5145049e-05
 -1.3621170e-02
  1.0208149e-04
  6.7413202e-06
  3.6735437e-05
 -3.6756319e-05
 -1.4477234e-02
  1.6846925e-05
  4.0786559e-05
  3.3297922e-05
 -1.0149624e-04
  1.3044704e-05
 -1.1878733e-06
  6.7326022e-05
  5.3947256e-06
  7.0871702e-06
  1.1902060e-05
 -1.4625737e-05
 -1.1824944e-05
 -1.0486282e-05
  7.1620598e-05
  1.4212229e-05
 -2.9554829e-05
  4.0572413e-06
  2.1388974e-05
 -9.4291872e-06
 -1.2385365e-05
 -1.4247257e-05
  5.1760226e-06
  1.8655878e-06
 -1.9241719e-05
  7.5252328e-06
 -3.1424355e-05
 -3.6841604e-06
 -1.6197848e-05
  6.6618031e-06
  2.9022158e-06
  7.7983750e-06
  9.2614232e-07
 -1.2584605e-06
 -7.4044969e-05
  2.0017211e-05
  4.1543204e-05
 -1.2149802e-05
  4.4215142e-07
  5.5751407e-06
  4.7678209e-06
 -9.5103214e-06
 -1.5900227e-06
  1.3672588e-05
  1.8658262e-05
 -2.4405927e-07
  1.2594969e-06
  7.5237349e-06
 -8.5643433e-06
  1.4788891e-05
  9.0384674e-05
  4.0623781e-06
 -2.3476816e-05
  1.3697053e-05
  6.6636776e-06
 -4.3746204e-06
 -1.4744745e-06
 -1.8788185e-05
 -2.4445315e-05
 -5.6894831e-05
  7.3897468e-07
  4.3180011e-05
 -3.6369394e-05
  9.1422862e-06
 -3.2467415e-06
  6.3928119e-06
 -7.6386686e-06
  1.0957843e-05
 -1.6335345e-05
  4.3964319e-05
 -2.0645339e-05
 -4.0144141e-06
 -1.2472844e-05
  2.9503337e-05
  3.6278743e-05
 -3.8845988e-05
 -3.3904798e-05
 -1.9614095e-07
 -5.4317007e-07
 -7.5375669e-05
  1.3893522e-05
  4.1587282e-05
  6.5470026e-06
 -8.0543196e-06
  3.3502808e-06
 -2.2959324e-05
 -1.2445381e-05
 -7.2849209e-05
 -1.9345014e-05
  7.3894844e-06
 -1.3321387e-05
 -5.8222315e-05
  3.9674524e-07
  6.3038742e-06
  8.5329302e-06
  4.2865002e-05
 -7.9132433e-06
 -2.9183548e-05
 -3.7270624e-06
 -1.4657544e-05
  3.6595075e-06
 -4.1156465e-05
  9.6749477e-07
  1.1938959e-05
 -3.2296934e-06
 -7.9787969e-06
  1.4122917e-05
  1.5428099e-05
  1.7712637e-06
 -9.6568059e-05
  2.9906685e-05
 -1.4596241e-05
  4.8624252e-06
 -1.5748416e-05
 -7.1685813e-06
  1.4614250e-05
 -1.9203073e-06
 -5.4462487e-07
  4.6090800e-06
  2.3220985e-06
  1.7529082e-06
 -2.2351816e-05
  9.2871105e-06
  7.2913667e-07
 -1.3772089e-05
 -2.8788672e-05
 -1.8934576e-06
  1.2759121e-05
 -3.6173056e-05
 -3.9675080e-05
  3.3518618e-06
 -5.8524574e-06
 -5.0976858e-05
 -1.5290105e-05
 -4.5771691e-07
 -3.5260324e-05
 -1.4460016e-05
  1.1760811e-05
 -1.1500466e-05
 -9.9618464e-06
 -9.3501640e-06
 -6.5140980e-06
  5.5363626e-06
  4.3651067e-05
  1.2248099e-05
 -2.7115602e-05
  7.8989915e-06
  5.5098676e-06
  2.8419312e-05
 -1.1112314e-05
  3.8631697e-07
  1.6232618e-05
  3.0229767e-05
 -1.3245046e-05
  7.5960247e-06
  1.4636809e-05
  1.0080616e-05
  4.1209769e-06
  1.9238585e-05
  1.1563762e-05
  6.2154555e-05
  8.5677220e-06
  5.1981533e-05
  2.9975393e-01
  2.2649966e-01
  3.5526212e-02
 -2.6816916e-01
  8.3204550e-01
 -2.3051013e-01
 -1.0237101e-01
  6.0181630e-01
  4.3512744e-01
  7.2760746e-02
  4.1768256e-01
  9.2880827e-01
  3.3790043e-01
  9.3040007e-01
 -4.8789725e-01
  1.4426129e-01
  7.8839749e-01
  1.8035108e-04
  7.9798046e-03
 -1.6634591e-01
 -6.4685261e-01
 -3.3484027e-01
 -1.6660708e-01
 -2.7471992e-01
 -1.9951893e-01
 -5.1474762e-01
 -8.0487734e-01
 -1.5090644e-05
 -4.2349890e-01
 -7.6655215e-01
 -1.5635274e-01
 -2.5544994e-04
 -2.0780534e-02
 -4.4655308e-02
 -1.0934846e+00
 -8.9635151e-03
 -1.0957368e-01
 -6.5368128e-01
 -2.6228347e-01
 -1.2284217e-01
 -1.1466575e-01
  1.1209397e-05
 -9.8506045e-01
 -5.7679176e-04
 -9.0321898e-02
  1.7214967e-04
  3.7062146e-02
  1.3670239e-01
  6.6497529e-01
 -2.7830250e-04
 -1.8047071e-01
 -2.7542093e-01
 -1.1681553e-05
 -5.2650994e-05
 -7.0604633e-06
  4.2412234e-05
  1.7564653e-06
  1.0436685e-05
 -1.4329544e-05
 -1.1566066e-05
 -1.4533332e-05
 -3.9183935e-05
 -9.1253496e-06
 -8.9494097e-05
 -1.2371766e-05
 -5.5700025e-06
 -5.9699341e-06
  3.7381906e-06
  5.9755716e-06
  5.9614190e-06
  7.5403059e-06
 -1.5919011e-05
 -1.1102943e-05
  6.8211903e-06
  1.7125037e-06
 -1.3298035e-05
  2.0997964e-05
 -1.5197786e-06
  6.7673136e-06
 -4.6149939e-06
  6.7961691e-06
 -1.6804521e-05
 -4.7710200e-06
 -6.9487360e-05
  3.8605180e-05
 -7.0969094e-05
 -4.5624947e-06
  5.1652623e-06
  3.7825710e-05
 -1.9648071e-06
 -4.3664411e-05
  4.2957863e-06
  3.3924338e-05
  6.1215478e-06
  1.6075945e-05
 -1.2034262e-05
 -1.3951521e-05
 -3.6426667e-05
  9.6096601e-06
 -3.1900017e-05
 -9.3331528e-06
  7.8963822e-06
  7.4690315e-06
 -1.3349451e-06
 -5.8465453e-06
  4.3711054e-05
  5.8324958e-06
 -5.8074227e-07
 -1.3787422e-04
  2.2001757e-01
  4.5249857e-05
  2.8092027e-01
 -3.8443235e-01
 -4.0838437e-04
 -1.2777969e-01
 -4.2111582e-01
 -6.6061147e-02
 -5.3144045e-02
  4.4417716e-06
 -9.1244401e-06
 -1.3523995e-05
  7.7412000e-07
  2.1407248e-02
 -4.5567271e-05
 -2.3276892e-03
  1.4849908e-05
  7.7250814e-05
  1.4508936e-01
  2.1286737e-02
  3.4891468e-06
  9.8333760e-05
 -1.1346548e-05
  2.6278661e-04
  1.4683846e-05
  4.1977459e-05
 -4.6848469e-05
  3.6078613e-02
 -6.7391379e-06
 -6.0702011e-02
 -9.7778116e-05
  1.4554393e-04
  3.4975831e-06
  1.6350833e-04
  2.8158961e-06
 -7.1989452e-06
  7.5638390e-01
 -1.1118657e-02
 -8.3900759e-06
 -9.4593401e-05
  3.8324561e-05
  3.4611844e-06
  1.5515755e-03
 -3.5721525e-05
  1.2790231e-04
 -5.0017963e-05
 -1.8926770e-03
 -9.6758915e-05
  2.0487527e-05
  2.7383710e-05
 -9.5482446e-06
 -2.0764428e-06
  9.9472854e-05
  2.6579707e+00
 -1.6067162e+00
 -1.2731116e-02
  1.9022837e-01
  1.6051118e+00
 -7.2388142e-01
 -2.8111795e-01
 -1.8262854e+00
  1.3049709e+00
  8.3256054e-01
  1.3030811e-01
 -2.1097255e+00
 -1.4387506e-01
  9.7462861e-03
 -2.8171679e-01
  3.3866650e-01
 -1.7587483e-01
 -3.7448037e-05
  5.8286285e-01
  1.0420177e+00
 -7.2191095e-01
  8.3094484e-01
  1.0460462e-01
 -1.3777619e-02
 -6.5864551e-06
 -4.5922738e-01
 -1.1827525e-01
  1.1773777e-04
 -1.0434936e+00
  2.1577651e-02
 -1.1425251e+00
 -1.5653315e+00
 -3.5160565e-01
  8.2925373e-01
  1.0968435e+00
 -1.1921958e+00
  4.6547886e-02
 -1.1387091e+00
  1.6072421e+00
  3.6765023e-03
  1.1254575e-06
  2.5350309e-03
 -6.2419349e-01
  8.0343403e-02
 -6.2363923e-01
  3.8905814e-06
 -2.3991634e-01
 -1.1731980e-02
  1.3664394e-04
  2.7935948e-05
  1.0214390e-04
 -8.0541095e-06
 -7.5403754e-05
 -8.5651582e-01
  1.4507346e-04
  6.8951100e-02
  2.3851830e-01
 -1.1061693e+00
  5.3165966e-01
 -2.8260684e-01
 -1.7248025e-03
  1.3201703e+00
 -2.1989499e-01
  3.0648869e-01
  8.6584970e-07
 -4.2432577e-05
  1.5327540e-04
  8.8387892e-02
 -3.0973926e-01
  5.7863619e-04
  4.1687523e-04
 -4.4258453e-05
 -2.3749303e-02
 -1.6926016e-01
 -6.7150146e-01
 -4.1453110e-05
 -1.8628772e-02
  4.1635685e-05
 -1.0729800e-01
 -7.7072305e-05
 -5.3597689e-03
 -1.9833523e-01
 -6.2734611e-02
  1.9390378e-02
  3.2492125e-01
  3.3714297e-01
 -4.2789478e-02
 -1.2122165e-05
 -3.0811009e-01
  2.4620877e-04
 -1.9514071e-02
 -1.7205968e+00
  3.2109066e-03
 -5.4170030e-01
  1.4625686e-05
 -3.3345214e-01
 -3.9374998e-01
 -1.3633299e-03
  4.5623052e-05
 -1.9456736e-04
 -3.9377948e-03
  3.7340586e-05
 -2.0807807e-05
 -1.1659719e-06
 -5.2653701e-05
  1.1091327e-05
  2.4588102e-05
 -1.3778522e-05
  1.3453709e-05
 -3.1755746e-05
  1.0798127e-05
  7.8450776e-06
 -1.0183720e-05
  1.8407695e-06
  3.4498898e-05
  3.4593137e-05
  2.7145954e-06
 -4.1983487e-05
 -7.9245992e-06
 -3.0366114e-06
  5.5130058e-06
 -3.9023565e-05
 -6.4415537e-05
 -1.5929452e-05
  5.0077369e-06
  6.9714282e-05
 -1.5886853e-04
  5.3424352e-05
  7.9745496e-06
 -3.7293230e-05
 -1.0291208e-05
 -2.1656910e-05
  6.6871515e-05
 -8.3451432e-06
 -4.5498346e-05
  5.7754182e-06
 -2.5709374e-05
 -3.9753309e-06
  6.2819659e-06
 -9.4464422e-06
  1.0998401e-07
 -1.4797739e-05
  4.6969194e-06
  1.3670264e-04
  8.3149234e-06
  1.8316872e-06
  3.9511019e-06
 -9.2154978e-06
  4.7441245e-06
 -1.0066716e-05
  3.2766056e-05
 -1.0918824e-05
 -4.5792453e-06
  2.2771032e-05
 -2.5056403e-05
 -1.4284750e-05
  1.0294446e-05
  8.3745254e-06
  2.4041452e-05
 -1.3005938e-06
  1.4887271e-05
 -3.3389384e-05
 -7.1279530e-05
 -1.8954441e-05
  4.6880473e-03
 -1.1393332e-01
 -3.7166363e-01
  3.7118495e-03
 -1.7649882e-02
  2.5006363e-02
 -9.9071407e-01
 -8.4910105e-05
 -2.3320139e-05
 -9.2238691e-03
 -3.5701041e-06
  1.9432689e-05
  1.1657999e-05
 -1.0422286e-05
  4.4752025e-05
 -5.5638889e-06
 -1.0918478e-02
 -4.2755774e-01
  4.8838213e-02
  1.0578140e-06
 -3.3589944e-04
 -1.9468828e-04
 -4.2652206e-05
  6.0589009e-05
  4.1764593e-01
 -1.8170175e-01
  3.8006422e-01
  4.3090531e-01
 -7.5058392e-07
  1.2536798e-04
 -2.5722966e-07
 -3.9865345e-06
 -1.2713691e-05
 -1.1234086e-05
 -8.0523203e-04
 -7.1032718e-02
  1.3382483e-03
 -1.1301439e-01
  8.0356920e-05
 -9.7484726e-06
 -8.5962065e-06
 -6.5192849e-06
  5.0419342e-02
  4.0262119e-05
  2.9325319e-02
 -1.2460589e-05
 -1.1037244e-05
  1.7575436e-05
  1.5113790e-05
 -7.3740630e-05
 -3.0454710e-05
  8.8899396e-06
  1.5221667e-05
 -8.6448899e-06
 -9.4078314e-05
  1.6901428e-03
  5.0066626e-01
 -1.5792068e-05
  3.8081947e-05
  3.8251223e-04
  1.4170742e-01
 -2.0767915e-05
 -2.3719904e-04
  6.6260563e-06
 -1.4499608e-05
  1.9959163e-05
 -1.7276256e-05
 -3.6071349e-05
  1.4741915e-05
  1.1946105e-04
  1.3286442e-06
 -1.2829130e-02
 -3.6603725e-03
 -1.8135441e-05
  1.3613610e-05
  1.0213128e-04
  9.6298045e-06
 -1.2179863e-05
 -2.4780426e-03
 -3.5293206e-06
 -2.8030887e-05
 -2.4947713e-05
  3.1481213e-05
  5.3490901e-05
  8.6299758e-07
 -1.4483448e-05
  3.7346810e-05
 -1.2362825e-05
 -1.3824377e-05
 -4.6703783e-05
 -1.4944590e-05
  1.7084378e-06
  1.2091241e-05
 -7.0504025e-06
  1.4534154e-05
 -3.5239020e-05
 -9.5950440e-08
 -6.9629757e-05
  1.1348759e-04
  1.1765591e-04
 -2.4864626e-06
  8.7345124e-06
 -7.7203058e-06
  1.2120772e-05
  5.6845743e-06
 -3.5341841e-07
 -3.0281948e-05
  1.3459500e-05
 -3.4386755e-07
  4.2342617e-05
  1.0819882e-05
 -1.6263253e-05
 -1.1486305e-05
  3.2725085e-05
 -1.6990874e-05
  6.1421442e-06
 -3.5991099e-05
 -1.4706061e-05
 -6.1094433e-05
 -1.1927959e-05
  1.2652395e-05
  1.3844552e-05
  2.3180841e-05
  2.3731092e-05
 -7.8630175e-05
 -3.5695521e-05
  4.4838875e-05
  5.9159363e-05
 -3.6217957e-06
  9.7340780e-06
  5.0879848e-05
  4.0117382e-05
  9.1465254e-06
  3.9761812e-06
  1.4107610e-04
  2.9818216e-06
 -4.5014793e-05
 -3.5680566e-06
 -1.0026937e-04
 -2.3569211e-05
 -3.5557218e-06
 -3.3784851e-05
  4.3620248e-06
 -2.0611692e-06
 -2.5142639e-05
 -1.8650408e-05
  4.4361896e-05
 -1.4004116e-05
  1.2044035e-05
 -1.6341695e-05
 -1.6045475e-05
  4.5927873e-06
  1.0521371e-05
  1.7648177e-05
 -6.8017098e-06
  3.6931135e-05
 -1.1547880e-06
 -2.0874243e-06
  7.6563592e-06
 -1.3048566e-05
 -4.0984260e-06
 -2.5794850e-07
 -1.0799668e-05
 -3.6184119e-05
  7.6690230e-06
 -1.1790367e-05
 -3.0208143e-05
  2.2438766e-05
  3.8999730e-01
  2.3429688e-05
 -1.2038241e-05
  1.2804734e-05
 -9.8235778e-06
 -2.1289989e-05
  1.1428377e-05
  7.3563619e-06
 -1.0243594e-06
  1.5567228e-05
 -2.2382381e-05
  3.3219356e-05
  4.1369680e-05
 -1.0229574e-05
  1.2069717e-05
 -2.7545935e-05
  1.1214217e-06
  5.6961248e-06
  1.9039128e-06
 -1.3040079e-05
  3.9914430e-05
 -6.3274738e-06
 -8.0355996e-05
 -1.5974883e-05
 -2.9251498e-06
  5.2031628e-06
  2.3299651e-06
  2.5495923e-05
 -1.1431203e-05
  3.4060231e-05
 -1.2006670e-05
  2.3743867e-06
 -3.2112373e-05
  1.0541348e-04
 -2.7893593e-05
  1.0966809e-05
  2.5417357e-06
 -2.6517941e-06
  1.2661900e-05
 -8.0223326e-06
  8.9889900e-06
  8.4527392e-06
  1.2641503e-05
 -1.1043120e-05
 -6.4753440e-06
  3.1648146e-05
 -7.8816674e-06
 -1.5924397e-01
  2.7153769e-06
  2.8228149e-01
  3.9039418e-01
 -5.6195140e-02
 -4.3823594e-01
  3.3939335e-01
  4.3107328e-01
 -1.2727846e-05
  3.5015073e-05
  4.1541862e-01
  1.2649013e-05
  2.3858592e-01
  2.4663012e-05
  1.2684411e-01
 -9.1945976e-06
  1.8246008e-05
  1.4575376e-04
  7.8800452e-01
  4.8609334e-04
 -2.5025809e-01
  4.5420948e-05
 -3.5691409e-07
  1.5759399e-06
 -3.7231250e-05
  1.9160493e-06
  2.3014181e-05
  2.1038032e-03
 -8.2424361e-01
 -7.4854619e-03
  1.3924520e-01
  3.1230673e-01
 -1.4336948e-05
 -8.2479091e-06
  3.8683817e-02
 -2.3487719e-05
 -6.0648439e-03
 -1.5520678e-01
 -6.7082092e-06
 -9.7474251e-05
  1.2787147e-02
 -5.3701977e-05
  3.4703287e-01
 -4.7985054e-06
  9.4634734e-06
 -7.0966735e-02
 -1.4944674e-01
  3.6504232e-05
  1.0745036e-05
  1.3701003e-05
  6.6929920e-06
 -1.4331403e-06
 -1.1579670e-05
  3.5684090e-05
 -4.9705563e-06
  1.0552360e-06
 -2.3552133e-05
  5.1439806e-06
  3.0575536e-06
  1.4232189e-06
  1.1009689e-05
  2.3784808e-06
  1.0382619e-06
  6.4193147e-05
  1.3217896e-04
 -2.1477051e-06
  1.0522627e-05
 -1.2672128e-06
 -1.8947043e-07
 -8.5751471e-06
 -4.1680061e-05
  1.6333532e-04
 -1.3906124e-05
  1.0683329e-05
 -7.3027149e-05
  4.1381104e-06
  1.7589971e-07
 -1.4812615e-05
 -3.6067675e-05
 -4.0853000e-05
  3.4995286e-05
 -6.0663351e-06
  1.0176595e-06
  3.4165696e-05
  1.6903048e-05
  9.6967397e-06
  2.9164567e-06
  3.3535871e-05
 -1.4293282e-05
 -5.9456502e-06
 -4.0311716e-06
 -7.8682615e-06
  5.7374009e-06
 -6.2076001e-06
 -4.2356543e-05
  1.0082231e-05
  3.2528573e-05
  2.9777715e-05
 -1.1796328e-05
  2.9320540e-06
 -3.0314875e-06
  1.0587511e-05
  2.9651399e-06
 -1.9198360e-05
 -6.5618027e-05
  2.8706985e-05
 -4.4089866e-05
  1.9529343e-02
  1.9627880e-02
 -2.4030719e-02
 -1.2213156e-01
  8.9786285e-05
  3.5802653e-04
  5.8291745e-03
  1.3190491e-02
 -7.5163129e-03
  1.6288778e-01
 -6.8247676e-02
 -9.3397620e-04
 -1.1354999e-02
  1.9599912e-03
 -2.8252828e-01
 -6.1102111e-02
  4.7863495e-02
 -1.1312537e-05
  4.5005081e-04
  1.1707504e-03
 -8.1329979e-02
  1.9536912e-02
  2.2559194e-04
  1.6258055e-02
 -9.0227273e-05
 -5.2979547e-03
 -7.1051344e-02
  8.7676186e-04
  1.9469908e-04
  3.5321463e-02
  8.5375626e-03
 -2.3509422e-02
 -5.8217432e-02
  6.2946859e-03
  5.2831845e-05
 -5.3101354e-03
  2.8787288e-03
  3.2035489e-02
  3.3385225e-02
  1.2117668e-01
 -7.6787118e-03
 -4.5786403e-02
 -1.7369045e-03
 -8.0503069e-02
  8.6528750e-04
 -1.4267738e-04
 -1.9501409e-02
  9.4566926e-02
  1.3438237e+00
 -3.7838187e-02
 -1.4985651e-02
  3.9977085e-06
  5.6556053e-07
 -3.0923736e-01
 -3.9900683e-06
  5.2340001e-06
 -7.2223077e-07
  1.3133863e-06
 -1.5563544e-04
  9.9169220e-06
  4.8801817e-06
  3.0225276e-06
  5.6757540e-06
 -2.3965909e-05
 -3.0449250e-05
  1.2990984e-04
  1.0381978e-05
  1.0316144e-05
  1.4036677e-05
  4.2039217e-05
 -3.5528723e-05
  4.4225693e-05
 -3.7425139e-05
 -6.4075462e-06
 -4.2650995e-06
 -1.0196140e-05
  4.4004453e-05
 -1.1854717e-05
  6.8055897e-06
  1.3921058e-05
  2.2823930e-05
  1.1992963e-05
  2.2254164e-05
 -9.0043541e-06
 -1.0233113e-05
  9.1478159e-06
 -5.4436066e-07
  4.6304626e-06
 -1.5956837e-05
  1.0223745e-05
  1.3283810e-04
 -1.8348358e-06
  1.0814501e-05
 -1.4094425e-06
 -8.2963325e-06
  3.1133980e-06
 -2.6760139e-05
  3.9335246e-06
  1.7099659e-05
  1.5008957e-05
  6.7586145e-05
  3.4377790e-06
  1.9146228e-06
 -5.5259316e-06
 -7.0767333e-06
  1.6640388e-05
 -4.1945259e-06
  8.9858395e-06
 -1.0356552e-05
  5.8572464e-06
  4.5007211e-05
  6.0619591e-06
  1.4355996e-05
 -4.5419467e-05
 -4.5151392e-05
  1.1458831e-05
 -2.8864224e-07
 -4.4235341e-05
 -1.6072711e-06
 -7.1191257e-06
 -6.0635614e-07
  1.2330882e-05
 -2.7825490e-05
  3.7368170e-07
  2.2220212e-05
  1.3046817e-05
  2.2983348e-05
  1.1057302e-05
 -4.9607494e-05
 -1.3371521e-05
 -1.0490011e-05
 -2.4144861e-06
  3.0118292e-06
  2.8752107e-05
 -2.9389537e-05
 -2.3242842e-06
 -8.9718395e-07
  6.5194890e-06
  1.1669553e-05
  1.2533322e-06
 -5.0973747e-05
 -1.4440328e-05
 -4.2991334e-05
  1.2259143e-05
  1.5625305e-04
  1.0729395e-05
  3.7913239e-06
  1.1206616e-05
  9.9473527e-06
  2.0387135e-05
 -3.7696157e-06
 -1.0152946e-05
 -2.5171471e-06
  3.0504320e-05
  1.2820016e-05
 -3.5648773e-06
 -1.3772213e-05
  3.5636844e-05
 -1.2736718e-05
  3.8423966e-07
 -2.3012068e-05
 -9.4849829e-06
 -1.4412250e-05
 -6.2959456e-01
  2.5959221e-06
 -7.9968756e-01
  1.4811459e+00
 -2.7582651e-01
  4.5550951e-05
  1.6612059e-02
  5.9561939e-05
  2.9600351e+00
  9.0332812e-01
 -1.1966608e-01
 -1.0658358e-05
 -1.2088764e-05
  9.1557267e-06
  1.2968188e-05
 -2.0536166e-01
  7.6239216e-01
 -1.6308515e+00
 -2.0431917e+00
  2.5166142e-01
  4.2297137e-01
 -1.3612158e-05
 -1.7130023e-05
 -5.3806531e-01
  6.5598238e-01
 -3.3689830e-01
  6.3440025e-01
 -3.1509571e-05
 -4.4567939e-03
 -2.7904664e-05
 -6.0392786e-03
 -2.3406403e-05
 -4.3630786e-05
  5.4752550e-06
 -1.5987960e-01
  1.1995818e-05
  1.6814229e-01
  1.9447424e+00
  1.9333534e-02
  1.0890498e-05
 -8.6889073e-02
  3.1253690e-05
  9.5546757e-06
 -4.7976205e-01
  1.8334687e+00
 -3.0898204e-06
  6.5598544e-04
  4.1428208e-05
  8.9699333e-06
 -6.1571918e-06
 -1.1002264e+00
 -3.7830998e-06
  7.8552777e-01
 -4.6641538e-01
 -3.1369528e-01
  1.0237107e-01
  1.4490741e+00
 -1.1781744e-04
 -3.7329215e-01
 -3.9085302e-01
  2.1074866e-01
  2.0929156e-02
 -8.3407385e-06
  4.1164207e-05
  1.0440849e-01
 -3.7897709e-01
  1.4503020e+00
  4.5162496e-01
  2.4512057e-01
  4.9957544e-01
  1.7937300e-03
  8.3584855e-06
  2.0302972e-01
  4.2431656e-01
 -3.1745759e-01
  6.9327319e-01
 -2.7438194e-01
 -2.6233445e-05
 -2.2886762e-01
  1.8874763e-03
 -7.6183701e-01
 -5.8128926e-06
  1.4920988e-05
 -1.7292006e-05
  1.0851816e+00
  4.2260031e-05
 -4.3185917e-01
  1.4595734e+00
  3.8762748e-01
  3.0105846e-05
 -4.5274985e-01
  2.4363084e-01
 -2.0148955e-05
 -1.3376606e-01
 -5.4361433e-01
  1.0790927e-04
  1.7825289e+00
  8.8306178e-06
 -4.2408092e-06
  7.9919271e+00
  4.6185587e-02
  2.5654435e+00
 -5.3080088e-01
  2.1440871e-01
 -1.5414242e+00
  1.5221062e-01
 -2.8188679e-01
 -3.4701073e-01
 -1.0815085e+00
 -4.5785293e-01
  1.0699327e+00
  6.2731773e-01
  1.7825188e-01
 -4.5767221e-01
  9.3159086e-01
  8.3048010e-01
  8.1255215e-01
 -4.5220195e-03
  1.9616310e-01
 -2.1505382e+00
 -1.1947153e+00
  1.8171415e+00
  2.3484530e-01
 -3.5551393e-01
 -1.2397265e+00
 -6.5070355e-01
 -3.6741268e-02
 -1.8042328e-02
 -1.0210550e+00
 -2.4101493e+00
  1.5757152e+00
  2.5425527e+00
  3.2580744e-02
  3.3707690e-01
  1.3613324e+00
  1.7382063e-01
 -6.4904976e-01
 -7.0275003e-01
 -7.3005509e-01
 -1.3189946e-01
 -1.4529258e+00
  7.8443629e-01
  2.6425633e-01
 -8.7547588e-01
 -9.9251008e-01
  2.8779333e+00
  1.1217656e+00
 -7.3603821e-01
 -2.3456812e+00
  2.0180078e+00
  1.6919271e+00
 -3.9398965e-01
  1.1777583e+00
  2.5211959e+00
 -3.3661109e-01
  1.8578027e+00
  2.7028081e+00
 -9.5040947e-01
 -1.9019386e+00
 -3.6156562e-01
  5.0795782e-01
 -7.0733732e-01
 -6.4571321e-01
  1.3141767e+00
  8.4593557e-02
 -1.3619260e-01
 -7.0456547e-01
  2.6576155e-01
  4.6167657e-01
  3.9136045e+00
 -7.2376169e-03
  1.3427546e+00
  1.4635080e-01
 -1.4327583e+00
 -7.4565542e-01
 -4.2115417e-01
 -1.0397793e+00
 -1.0126729e+00
 -2.0325234e+00
  6.6431946e-01
 -6.8604356e-01
  2.2170827e+00
 -1.6646247e+00
 -8.6666608e-01
 -1.3715651e+00
  1.7068486e+00
 -1.2785332e+00
  1.2737240e+00
  1.6782735e-01
 -3.1978607e-01
  1.2436687e+00
  3.4407938e-01
 -7.9185951e-01
  1.1887289e+00
 -4.1822106e-01
  2.5030047e-01
  1.8110026e-01
  3.1919736e-01
 -1.7077950e+00
  1.5573477e+00
  2.4186008e+00
  3.1106743e-01
  1.8774274e-01
 -1.0988672e-01
  1.5509585e+00
  1.4997253e+00
  2.1296830e+00
  1.4115236e+00
  1.6531024e+00
  1.8912724e-01
  3.2427049e-01
 -2.3445113e+00
  5.0363088e-01
  1.5453900e-01
 -2.6662719e+00
  6.2979013e-01
 -8.6759165e-02
 -1.8073905e-01
 -6.2877178e-01
  1.8223475e+00
  2.8940831e-05
 -2.6719606e+00
 -2.0367353e-01
  4.5040801e-01
  1.7051322e-02
  2.3463461e+00
 -9.1916353e-02
 -2.5104060e+00
  6.3687980e-02
  2.2551939e+00
 -1.9646106e+00
 -3.5531381e-01
  1.0633814e+00
  5.5998874e-01
 -3.7478331e-01
  6.0769612e-01
 -7.9189879e-01
 -1.5752610e+00
  7.8402346e-01
 -1.0683804e+00
  2.4049234e+00
  5.1410538e-01
 -1.3495601e+00
 -1.4898480e+00
 -1.5085118e+00
  4.5949525e-01
 -1.3333973e-01
 -2.3990326e+00
 -2.9921908e+00
 -2.5488985e-01
  2.8858550e+00
  1.0403656e+00
  1.5491830e+00
  2.6845174e+00
  9.3961790e-02
 -1.3396347e+00
 -5.4863286e-01
  1.0493332e+00
 -1.7339156e+00
 -4.3574098e-01
  2.6967213e+00
 -5.3677805e-02
 -2.5261102e+00
 -3.4023751e-02
  2.5789852e+00
 -1.3010505e-01
 -1.2195082e+00
  9.1275565e-02
  2.2165202e-01
  3.1063840e-01
  4.0066150e-01
 -7.1091577e-02
 -2.8001305e-01
 -1.4509113e+00
  1.1098284e+00
  1.2899454e+00
 -8.3131450e-01
 -1.5216528e+00
 -9.5835787e-01
  3.3274229e+00
  2.4622431e+00
  8.1063730e-01
  3.3203259e-02
 -2.2598300e+00
  2.2362668e-02
  5.3637898e-01
 -9.8125058e-01
  2.1264858e+00
 -1.0378825e-01
 -1.7037603e+00
  9.8970759e-01
  2.7275077e-01
 -1.2212653e-01
 -1.4249852e+00
 -9.6133357e-01
  1.2582355e+00
  4.2743272e-01
  3.2069096e-01
  8.0330205e-01
 -2.1263120e+00
 -6.1177266e-01
  1.5987808e+00
 -1.4427792e+00
 -3.2982808e-01
 -8.1095642e-01
  5.9687340e-01
  1.5029948e+00
  9.0119022e-01
  4.7100407e-01
 -1.3318394e+00
 -3.3251204e+00
  2.3577824e+00
  2.5583203e+00
 -1.9648105e+00
 -9.6785057e-01
  9.5224142e-01
  1.1125357e+00
 -1.0630870e+00
 -7.0083362e-01
 -8.0189145e-01
 -1.2149513e-01
 -5.6389236e-01
  3.5856040e+00
 -1.3964473e-01
  6.2836695e-01
  1.2251855e+00
  1.5297133e-02
  4.7062072e-01
 -5.9414172e-01
  1.6644386e+00
  7.9392225e-01
 -7.2553176e-01
 -1.1797179e+00
 -8.6754090e-01
  2.5286447e-02
  2.5286447e-02
  2.5286447e-02
  2.5286447e-02
  2.5286447e-02
  2.5286447e-02
  2.5286447e-02
  2.5286447e-02
  2.5286447e-02
  6.0303495e-03
  6.0303495e-03
  6.0303495e-03
  6.0303495e-03
  6.0303495e-03
  6.0303495e-03
  6.0303495e-03
  6.0303495e-03
  6.0303495e-03
  4.2428602e-03
  4.2428602e-03
  4.2428602e-03
  4.2428602e-03
  4.2428602e-03
  4.2428602e-03
  4.2428602e-03
  4.2428602e-03
  4.2428602e-03
  4.9278638e-03
  4.9278638e-03
  4.9278638e-03
  4.9278638e-03
  4.9278638e-03
  4.9278638e-03
  4.9278638e-03
  4.9278638e-03
  4.9278638e-03
  3.2904553e-03
  3.2904553e-03
  3.2904553e-03
  3.2904553e-03
  3.2904553e-03
  3.2904553e-03
  3.2904553e-03
  3.2904553e-03
  3.2904553e-03
  8.4935199e-04
  8.4935199e-04
  8.4935199e-04
  8.4935199e-04
  8.4935199e-04
  8.4935199e-04
  8.4935199e-04
  8.4935199e-04
  8.4935199e-04
