nep3 2 Te Pb 
cutoff 8.5 5.5
n_max 15 10
basis_size 8 8
l_max 4 2 0
ANN 50 0
  4.6535197e-01
 -4.3489978e-01
  9.6472776e-01
 -2.5269282e-01
  2.0580685e-02
 -5.7011209e-02
  5.3109652e-03
  3.3839900e-04
 -2.1263359e-03
 -5.2280790e-01
  6.6594025e-03
 -9.7608721e-01
  1.1938348e+00
 -1.5560344e-01
 -1.1420350e+00
 -2.9101756e-01
  3.8563204e-01
 -7.7345248e-05
 -4.3191718e-05
 -5.8995338e-05
  4.2531221e-05
  4.3427703e-05
  2.9568672e-01
  2.2616269e-04
  1.0775220e-01
 -3.7492162e-05
  7.6324766e-04
 -4.9669528e-05
 -1.0629051e-04
  3.3428552e-04
 -3.7450696e-05
  1.7910036e-06
  5.2598865e-05
 -1.5038597e-04
 -2.4034858e-02
  8.1093740e-01
 -1.2440049e-05
 -5.9722751e-01
 -4.5075390e-01
 -3.2745771e-02
  2.4394807e-03
  5.3745254e-05
  1.6407814e-02
 -4.4326160e-05
 -6.9566905e-03
 -2.3527494e-01
 -6.7567450e-01
 -4.9883482e-05
 -8.8917607e-01
  1.6155702e-04
 -9.0373542e-05
  2.6542148e-06
 -2.8131260e-05
  1.8713315e-03
  8.5660437e-04
  1.9642267e-01
 -1.5700060e-01
  5.3996211e-03
  7.0295995e-01
 -2.0712930e-01
  3.4942315e-03
  2.3105011e-05
 -5.7422058e-03
  4.3607131e-05
 -2.4306796e-04
 -3.7318195e-04
 -2.8751703e-04
 -6.3355496e-05
 -4.3211910e-01
 -1.8775232e-02
 -1.4012277e-03
 -8.5212378e-06
 -1.0647380e-05
  2.3908609e-05
  3.7569547e-04
  4.2954180e-05
 -3.9346818e-05
 -1.1681590e-04
  2.1964664e-05
 -4.3252563e-05
 -1.3383210e-04
  1.0781456e-05
 -7.8795165e-07
 -5.5787874e-05
 -1.0268424e-05
 -1.0920430e-05
 -8.7504253e-05
  2.7084426e-04
 -1.4408214e-05
 -1.1486910e-05
  1.9877676e-05
  5.0568367e-05
 -2.3187449e-05
  4.6173569e-05
 -1.2329093e-04
 -3.1453001e-05
  7.3338495e-05
  1.6273321e-05
 -5.3097461e-05
 -7.0631002e-05
  1.3881612e-04
  2.0764057e-05
 -3.7769169e-05
 -6.1612220e-05
  1.2575737e-04
  1.3851708e-04
  4.2264442e-06
 -4.7680960e-06
 -2.0645621e-05
  8.1032442e-05
  5.8171514e-04
 -2.7690278e-04
 -8.4778614e-05
 -2.7389453e-05
  1.0324172e-04
  3.3976424e-02
  5.8767691e-05
 -4.6605896e-06
 -1.1516309e-04
  6.5860237e-05
  1.5923315e-04
  1.1779075e-04
 -1.1129450e+00
  6.9656890e-05
  6.6051121e-05
  5.9965032e-06
 -1.7034761e-05
  5.4136981e-05
 -8.8434954e-06
  2.9062206e-04
  1.0550782e-04
 -6.1119135e-05
 -5.6184479e-07
  1.2104710e-04
  8.0612281e-06
 -1.5214873e-04
  1.2613439e-05
  4.7594758e-06
 -7.7837292e-05
  6.8099311e-05
  1.4374706e-04
  2.0106058e-04
  5.4257398e-05
  9.7988050e-06
  6.5158529e-05
 -1.5480056e-05
  1.1556514e-05
 -1.8683204e-05
  3.0001556e-05
  4.6813933e-05
 -1.0272388e-04
  1.4405548e-05
  1.9395298e-04
 -8.0251782e-05
  1.5069708e-05
  2.3992441e-05
  1.0497239e-04
  8.6844419e-05
  2.9850089e-05
  7.5953540e-07
  6.1351064e-05
 -6.4686810e-07
 -3.3349665e-05
  1.0768756e-05
 -1.8169572e-05
  8.8630732e-05
  4.3910604e-05
 -2.3867033e-05
  1.1033050e-05
  4.6916693e-06
  3.7126789e-05
 -3.2698423e-05
 -2.7898644e-05
 -5.9834147e-06
  1.5651746e-04
  1.6413356e-05
  1.0196873e-04
 -1.9080813e-05
  7.6513006e-06
  1.5644418e-05
 -4.1292860e-05
  7.7866483e-05
 -6.0192502e-05
 -4.4366076e-05
 -1.0689774e-04
  5.5849949e-05
 -7.1417031e-05
 -5.6036755e-05
  4.2990865e-05
 -6.9845810e-05
 -1.6375481e-04
 -1.4595198e-06
  5.7118454e-05
  5.4538177e-05
 -5.4506317e-04
  9.0850852e-05
 -1.5570833e-05
  1.3300969e-04
 -3.1837935e-05
  3.6132191e-05
  2.6460344e-05
 -3.6678698e-06
 -3.5474524e-05
  8.2001961e-06
  7.0408249e-05
 -1.2837256e-04
 -1.3728878e-05
 -3.2392312e-05
  4.4249377e-05
  2.4416619e-05
 -2.4695666e-05
 -3.4568046e-05
  1.9375117e-04
  2.7204933e-05
 -3.2238433e-05
 -6.2930005e-05
 -1.2322541e-04
  3.8934413e-05
 -5.5360915e-06
 -8.4422252e-05
  3.5888061e-05
 -1.8110150e-06
 -3.2876720e-05
 -2.2273262e-01
 -7.1181465e-05
  4.5885481e-05
 -6.2047140e-05
  2.2313001e-05
  5.9261274e-05
 -2.5621655e-05
 -8.1552185e-05
 -6.1394428e-05
  1.2769669e-04
 -3.3035107e-05
 -1.5817755e-05
  7.2171737e-05
 -1.2331868e-05
  7.6705932e-05
 -1.0859821e-05
  1.1537387e-05
 -1.5298599e-05
  3.6971491e-05
  8.2124570e-05
  3.4219538e-05
  1.3662648e-05
 -5.4172988e-06
 -8.7027674e-06
 -3.8141707e-06
 -1.2059094e-04
  1.9205489e-05
  4.0627860e-06
 -8.2819215e-06
  4.4617940e-05
  5.8892023e-05
 -4.3566866e-05
  1.3783108e-05
 -1.4445909e-06
 -4.0581147e-04
 -1.0981888e-04
 -6.3394924e-05
  5.1066436e-05
  1.0728369e-05
  1.2827422e-05
  4.1489940e-05
  3.4332548e-05
 -4.2629097e-05
 -6.5693534e-06
  1.7453963e-04
  8.8843364e-05
 -4.5732806e-05
  4.2176627e-05
 -2.0144022e-05
 -2.1494398e-04
  1.3781164e-05
  4.1026255e-05
 -4.2680571e-05
  1.7879631e-04
  1.4524479e-04
 -1.2623899e-04
  1.8607383e-05
  1.1165565e-05
 -5.4782286e-05
 -2.5031919e-04
  4.5225162e-05
  4.9219215e-01
 -6.2626831e-02
 -4.2013064e-02
 -2.7553180e-01
  1.7918812e-01
 -1.2510281e+00
  1.5595417e-02
  2.4785081e-01
 -1.1035638e-03
 -2.8228939e-01
  5.5048525e-01
 -9.1473305e-01
  1.7372744e-01
  4.9419981e-01
  8.7713277e-01
  1.2837745e+00
 -8.1260405e-02
  4.8958365e-05
 -2.4451954e-05
 -1.3070588e-05
  1.5991490e+00
 -7.6673612e-05
  6.4080542e-01
 -2.3448402e-02
  4.3456525e-01
 -3.7932000e-01
 -7.7646667e-01
  2.7934909e-01
  3.4500384e-01
  8.7825674e-01
  2.3567736e-05
 -7.1957618e-01
 -4.2282742e-01
  7.4795902e-01
 -8.6972427e-01
  1.3225521e-02
  4.6969716e-02
  1.3054241e-01
 -8.0781335e-01
  2.6389586e-03
 -6.9387197e-02
  8.7699103e-05
  7.5829321e-01
 -1.0002689e-02
  1.1735325e+00
 -5.7339853e-01
  8.8402981e-01
 -4.7148576e-01
 -1.0515850e+00
  7.1728177e-04
 -1.8617973e+00
 -2.6795706e-02
  4.1616546e-05
  2.9413822e-01
  8.2694799e-02
 -2.8654185e-01
  1.2354233e+00
  2.7471030e-01
 -3.9736593e-01
 -7.9801983e-01
 -2.3802236e-01
  8.8159461e-05
 -1.1630873e-03
  7.1167473e-05
  1.4688770e-01
  7.0392229e-03
  3.7685895e-01
  4.3408949e-05
 -8.1670731e-03
 -1.7138097e-01
  8.0223987e-04
  8.5073574e-05
  5.4561679e-06
 -6.4418440e-05
 -9.3954222e-05
  2.1231534e-05
 -3.3767628e-06
  1.3751865e-03
  7.3910262e-05
 -3.9615559e-05
  3.5155485e-05
  1.8849169e-03
  8.1825456e-05
  1.3595224e-04
 -5.3239558e-03
 -4.3523931e-05
  3.9554138e-02
  8.3175458e-02
 -9.8205121e-05
  1.2954748e-04
 -2.6980754e-06
 -1.4431324e-05
 -1.7259861e-04
  1.0850740e-04
 -2.0225814e-05
  2.6393880e-05
  1.0208631e-04
 -2.9702212e-05
 -4.3541735e-05
 -1.1837790e-06
  4.9390976e-05
  3.0395635e-05
  8.3411571e-05
 -1.8367828e-05
 -2.0699440e-04
 -4.7019606e-05
 -8.5626540e-05
 -2.6145543e-05
 -3.0184370e-02
 -1.6842446e-04
 -4.7016535e-02
 -1.4248475e-05
 -1.0072494e-04
 -6.9210008e-03
 -1.9290361e-03
  6.7735627e-02
 -1.1849229e-06
  2.9772098e-05
 -1.4194127e-04
 -2.0671260e-04
 -9.6915763e-05
  2.8098260e-05
 -4.3727719e-05
 -8.1736733e-05
  1.3874317e-04
 -2.2709808e-05
 -2.7837473e-04
 -7.5358163e-05
 -9.0876474e-06
 -3.2449441e-04
  4.8723097e-05
  1.6909435e-04
  1.0429346e-04
 -1.6679076e-05
  6.7092988e-05
 -3.9340626e-05
 -6.0626337e-07
  3.3045737e-05
 -9.0344993e-06
  1.0043183e-04
 -5.3371245e-05
 -1.9462286e-05
  3.6663376e-05
  6.6719753e-05
 -3.8143724e-05
 -5.8838938e-05
 -2.7691440e-05
 -1.3930216e-05
 -2.9365838e-05
 -3.9701288e-05
 -3.2187123e-05
 -4.0780351e-02
  1.3521490e-06
 -3.5343328e-05
 -4.4738736e-05
  2.5106914e-04
 -3.2118245e-04
 -3.0886473e-02
 -2.2442678e-04
  2.0962037e-04
 -4.6332250e-05
 -2.9006898e-05
  3.6166901e-05
  1.0855410e-05
  4.4505678e-06
 -2.7292562e-04
 -7.1378665e-05
 -1.2156515e-04
  2.7729804e-04
  5.1140210e-05
 -1.2998664e-06
  2.4636760e-02
 -3.3525481e-05
  8.9134381e-05
  2.4802549e-04
  4.4305456e-05
  1.1312874e-04
  2.8233544e-04
  9.3783739e-05
  3.3528113e-04
  1.7108987e-01
  9.7364791e-06
  1.6035625e-05
 -1.6202981e-05
 -3.9015032e-02
  8.2069746e-05
  7.0448690e-03
  2.0952076e-04
 -4.8067526e-05
 -2.9119527e-05
 -1.0475342e-05
  1.1841768e-05
  5.6637669e-05
 -4.5717505e-05
  1.1941813e-05
  6.7951731e-02
  3.7108388e-05
  4.4227787e-03
  4.7633588e-05
 -2.4547217e-05
  2.8947004e-04
 -8.4710814e-07
  1.0291181e-05
 -5.2978645e-05
 -9.1064416e-05
  2.1573118e-05
  5.4684690e-05
 -1.0503686e-05
 -3.0982530e-05
 -1.7801100e-05
 -2.5941683e-05
 -1.2308799e-04
 -1.7187413e-04
  5.9329605e-01
  1.0116217e-01
  2.6972494e-01
  3.3815306e-02
  1.0416971e-02
 -2.5637131e-05
 -7.1463801e-02
 -1.9436683e-04
 -7.3085278e-02
 -5.9841985e-01
  1.4493051e-01
  6.2112940e-06
 -2.4507591e-01
 -7.8252965e-01
  4.3647134e-04
 -2.2446133e-01
 -1.8336041e-05
  4.6787991e-05
 -2.2803827e-01
 -1.3613750e-04
 -1.6366510e-03
  4.4742061e-05
  2.5547507e-01
  1.0768809e-05
  5.8571942e-04
 -4.9707825e-05
 -6.4102831e-05
 -1.5693675e-05
 -2.8983876e-01
 -7.7034281e-05
 -1.1314769e-05
 -7.0421100e-01
 -7.0493574e-05
 -5.4831052e-01
 -1.2411412e-02
 -1.3759484e-02
  1.8562147e-04
 -3.1754233e-02
  2.1563614e-05
 -4.0778026e-02
  2.9571092e-06
 -1.3332688e-06
 -6.4933501e-02
 -1.8435574e-01
  4.0269665e-02
  1.2250811e-01
 -2.1704198e-04
 -1.7125400e-04
 -1.0954182e-03
  5.0519371e-05
  2.0921257e-01
 -8.2278402e-06
  4.0721716e-06
  1.7484730e-02
  1.3180097e-02
  4.1412896e-01
  1.9200297e-02
  2.0974311e-01
  1.0140546e-03
  2.5416270e-01
  9.3751714e-06
  2.2415890e-04
 -2.5001968e-05
  3.4937919e-05
  1.6653284e-01
  9.1860684e-06
  1.1741361e-01
 -1.3642508e-03
  1.5196229e-04
  2.5576372e-05
  4.6584714e-04
 -3.7312670e-06
  5.6505549e-05
  1.2922794e-05
  2.4824758e-05
 -8.2649831e-06
  2.9405453e-05
  2.4935423e-05
  1.2106439e-05
  3.6200363e-05
  6.6452642e-04
  2.2442997e-01
 -2.6808539e-06
 -3.0586499e-01
 -1.2743514e-04
  6.0027392e-05
  1.2774140e-03
 -6.4875327e-05
 -7.5065465e-05
 -8.0718783e-05
 -1.5809625e-05
 -3.5895842e-05
  8.6761720e-05
 -8.4275194e-04
  9.4051575e-06
  6.7018460e-05
 -4.7101472e-05
 -3.4347308e-04
  3.4057637e-05
 -1.3347923e-04
 -1.4167580e-04
  4.6412482e-05
  7.4159332e-05
 -8.2614453e-05
  2.5486575e-05
 -5.0145838e-05
 -3.9727405e-05
  1.7771563e-05
 -4.8322025e-05
 -2.5065639e-04
 -1.9365019e-05
 -3.1392730e-05
  7.7482409e-06
 -3.1665736e-04
 -3.8707796e-05
 -2.0971459e-03
 -2.1725566e-05
 -8.7773988e-05
 -2.4644223e-06
 -2.4976023e-04
 -8.2958373e-05
 -6.3238185e-06
 -1.1312932e-04
 -4.6421519e-06
  4.6006771e-05
  1.3509203e-05
 -1.8515176e-04
 -6.0880448e-05
 -2.8863273e-05
 -2.0194930e-05
 -2.2320080e-04
 -1.2514291e-04
 -5.0597813e-05
 -2.3838281e-04
  1.8561834e-05
 -2.2165535e-05
  1.0830703e-05
 -2.8710967e-05
  1.9304414e-06
 -5.5033794e-05
  9.3281284e-05
  1.7337951e-04
 -6.2257061e-03
 -6.7659669e-02
 -1.3066274e-01
  3.4427449e-01
  1.7987789e-01
 -3.9880481e-01
  1.5799411e-01
  3.3887276e-01
 -3.2079053e-01
 -2.8422746e-01
  6.1325806e-01
 -4.6159928e-03
  9.5067823e-01
 -1.4350289e-01
 -2.6810167e-02
  1.1716228e+00
  2.1741933e-01
  1.8804881e-06
 -1.5914421e-01
 -8.8545050e-05
 -4.2736545e-05
  5.7470566e-01
 -1.8630011e-01
 -8.2846957e-01
 -3.4674820e-05
 -6.1431015e-03
  5.1729544e-06
  1.4135310e-01
  1.6041256e-04
 -2.8574681e-05
 -1.8813672e-06
  2.3116784e-02
  1.0513227e-04
  5.8016209e-05
  2.2479505e-03
  1.5433952e-02
 -4.3534797e-02
  3.8236540e-04
  4.4473767e-01
 -1.1991962e-04
 -2.9953517e-06
  1.2323311e-05
 -1.8600343e-01
  2.4433428e-01
  2.0919447e+00
  3.4083496e-04
 -2.5272173e-01
 -1.4834742e-01
  1.4508994e-01
  8.5654241e-01
 -1.0948494e-05
  3.9991642e-06
 -3.2026510e-06
  6.6808097e-02
  2.7627683e-01
  3.4818360e-01
 -1.9768563e-01
 -9.6064538e-02
  4.5518238e-02
  1.8449931e-01
 -3.1133030e-05
  1.5748058e-04
  6.8927643e-06
  3.7381575e-05
 -2.1601267e-05
 -3.4687732e-04
 -4.3618169e-05
 -3.3452867e-05
 -2.1281718e-01
 -5.0437535e-05
 -2.6045379e-04
 -1.2997620e+00
 -3.2281822e-01
  1.3535942e-01
 -1.2889946e-02
 -3.5513878e-01
  6.6121317e-02
 -2.2070862e-04
 -9.2850147e-05
 -2.2359070e-01
  4.9080706e-01
  6.3350679e-05
  3.0068570e-01
  7.3965597e-01
 -7.1157068e-01
  2.4166499e-04
 -1.6348969e+00
 -6.6271648e-02
 -3.2914591e-05
  9.5449162e-05
 -7.6100761e-05
  5.3498302e-06
 -1.1634801e-01
 -3.2620654e-01
  5.7253957e-02
  2.2842230e-01
 -5.8400374e-02
  1.0494611e-04
  5.6955335e-04
  1.7498560e-04
  1.4860650e-04
  3.3887713e-06
  4.5295168e-05
  3.6016282e-02
  7.8900397e-05
  7.8615623e-05
  6.5122996e-03
  9.2130358e-06
  1.0161673e-04
 -3.5572465e-04
 -3.4744036e-05
 -8.9862051e-06
  3.0700394e-05
 -1.2181915e-02
 -2.7035611e-02
 -5.7503134e-02
 -1.2137369e-01
  3.4160320e-02
 -6.4787222e-05
 -1.0461784e-05
 -1.0767305e-04
  1.7924482e-05
 -3.2366590e-06
  2.7183514e-05
 -1.4101122e-02
 -1.6796226e-02
 -8.5339606e-01
 -1.3226058e-02
 -1.4628571e-02
  3.2836087e-02
  2.7340478e-01
 -1.2083638e-04
  1.0502907e-05
 -2.7474427e-05
 -8.1669867e-05
  1.3439081e-04
 -6.6222972e-05
  1.0479210e-01
  3.0115189e-05
 -7.0366958e-05
 -2.0210899e-05
 -2.4292803e-04
  1.1805732e-01
  1.1818460e-01
  2.8071472e-01
  4.6422473e-01
  2.9721614e-02
  1.0296174e-01
  1.2457977e-01
  3.0534258e-02
 -4.7345556e-02
  4.2711353e-01
  4.6135385e-02
 -6.7751850e-03
 -4.5187905e-01
 -2.8300917e-01
  8.1710339e-02
  6.5671319e-01
 -2.7459231e-01
  1.3683763e-01
  4.6099935e-02
  6.3697353e-02
  9.9524438e-02
 -4.0855965e-01
 -2.2332746e-01
  5.3093195e-01
  2.0352547e-01
 -4.0268883e-01
 -2.1976572e-03
 -2.4790461e-01
 -4.8035698e-05
  2.2531538e-01
 -3.3999335e-05
 -8.5098625e-05
 -1.0973879e-02
  4.7336325e-02
 -2.8057256e-01
  4.9340591e-01
  2.0784144e-01
 -5.2129295e-02
 -1.3448457e-01
 -4.1828910e-03
 -2.5232794e-07
 -5.2251108e-03
  6.4701682e-01
  3.7315768e-01
 -2.8816272e-02
 -5.1067681e-03
  1.2835549e-02
 -1.3622013e-01
  5.3253192e-01
 -6.7416549e-02
 -4.7704481e-05
  1.5480025e-01
 -3.1333097e-05
  1.0537405e-01
 -2.8524897e-01
 -1.0837300e-02
  1.6399324e-01
 -1.3449696e-01
 -1.4215737e-02
  5.7842609e-02
 -4.1023295e-02
 -8.8820438e-05
  2.8659078e-06
  1.8277402e-05
 -1.0891922e-04
 -2.7429739e-03
  6.2885618e-01
 -5.2754935e-02
 -1.1766967e-02
  2.4563019e-01
 -1.9250489e-05
  7.3514442e-05
  2.7441292e-06
  3.7502345e-05
 -8.7259628e-05
 -5.7667759e-05
  2.1093787e-05
  4.9242709e-04
  3.8862836e-06
 -1.7580875e-05
  3.7959301e-06
 -3.4649187e-05
 -1.3944905e-06
 -1.0725483e-04
 -1.5068502e-05
  4.2089165e-04
  1.0833662e-02
 -4.1875450e-05
 -5.7736936e-05
 -9.5104988e-06
 -2.7802285e-05
 -5.9326001e-05
 -9.0286660e-05
 -3.5144159e-05
  1.3847132e-05
  3.1290131e-04
  2.8336648e-05
 -1.4127047e-04
 -1.7969611e-05
  8.0319314e-06
 -1.9338679e-05
  1.0943477e-05
  6.3499043e-05
  1.8832425e-05
 -3.0444873e-05
 -3.3302309e-05
 -3.0022253e-05
  1.1003730e-04
 -2.0612794e-04
 -1.3063206e-04
 -7.2735631e-05
  9.9136232e-05
  4.7595986e-06
 -2.9681440e-04
 -8.8931905e-04
 -4.8504118e-04
  9.1214933e-05
 -5.7898491e-04
 -1.1401273e-05
 -1.5330834e-04
 -1.2037787e-04
  2.1441569e-05
 -2.7221680e-04
  1.3155050e-05
  8.2103961e-06
 -2.2093473e-04
 -3.4564803e-04
  2.3298853e-05
 -4.5547913e-05
 -4.3914246e-04
 -4.7054036e-05
  7.0384713e-06
 -4.4506316e-05
 -9.9626574e-05
  1.6391565e-05
 -3.5466834e-05
 -7.6264419e-05
  3.5801975e-04
 -3.3361903e-05
 -7.0744165e-05
  5.6707453e-05
  5.1128372e-06
 -4.5891743e-02
  8.0147749e-01
 -3.0312660e-01
 -1.2126335e-01
  2.2115579e-01
 -1.8183464e-02
  5.7360929e-01
  1.2809634e-02
  5.8075434e-01
  4.1398630e-02
 -4.4027710e-01
 -2.5411376e-01
 -3.2769242e-01
 -1.6574922e-01
  2.8961003e-01
 -1.0737021e+00
 -1.0693972e-01
 -1.3309674e-02
 -1.1667097e-01
  4.6922016e-04
  2.9621181e-01
 -1.3317581e-01
  1.1520114e-01
  3.7153000e-01
 -6.3452736e-02
 -1.0908186e-03
 -2.0605363e-01
 -1.8879996e-01
  4.6252307e-01
  6.5568614e-01
  7.8901052e-05
 -7.3867045e-02
 -2.0053469e-01
  2.1768059e-03
 -2.8033236e-01
  3.0202691e-02
  1.3736355e-03
 -3.4069240e-01
 -2.6009722e-02
 -3.9582893e-02
 -1.2485404e-03
  4.5581352e-02
  7.2675822e-03
  5.4596119e-02
 -7.1163187e-03
  2.7250306e-05
  2.9160589e-01
  1.8088882e-01
 -7.6579995e-02
 -3.8836819e-01
 -2.0043012e-01
  6.9102690e-02
  4.2340587e-05
  2.6913553e-02
 -1.9993111e-02
 -2.3970573e-01
  1.3741070e-01
  1.5331112e-01
  2.4450524e-02
 -1.6092348e-01
 -1.7794037e-01
 -4.2101601e-05
 -6.0866978e-02
  2.1531574e-04
  3.2976366e-04
  4.6467071e-04
  8.3958644e-01
 -9.0993885e-03
  3.6293846e-02
 -4.4518537e-04
  2.0681997e-01
  6.3267939e-02
 -2.2158490e-01
  5.0464660e-01
  7.8337723e-03
  2.0935088e-04
 -1.0693641e-04
 -3.1095294e-03
 -2.0082462e-05
 -5.9766626e-05
 -5.9905156e-02
  9.5065174e-05
 -2.1097070e-05
  1.7126572e-04
 -4.3865453e-02
 -4.5405095e-04
  5.0288070e-02
  2.0485824e-04
 -1.0670583e-05
  7.2508205e-06
  1.9604202e-05
  4.6373747e-04
 -1.8605951e-06
 -9.3979239e-02
  1.6134152e-05
 -6.1611708e-02
  5.9707218e-05
  3.6654513e-02
 -3.3194796e-05
 -8.0268896e-05
 -8.3442666e-03
 -3.7934289e-05
 -1.7251250e-04
  2.2409432e-02
  2.6859512e-04
  1.5313286e-04
  7.3772073e-03
 -1.4878791e-04
  9.5479473e-02
  4.7941901e-02
  3.4808656e-03
  5.7127175e-04
 -8.4832944e-05
  1.4019853e-02
  1.5330798e-02
  6.2733248e-02
  2.0677004e-02
  3.9571496e-03
  8.8046724e-03
  1.2265434e-02
  4.5499701e-02
  6.9976895e-04
  4.3964988e-04
  1.2729882e-04
  2.3953180e-04
  8.2106948e-05
  2.2993321e-02
  1.1373264e-04
 -1.1291056e-02
  1.1137786e-02
  6.7256778e-03
  5.9399281e-06
 -8.7685810e-05
 -5.5599201e-05
 -5.1954139e-05
 -2.9450861e-05
  6.1296472e-05
  2.8592494e-05
  2.9732537e-04
  1.4608824e-05
  4.7254165e-05
 -6.8196307e-05
  1.6257751e-05
  1.0241316e-04
  5.8307720e-05
  1.1134519e-04
 -1.4794769e-05
 -1.2203915e-05
  2.8783128e-05
 -7.5168471e-05
 -3.8603492e-05
  3.7325764e-05
  4.3268185e-05
 -1.9369294e-05
 -1.4001013e-04
 -5.4736726e-02
 -9.6217002e-05
  8.4946187e-06
  2.1598735e-06
 -1.4336553e-04
 -1.3658911e-05
  2.5822133e-05
 -1.1368084e-04
 -3.4447010e-05
  5.8906553e-05
  2.7326056e-05
 -4.2991574e-05
  1.3027043e-05
  1.5598822e-04
 -3.2958557e-04
  7.5938784e-05
  1.7586787e-04
 -2.0931737e-05
  4.2202621e-05
 -1.9268415e-05
 -3.9652998e-05
 -4.3033455e-05
  6.6594985e-06
  3.9346713e-05
  1.3869180e-06
  6.4635683e-06
  9.7883376e-06
 -1.8436964e-05
 -1.3732773e-05
  6.3012835e-06
  6.0097591e-06
  5.1204242e-05
  1.2275754e-04
  1.1702724e-04
 -1.1452798e-04
  3.7275346e-05
  9.8512537e-05
 -1.8211529e-05
  5.8410984e-05
  2.7512042e-06
 -1.6403696e-04
  2.8108620e-05
  1.1802581e-04
  3.3903816e-05
  2.8440347e-05
  2.6248931e-04
  2.1439888e-04
  7.7998429e-04
  1.1317273e-04
 -9.4273455e-05
  1.9034283e-05
  1.7295588e-05
  1.0933669e-04
 -6.2338164e-05
  1.1568248e-04
 -4.0391615e-06
  6.1823412e-05
  9.5848431e-05
 -2.0912578e-02
 -6.3373202e-01
  2.3668772e-01
  3.0213533e-02
 -8.1854463e-03
 -1.5814814e-03
  1.6901788e-01
  3.6552575e-01
  1.9229148e-01
 -1.6649377e-01
  1.0528236e-01
 -2.0256503e-01
 -8.0546625e-02
 -1.1284307e-01
  8.8080391e-03
 -1.3768442e-01
  3.9355829e-02
  1.8608443e-02
  6.2900698e-01
 -3.2089630e-04
  6.4066786e-01
 -7.3484069e-01
  4.8666634e-02
 -2.4516211e-01
  6.6222109e-02
 -1.2189395e-05
  1.9805958e-03
  1.5210578e-01
 -4.1369461e-03
  4.1484705e-05
  4.5333272e-05
 -1.2764229e-01
 -9.4802181e-06
  6.8314567e-02
 -1.8651213e-04
  1.2700275e-01
 -2.5049681e-04
  2.4040362e-01
  2.4463612e-01
  6.3293278e-02
 -6.2174448e-03
 -3.3766407e-04
  2.6971871e-01
  1.7933285e-02
 -2.6163965e-01
  1.0601680e-02
 -1.1356600e-01
 -7.5821750e-02
 -1.2993999e-01
 -3.0473370e-02
  2.1484752e-01
  3.7406027e-01
  4.1703023e-02
  3.6742446e-01
  1.4932503e-01
 -2.8932059e-01
  1.6390829e-01
  1.1943684e-01
  1.0123092e-02
 -4.5720798e-01
 -6.1885577e-01
 -1.0766655e-01
  1.1479589e-05
 -3.3523172e-01
  3.7721899e-01
  3.3868691e-01
  2.2041690e-01
  1.3361014e-01
  2.7417523e-04
  5.1906885e-05
  2.0670016e-01
  2.7054923e-02
  1.6666877e-01
 -5.4858286e-02
  3.5046143e-04
  3.6814962e-02
 -1.9263753e-04
 -2.8560343e-01
  2.8935980e-04
  9.0739438e-03
 -1.0493159e-03
  8.1165031e-02
  2.0107785e-01
  1.1562817e-01
  5.7508942e-02
  1.6154322e-01
 -4.4639283e-01
  1.3536011e-02
  1.2783029e-02
  2.2410195e-05
 -1.2150474e-04
 -6.9857724e-03
 -2.9557297e-05
 -1.9217759e-05
  2.9644456e-05
  8.9399204e-02
  1.1473081e-01
  1.9281740e-01
 -3.8517796e-04
 -6.9145708e-06
 -9.1537312e-03
 -1.7590428e-04
  2.2083621e-03
  1.7205465e-01
  7.4012234e-05
  3.9685026e-01
  3.8509208e-04
 -3.0643713e-02
  1.8201819e-01
  2.8971188e-02
  2.1566181e-01
 -4.4134140e-02
 -3.7618214e-05
 -1.6229638e-04
  7.4151605e-02
  4.2124398e-02
 -1.2797079e-03
  1.1133654e-01
  3.6337367e-01
  1.5177017e-01
  4.4607353e-01
  1.5878782e-04
 -4.5899421e-01
 -1.4292873e-05
  3.2372013e-01
  4.1386191e-04
 -7.1574249e-03
  1.0130832e-03
 -2.8614220e-01
  3.3394616e-02
  3.7947693e-01
  2.4224306e-04
 -6.4864631e-05
  1.1749457e-03
 -2.9843846e-05
 -1.1325661e-04
  7.1839917e-05
 -1.5823243e-04
  2.4439143e-02
  3.0657136e-01
  1.4959193e-04
 -1.6550945e-04
  2.4801564e-05
  1.2359851e-04
 -4.8213184e-05
  9.3871895e-05
 -3.6061851e-05
 -5.0429298e-06
 -1.7905515e-04
  4.2426043e-05
  4.8729584e-05
 -2.0657699e-01
 -1.4136091e-05
 -1.6875943e-04
  1.2020056e-02
  1.0148682e-05
 -6.4796454e-04
 -2.3185508e-02
 -7.7542623e-05
  3.7932722e-04
  1.7452898e-05
  1.8477383e-05
  4.1817658e-02
 -5.5106539e-05
 -3.4633336e-05
  2.0685798e-04
 -2.9115373e-04
  2.5319928e-04
 -4.0706127e-05
 -4.7124136e-05
 -1.6058964e-05
 -2.3195760e-05
 -7.1415539e-05
  2.0792162e-02
 -1.0442894e-04
 -2.0690510e-05
  1.3895892e-04
  3.0286945e-04
 -5.0967101e-05
  1.1543699e-01
  4.1016487e-05
  7.9553218e-05
  4.3925262e-05
  5.3156989e-05
  1.5230498e-02
  5.5769138e-02
  5.6811440e-04
  2.3688740e-04
  2.8434754e-04
  2.6528709e-02
  3.2790303e-02
  9.2338509e-05
  2.6638809e-05
  9.6491654e-05
 -2.3404964e-06
 -8.6215885e-05
  3.4041946e-05
  7.7733002e-04
  4.4923654e-05
 -3.8047882e-03
  4.6410874e-04
  5.5379648e-04
 -1.5193969e-04
 -9.7682147e-05
  1.2524514e-05
 -5.4734514e-06
 -1.1447824e-04
 -1.9780608e-05
 -2.6984768e-05
  2.0814223e-02
  4.1145999e-05
  2.4176861e-05
  9.6163885e-06
 -1.3705951e-01
 -4.6058127e-01
 -1.5024770e-02
  5.9415764e-01
 -4.2917937e-01
 -7.8421244e-03
  2.5457314e-01
  5.4860497e-01
  5.0929874e-01
  5.5358016e-01
  2.6479265e-01
  5.5125175e-04
  5.0098926e-02
  6.4246649e-01
 -4.3875113e-01
  7.2312331e-01
 -8.4063247e-02
 -6.0178351e-02
  2.5249862e-03
  2.1326417e-01
  5.6190842e-01
  3.3364293e-01
  1.8783550e-01
  3.7242135e-01
 -3.7276891e-01
  1.8283486e-04
  1.0555482e-01
  1.9392384e-02
  5.9092301e-01
 -3.1424555e-01
 -1.9164902e-01
 -1.7711390e-02
 -2.2926368e-01
  2.5421297e-02
  1.4534347e-01
 -3.7924686e-01
  1.0113607e-05
  9.8231904e-02
 -2.6038182e-01
  1.1850855e-01
  1.2062205e-01
  2.4410544e-01
 -6.8439144e-01
  1.6378765e-01
  3.0365419e-01
  4.1551584e-01
 -1.2624948e-01
  1.4817252e-04
 -3.1490949e-01
 -1.9409787e-02
 -2.5518313e-01
 -1.6461855e-01
 -7.8602239e-02
  4.7104839e-02
  2.1634474e-02
  6.2895256e-01
  1.6047478e-01
 -2.8416646e-01
  2.0088646e-01
 -1.0464462e-01
  1.0139263e-01
  1.8305518e-01
  2.7050367e-02
  7.1505160e-06
 -9.0782508e-02
 -5.3116214e-01
  8.4522525e-03
 -1.8442625e-01
 -1.7112100e-01
  5.0594937e-04
 -7.9747140e-03
  1.7831881e-05
 -1.3068787e-04
 -3.2898894e-05
  7.9131903e-05
 -2.0861504e-05
  4.1569260e-06
  1.1626866e-04
  7.6976730e-06
 -1.1733950e-05
 -5.8479400e-05
  2.2520504e-05
  4.3418091e-05
  2.6159587e-06
  1.1448583e-06
  1.3580720e-04
  4.7908554e-05
 -2.1303804e-05
  2.8635615e-05
 -5.4903637e-04
 -2.1809613e-04
 -2.6632906e-05
 -4.7365818e-03
  2.7373933e-05
  1.7161594e-05
  6.6829918e-05
 -8.4222542e-05
  1.8588156e-05
  3.4365485e-07
 -6.7620109e-05
  2.6505506e-05
 -7.9754107e-05
 -1.0102189e-04
  2.3644337e-05
 -6.3461819e-05
 -8.7212629e-07
  2.1926066e-05
 -7.4991462e-05
 -3.3560419e-04
 -6.8260324e-06
  6.9741414e-05
  2.0588246e-05
  5.4629254e-05
 -9.0497408e-05
  2.0001937e-05
 -1.6294262e-05
 -1.4234305e-06
 -5.0246563e-06
 -2.8792623e-05
  5.3542077e-05
 -4.6293280e-09
  2.6491645e-05
  4.1823572e-04
 -8.5631538e-05
 -3.3516646e-06
  4.1041294e-05
  3.7293207e-06
 -6.5491164e-05
  1.7092487e-06
 -6.4192795e-06
 -6.9052199e-05
 -1.0683660e-04
 -1.8012361e-06
 -9.6006725e-06
 -2.7174196e-06
  1.0848417e-04
  9.0609428e-06
  4.5529896e-06
  1.7530310e-04
  1.5002963e-05
 -1.3078478e-05
 -1.8615801e-05
  1.6734662e-02
  1.1276309e+00
 -1.5594429e-01
 -2.7830794e-01
 -6.8891639e-01
  7.3027834e-02
  1.6057168e-01
  4.3081468e-01
  3.5650164e-01
 -9.2766415e-03
 -6.1013479e-02
 -2.9511192e-01
 -3.7204203e-01
  1.2905766e-01
  1.0988792e+00
  6.1074287e-01
  1.2242211e-01
  7.3174126e-02
 -2.3361091e-01
 -5.4193205e-01
 -1.5027286e-01
  1.8086724e-01
 -2.6551664e-03
 -2.5830707e-03
  7.2370249e-01
 -1.0178904e-01
  1.8291904e-01
  5.1895058e-01
 -3.6800459e-01
 -1.5375805e-01
 -1.8472774e-05
 -7.5050426e-01
  2.3049060e-01
  4.0489349e-01
  1.7641051e-02
  4.2857513e-01
 -6.3737929e-02
 -3.0178979e-01
 -2.0190491e-01
  6.0016558e-02
 -4.1526866e-01
 -2.2110714e-01
 -1.4786777e-01
  1.9275926e-02
  1.0313555e-01
  4.2159730e-01
  6.8286294e-01
 -8.2705736e-01
 -4.4952732e-01
 -7.8535247e-01
 -2.9217502e-02
 -7.9452783e-01
  4.3226463e-01
 -3.9245164e-01
 -3.4484294e-01
 -2.7576929e-01
  2.9275951e-01
  9.0113622e-01
  2.4683477e-01
 -5.4112101e-01
 -1.5613144e-04
  2.2083771e-04
  2.9061601e-02
  2.3604260e-05
  2.3624144e-01
  7.2281170e-03
  7.0110463e-02
  2.3771222e-01
 -5.4629427e-01
  2.5683497e-05
  1.5780424e-01
  1.2849502e-01
  8.1792432e-01
 -1.7378557e-01
 -1.1386850e-01
  2.0006101e+00
  4.9070597e-01
 -2.1089773e+00
 -2.9919890e-01
  1.2506263e-01
 -8.8474438e-02
  1.6398314e-02
  8.7825261e-02
  5.1909852e-01
  1.1453272e+00
  1.5082654e-01
  1.7812982e+00
 -1.9379030e-01
 -2.1339218e-01
 -9.9362817e-04
 -4.0713176e-02
 -7.5947738e-01
 -2.7744061e-01
 -1.7528312e+00
 -4.4200931e-02
  2.3446067e-01
  1.5121020e-01
 -1.0639526e-02
 -5.5280467e-04
 -4.2037600e-01
  9.5426209e-02
 -4.3280448e-05
  1.4744075e-01
 -2.2985695e-02
  1.4673281e+00
  3.4044668e-01
 -3.3415088e-01
  7.2038591e-02
 -4.1022208e-01
 -5.6100982e-01
  1.0877066e-05
 -9.9874632e-03
 -1.3138792e-04
  3.9552006e-01
 -3.0899414e-01
 -1.1098720e+00
  1.2314315e-01
  1.7081016e-01
  5.2326185e-01
 -3.3176908e-01
 -4.8444774e-02
 -1.8871426e-05
 -7.7373922e-02
  1.7830366e-04
  6.6694207e-02
 -1.8390360e-01
 -3.5527167e-01
 -4.2405096e-05
 -6.2300664e-01
  6.6316408e-01
 -4.5579305e-01
  4.6656351e-07
  2.7131048e-01
  4.1950408e-02
 -1.0021083e-05
 -8.7259432e-05
 -2.3492808e-05
 -1.8228541e-01
  1.9673845e-02
  5.4807138e-01
 -1.5013567e-01
 -3.0515388e-05
  9.7893972e-05
  3.6584046e-05
  2.9415849e-01
 -1.2230260e-04
 -4.9703769e-05
  1.1136744e-04
 -5.5217420e-06
  1.3712373e-05
 -4.3858823e-04
  1.0024256e-01
  1.5364274e-05
 -3.4223358e-05
 -1.1871490e-04
 -9.1488735e-05
 -5.2768126e-05
  8.9649213e-03
  1.6354737e-05
  6.6008499e-05
  5.7991574e-06
  1.1785018e-04
 -6.4992913e-05
 -9.6768990e-06
  3.6173722e-05
 -9.1765542e-06
  9.4389779e-06
  9.6174314e-05
 -2.1514471e-04
  6.2569197e-06
  2.6091855e-05
  5.5803059e-05
  4.9849114e-05
  1.2430418e-04
 -3.3752352e-05
 -4.8128704e-06
 -3.5021778e-06
 -1.8806776e-04
  2.1050422e-05
 -6.7140156e-04
 -1.1571671e-04
 -8.9568080e-04
  3.0344003e-05
  9.9233166e-06
 -4.6470623e-02
  9.9848687e-05
 -1.1601509e-03
 -5.8038859e-05
  7.4913791e-05
 -2.6921320e-05
  1.2339153e-05
 -2.5866664e-04
 -7.4292941e-05
 -9.2519658e-05
 -7.5998432e-05
 -3.2452166e-02
 -1.0766702e-05
 -3.2176118e-02
  3.5896894e-05
  3.1196111e-04
 -1.1648255e-04
 -1.3191138e-04
  2.9377750e-04
 -9.8452674e-06
 -3.7594846e-06
  2.8556256e-05
 -2.0959014e-05
  7.1251263e-05
 -9.2960225e-05
  3.2189811e-05
  1.7961383e-06
 -4.4866378e-05
  3.9233215e-05
 -1.1715100e+00
  5.6812036e-01
  3.1317860e-01
 -5.2740133e-01
 -4.7560927e-05
 -4.0381423e-05
 -2.4322414e+00
 -4.1102025e-01
 -6.5574932e-05
  1.0340695e-03
 -6.0511464e-01
 -2.6657844e-01
  1.5481150e-01
 -1.3982880e-01
  3.4415370e-01
  7.0079547e-01
 -4.1301394e-01
  1.0190778e-02
  5.9972459e-01
 -3.3973633e-05
  1.4673653e+00
 -6.5115285e-01
  5.6111467e-01
  1.6814312e-01
 -8.0001817e-05
 -3.2265376e-05
  4.7636527e-01
 -4.7638914e-05
 -2.1763318e-03
 -1.9838931e-01
  4.8598144e-05
  9.6079340e-05
  1.8418150e-01
 -4.5685124e-01
 -7.1530354e-01
  1.4123296e-05
  5.3733802e-05
 -2.7128601e-01
  2.2741326e-05
 -5.1638491e-02
  3.8708922e-01
  1.7095721e-04
  4.3556419e-01
  1.3061044e-04
 -6.4651066e-01
  4.1138628e-01
 -9.3030725e-03
 -1.2728231e-04
 -6.3200128e-01
  5.7382509e-03
  5.2038311e-05
 -3.6575424e-05
  3.2019734e-02
  7.0520537e-03
 -1.3661343e-02
  7.6227538e-02
 -1.8049626e-01
  7.3986230e-05
  2.9387083e-05
  6.0067847e-05
  9.4715971e-04
  2.7642024e-04
  8.0369391e-02
  2.6359712e-05
  4.8222902e-01
  1.4580479e+00
 -1.9169854e-01
 -8.1479311e-02
 -1.7117074e-05
 -3.6092257e-05
 -8.0893442e-05
 -1.7401944e+00
  1.0243019e+00
 -7.1312249e-01
 -1.0077105e-01
  6.9313252e-01
  3.1223556e-01
  1.7468750e-01
  3.3669874e-01
 -1.5749021e-01
  4.5547420e-01
  7.3378247e-01
 -1.7767748e+00
  1.2264997e-01
 -1.7828237e-01
  3.2311362e-01
 -7.7477920e-01
  2.1534631e-01
 -3.1443849e-01
 -1.0663687e-02
  9.6067168e-05
 -2.3779351e-01
  4.1047281e-01
  1.9085869e-01
 -1.3751800e+00
 -1.6270953e+00
  7.9755747e-01
 -3.8082227e-01
 -1.4213377e-04
 -7.1139702e-06
 -6.2370803e-03
  1.6288988e-05
 -3.3602366e-05
 -9.7334698e-02
 -2.8531498e-05
 -1.8052133e-04
 -1.3858439e-01
  6.9277005e-05
  2.5843752e-05
 -1.0068318e-05
  2.1008088e-01
 -2.3370168e-01
 -6.7112465e-05
  5.3187661e-02
  3.8775784e-01
 -7.1731061e-01
  4.5683512e-01
 -2.6001596e-01
  2.5561184e-01
  9.5934516e-01
 -2.7281475e-01
  3.2044292e-05
  6.1691208e-05
  1.2230003e-05
  5.5075448e-02
  2.9187125e-01
 -1.1692054e+00
  4.5860313e-02
 -1.0900749e+00
 -8.1182547e-02
 -4.4322629e-02
  7.7586374e-05
 -9.1359325e-06
 -4.7123551e-05
  1.2462665e-04
 -9.4573516e-06
 -2.2140021e-05
 -5.6813985e-01
  7.2422563e-06
 -8.4034038e-01
 -9.2182972e-02
  8.3623716e-05
 -9.1845577e-05
 -3.4507866e-05
 -1.9595590e-04
 -8.1043163e-06
  1.4688457e-05
  1.8625446e-05
 -5.1232411e-05
 -4.4980894e-05
 -1.6931935e-04
 -2.9685920e-05
  3.6849673e-05
  3.0820600e-05
  2.8846016e-06
 -4.6502546e-06
 -1.4881429e-05
 -2.0956628e-01
  1.2123615e-04
 -3.7417882e-05
  4.2025451e-05
  1.2991774e-05
 -5.3176453e-05
  2.7762574e-01
 -4.2102924e-06
  1.1006111e-04
  5.2893779e-04
  2.9570871e-05
 -7.2156850e-05
 -2.6099540e-06
  3.4008941e-04
  2.0756268e-04
 -6.5349108e-05
 -6.0965813e-06
 -3.3526034e-05
 -1.2694085e-05
 -4.3962085e-05
 -1.7278914e-04
  8.5897336e-05
  3.2547792e-05
  8.8158427e-05
 -6.4699503e-05
 -4.5877141e-07
  1.5543386e-05
 -1.1237466e-04
 -1.3112303e-05
 -1.2729655e-01
 -2.0185184e-04
 -2.3260903e-04
  2.8815810e-05
 -1.8806661e-04
  2.0049411e-06
 -6.2373932e-05
  2.3513256e-05
 -4.2598680e-05
  2.8997660e-04
 -3.5306123e-01
 -2.0896278e-02
  2.2194494e-05
 -1.9426985e-05
 -4.0548712e-05
 -1.7315929e-04
  4.9339469e-05
 -2.7149805e-05
  2.7640250e-05
 -5.6724577e-05
 -1.1083977e-04
 -5.8351714e-05
  2.3192825e-04
 -6.3693442e-05
 -7.6663608e-05
 -2.3270900e-08
 -1.5346424e-05
 -1.6060367e-04
 -3.5717621e-05
 -5.5902205e-05
 -6.4076958e-05
 -1.6884484e-05
 -9.8689263e-05
  4.8952566e-05
  2.4711946e-04
 -8.1296384e-05
 -1.9403469e-05
 -2.0091520e-05
  2.1240618e-05
  7.2097231e-05
  1.0926559e-04
  3.0162391e-07
 -6.4541207e-05
  1.5225595e-04
  1.0160462e-05
 -4.0374402e-05
  6.2634164e-05
  9.2123824e-05
 -8.6591062e-05
 -9.1208199e-07
 -2.7418191e-05
 -5.5333287e-05
  9.3809220e-05
  7.4180127e-05
 -7.8488065e-06
  4.4197404e-05
 -1.0386526e-04
  1.3013803e-05
 -1.5135878e-05
  1.3997382e-04
  1.0744132e-05
 -3.8730821e-05
 -1.5742316e-04
 -2.3384044e-05
 -9.9671139e-05
  4.3003078e-05
 -1.0753150e-05
  1.6438864e-01
 -3.0937950e-05
 -4.5239874e-05
  1.5196571e-04
 -2.3849876e-05
 -5.5799319e-05
 -3.2381442e-05
  1.3739805e-04
 -2.9378542e-05
 -3.8802493e-05
 -3.7444413e-05
  2.5861493e-05
 -9.0547699e-05
  4.1782714e-05
  8.2568731e-06
  4.8390837e-05
  4.8275288e-05
  6.8522622e-06
  1.7032970e-01
 -1.7416760e-05
 -1.5520029e-04
  4.0542727e-05
 -1.3250861e-05
  2.0927580e-05
  1.7564258e-05
  1.3306039e-05
  1.6499618e-05
 -6.1800245e-05
 -9.1313967e-05
 -1.3102000e-04
  5.1681171e-05
  5.1927564e-05
  1.0282081e-05
  4.5037868e-05
  7.6727432e-05
  1.2138907e-04
 -2.9328778e-05
  4.5765177e-05
  7.0642636e-05
 -1.6975922e-05
 -2.4591991e-06
  3.0413244e-06
  3.1328251e-05
  7.9282918e-06
  2.7242431e-01
  4.4758712e-05
  8.8426308e-04
  8.7471861e-05
 -8.7483466e-05
  2.0791465e-04
 -2.0355913e-04
 -3.8520036e-05
  1.8613642e-05
 -2.7712602e-05
  1.0803627e-04
 -1.8868728e-05
 -4.0276795e-05
 -3.3994304e-05
 -3.6558060e-05
  2.3705736e-05
  2.9307512e-05
  1.0016209e-04
  2.7296890e-06
 -7.3954980e-05
  1.3023618e-01
 -6.5570654e-05
  3.7897611e-05
 -7.8632138e-06
 -2.3548927e-02
 -3.4031756e-02
 -1.6355546e-02
  3.8329301e-05
  9.8756958e-05
 -8.1375046e-03
  1.1142164e-05
 -1.9570502e-02
 -7.5642427e-05
 -1.0411516e-04
  2.8038987e-05
  8.3217874e-06
  3.6547932e-05
 -8.9112627e-06
 -2.0916735e-04
  1.7062819e-05
 -1.3248449e-02
 -1.3585325e-04
 -3.5806755e-03
 -5.1229849e-06
 -7.4035299e-05
 -6.6126777e-06
 -5.4101401e-05
 -7.6717894e-05
  5.4744381e-04
 -1.8112904e-04
 -4.6437566e-05
 -1.1276162e-05
 -4.4425316e-03
  9.8219563e-05
  7.3955096e-05
 -2.7329850e-04
 -5.4223488e-05
  7.4089461e-05
 -1.4997442e-01
  1.0565434e-01
  3.7397274e-01
  1.1051143e-01
 -9.2394976e-04
  5.7500551e-05
 -1.9643192e-01
 -4.7227985e-01
  8.8200313e-01
  6.7033404e-01
  1.6063210e-01
  3.7519351e-01
  3.9120775e-01
  1.1493647e-02
 -7.9027705e-02
 -3.7489906e-02
 -1.6858801e-01
 -2.4278122e-01
  1.6643507e-03
  4.4759378e-02
 -2.7968964e-01
  6.3387775e-01
  9.6391654e-01
 -2.5043857e-01
  1.5210037e-01
 -7.3001543e-03
  6.4733182e-04
  3.2834229e-01
 -2.0676206e-01
 -1.7749712e-01
  1.7567392e-01
 -7.7650569e-05
  9.2090137e-04
 -1.6672277e-01
  4.9429934e-04
 -5.2881982e-02
 -1.8124936e-05
 -2.7527905e-01
 -1.3153217e-05
 -1.0698840e-02
  2.7661541e-01
  7.5412691e-02
  2.7732912e-01
  1.3405044e-03
 -6.0777509e-01
  1.8741493e-01
 -1.8568294e-01
 -4.8773392e-05
  1.9209836e-01
 -6.2551998e-02
 -4.2520872e-01
  2.4688346e-02
 -1.2315141e-01
 -2.4621025e-02
 -7.4835327e-05
  5.2291084e-02
 -8.1036991e-01
 -1.7414503e-01
  3.9210346e-01
 -5.0965849e-02
 -1.0265685e-06
  1.7146632e-01
 -8.0881604e-05
  3.6280212e-01
  9.9389486e-02
 -2.0183902e-04
  1.2885317e-01
 -6.8331027e-04
  4.7530717e-05
 -4.6802524e-02
  2.9305431e-01
 -1.4049317e-06
 -4.1788895e-05
  1.6694034e-04
  1.1902596e-04
 -1.4223906e-05
  4.3497585e-05
  9.8209515e-05
 -1.8202369e-05
 -1.5404839e-04
  4.1533043e-04
 -6.9745023e-05
  4.3089032e-05
  3.2212865e-05
 -3.1393688e-04
  1.9659379e-05
  1.4285315e-04
 -3.2361371e-05
  5.7917801e-05
 -1.8391018e-05
  1.2333403e-04
 -4.1862811e-05
 -2.4903566e-05
 -1.4116986e-04
 -1.3075667e-04
 -7.9948244e-05
  7.4065283e-05
 -7.8508339e-05
 -4.0359613e-05
 -7.3654650e-05
  1.8318118e-05
 -8.6356762e-05
  6.0474249e-06
  5.0153234e-05
 -3.2795080e-05
 -4.3386393e-05
 -3.0834493e-05
 -5.0498038e-05
 -4.7409252e-05
  2.3533026e-05
 -1.4238150e-05
 -8.4887124e-06
 -9.5767900e-05
 -5.3632597e-05
 -6.8492038e-05
 -4.4587516e-05
  3.8787848e-06
 -1.1633284e-04
 -3.3223478e-05
 -2.9478220e-05
  2.3815128e-05
 -5.6924990e-05
 -1.6356882e-05
 -7.0262373e-05
  3.8767073e-05
  3.5788340e-05
 -8.6122400e-06
 -3.7062538e-05
  9.5631302e-05
 -7.8206569e-05
  8.5413740e-06
 -8.1642582e-05
 -2.2374637e-05
  6.8776462e-05
  4.5593628e-05
 -6.6960449e-05
 -5.3895368e-05
  1.4411196e-06
  9.7797310e-05
  1.8692261e-05
  2.6627695e-05
 -6.2970088e-05
  5.9862566e-01
  1.4554708e+00
  6.5632008e-02
  2.0341881e-01
 -1.0585160e-05
 -5.2236184e-05
 -6.1281685e-02
 -2.8849971e-03
  1.4766490e-04
 -7.1904653e-01
 -4.8844039e-01
 -4.0442128e-02
 -4.1604668e-01
 -6.0974425e-01
 -1.5926989e-03
 -5.5920988e-01
 -3.3513421e-01
 -3.6144454e-05
  4.8625983e-02
  3.4292939e-01
  1.2077494e+00
  4.9717139e-05
  1.8921395e-01
 -5.8454789e-06
  8.1059106e-06
  7.8438788e-06
 -8.9841142e-02
  4.6730024e-01
  4.8634140e-03
  5.3123218e-05
  1.8497476e-02
  6.4973451e-02
 -1.8576562e-05
  2.9320478e-01
  1.1225741e-04
  3.6837904e-05
  9.4145880e-06
  3.1907612e-01
  3.9199053e-04
  7.1428761e-02
 -1.0208948e-02
 -2.3257264e-05
  4.5221105e-01
  2.9105053e-05
  1.9731554e-01
  8.6659126e-02
  1.1648835e-04
 -9.2624119e-05
  5.2284624e-02
 -1.2372781e-01
 -5.1140890e-02
  2.2772628e-01
  4.4947892e-04
  1.1624534e-01
 -6.4760511e-06
 -4.4138536e-02
  2.4117583e-01
  1.9072968e-05
 -5.3375188e-06
 -7.2459836e-05
 -4.5066512e-01
 -1.3947642e-01
 -9.5679417e-05
  2.6004514e-04
 -3.3134639e-01
 -2.6072635e-04
 -3.2694382e-04
  1.1742895e-04
  1.7215565e-05
  3.3693957e-06
  2.9249179e-01
  1.2349713e-04
  9.7711760e-01
  3.2622963e-02
 -1.0280940e-02
 -1.7264426e-04
 -1.7021695e-05
 -1.6887565e-04
 -5.8408594e-05
  3.0662624e-05
 -1.3299736e-05
  2.0433132e-05
 -1.4846042e-01
  9.5193363e-06
  9.2073813e-02
 -1.6556123e-01
  1.5102889e-01
 -5.3705044e-06
  1.0798247e-04
 -5.7363359e-05
 -4.5765686e-05
  1.1838150e-01
 -2.2735338e-04
  3.9136059e-05
 -3.8698759e-02
  1.0665046e-04
  1.7081693e-04
  7.8054465e-05
  6.5602253e-06
  7.0357695e-05
  8.4437415e-05
  9.5374323e-03
 -9.5849420e-05
  1.9724621e-05
  2.2724891e-01
 -2.3900811e-04
  1.4443054e-05
 -4.6885143e-05
  2.0145796e-01
  5.5220275e-04
  4.8122551e-02
 -4.7538292e-06
 -1.2647374e-04
  1.8825810e-02
 -1.2434425e-04
 -6.7359097e-03
 -1.5241914e-06
 -1.8713035e-05
 -3.7430902e-05
 -6.8045797e-06
 -5.2213371e-05
  5.3039931e-02
  1.2683499e-04
  5.6210585e-04
 -1.0696902e-01
 -4.5619076e-05
 -3.9903302e-02
 -2.9132506e-04
  1.5069181e-05
 -8.2981947e-05
  2.9328041e-04
 -8.7128192e-06
 -8.9378649e-05
 -7.7586019e-06
 -2.1306745e-05
  6.1217538e-04
 -2.7430160e-06
 -6.1121755e-05
  8.0345017e-05
  4.9627193e-05
 -1.9526566e-05
  5.7094596e-05
  1.7134964e+00
  6.4025873e-01
  1.1698425e+00
 -1.0968264e+00
 -3.7203285e-01
  1.0074172e-04
  7.6867849e-01
 -2.5182435e-02
  7.0938818e-02
  2.8297204e-01
 -2.5749528e-01
 -2.1242124e-01
  9.2791569e-01
  9.3990201e-01
 -6.4839023e-01
 -1.1248767e-01
  5.6171697e-01
  1.8216723e-01
  1.1663805e-04
 -7.3510813e-07
  2.5896096e-01
  1.9637065e-01
 -4.6063623e-01
  7.0280993e-01
  1.7075914e+00
 -1.5730284e-01
  3.5298759e-01
 -8.6796535e-07
 -1.1206681e-04
  2.0712067e-01
  2.9815989e-02
  2.1344941e-02
  3.0011032e-04
  7.2732860e-01
 -8.2357641e-05
  4.7989598e-01
 -3.7445998e-01
 -6.1678950e-02
 -2.9300514e-01
 -1.4128427e-01
 -5.2945518e-01
 -4.0835664e-02
 -3.0128390e-01
  3.2257802e-05
  6.7747957e-01
 -1.3900476e+00
  1.2366412e+00
 -9.1307558e-02
  7.1116662e-01
 -1.0710188e-05
  3.3575452e-03
  9.1905040e-01
  4.3671948e-04
  2.2384108e-03
  8.9623824e-02
 -1.3100865e+00
  1.4513588e+00
  1.0883788e+00
  1.5691660e-02
  4.4577671e-03
  1.2030866e-04
 -5.0428964e-05
 -7.9784832e-06
 -7.4220668e-05
 -1.5517373e-01
  2.0024943e-01
  1.9951423e-01
 -3.1461106e-05
  2.8881893e-02
 -4.2206037e-05
  1.0571814e-03
 -2.6758687e-05
 -1.5032404e-05
  1.0495920e-05
  2.1671607e-05
 -3.8255290e-05
 -1.3491124e-04
  4.5425797e-05
 -6.5079716e-05
 -1.3045914e-04
  3.8558771e-04
 -1.7590920e-04
 -1.1008520e-04
 -2.3863526e-05
 -6.7224835e-05
 -1.8705330e-05
 -1.5801357e-05
  1.8513492e-05
 -2.9292694e-05
 -1.1249812e-04
  9.8489827e-06
 -3.9892453e-05
  2.2698428e-04
  2.5499186e-05
 -9.4847346e-05
  1.4695340e-05
 -3.1883261e-05
  5.3118067e-05
 -2.3351935e-05
 -1.6881047e-05
  6.3256143e-06
  5.5342662e-04
 -1.4990351e-04
 -6.6181747e-05
 -1.4190365e-05
  4.7284691e-05
 -4.7398185e-05
  1.9389408e-04
 -1.5535128e-04
  5.2031446e-06
 -3.2258962e-05
  3.8617203e-05
 -8.3003670e-08
  2.3684481e-05
 -3.5627271e-04
 -2.0389687e-05
 -6.3650932e-06
 -9.4435622e-05
 -9.7283606e-05
 -1.3468731e-05
  9.0657246e-05
 -1.0689023e-04
  1.2743738e-05
 -4.2751064e-05
 -1.9886635e-05
  3.9764513e-05
  1.7034468e-05
 -5.5502471e-05
  4.4597546e-05
  4.4300505e-05
 -4.2455817e-06
 -1.3595559e-05
  3.4924262e-05
 -4.7678033e-05
 -1.1532981e-05
 -1.1865414e-04
  1.1416523e-05
  3.6796842e-05
 -5.0492981e-06
 -1.0087222e-05
 -5.6217366e-05
 -1.2069373e-04
  3.9947692e-01
 -2.9368071e-05
 -3.5120030e-03
  5.4822881e-02
  3.7598863e-01
  3.9084284e-06
  4.7207341e-01
  1.1353201e-04
 -3.0885315e-01
  6.1991465e-01
  2.9129462e-02
  8.2143265e-01
  7.5715977e-01
 -1.0919027e+00
 -1.4326504e+00
 -1.0334407e+00
 -1.2537863e+00
 -6.8007374e-01
  6.1762925e-02
 -1.2755166e-04
  1.2016398e+00
 -7.1758877e-05
  2.7980239e-04
  1.4465246e-03
 -1.0122117e-04
 -3.2325883e-05
 -8.4847641e-01
 -4.7451490e-01
  5.7638228e-01
  2.8514069e-05
  1.3420616e-01
 -2.0487143e-02
  1.7418200e-01
  8.9972174e-01
 -5.3064954e-01
  8.5092419e-05
  9.8976379e-06
 -3.8489267e-01
 -7.9625046e-01
  8.7007582e-01
 -2.2545585e-01
 -2.0466718e-01
  4.2322388e-01
  3.5215379e-04
  5.1244743e-02
  2.7876589e-01
 -3.6300709e-03
  2.1422170e-04
 -3.2495570e-01
 -6.0455300e-02
  4.2508149e-01
  3.1193835e-01
 -1.0165622e-01
  3.1343913e-01
 -3.9977731e-06
 -4.4308999e-01
  4.3218893e-01
  9.1592674e-06
 -6.4366973e-06
 -8.3369380e-01
  2.1861112e-04
 -1.6809517e-01
 -4.5589913e-05
  2.2135498e-06
  5.7029774e-05
 -5.9341670e-05
 -7.9369912e-04
  1.0188687e-05
 -3.4351047e-05
  1.3282768e-04
 -2.7891490e-04
 -1.3663941e-05
  1.1291510e-01
  1.8937244e-01
 -8.8142042e-07
  2.7982769e-06
 -1.4871880e-04
 -4.8570037e-05
  6.2482376e-02
  1.2246362e-04
  2.5586521e-02
  7.1917392e-02
  2.8465965e-04
 -1.2813104e-05
  1.7198920e-02
  3.3790417e-04
  2.0053838e-01
  6.6342673e-06
 -2.7828888e-04
 -6.2691697e-06
  5.2734027e-05
 -1.5524644e-04
  1.4682143e-04
  7.5958602e-02
  8.9253394e-05
  1.3171461e-01
  3.6865666e-05
 -1.7461760e-05
 -2.9368877e-01
  6.9514986e-06
 -1.5393100e-05
 -6.0210031e-01
  2.5283185e-05
 -1.3026997e-02
  4.4185817e-06
 -6.3321488e-05
 -4.3622553e-05
  5.7042551e-05
 -1.1892042e-04
 -1.3014123e-04
 -5.1400907e-02
 -1.7121105e-04
  2.9534393e-05
 -1.9779718e-01
 -1.4056458e-01
  9.7349435e-02
 -6.6879162e-05
 -8.8498236e-05
 -5.9609598e-04
 -5.3715408e-02
 -3.3011127e-06
  8.6291320e-06
 -2.6106476e-04
  2.0054699e-06
  1.8891264e-05
  3.3743130e-05
 -2.9184729e-01
  2.3126489e-05
  3.6660559e-04
  2.9552617e-05
 -6.0089601e-06
  7.7534001e-05
 -3.5685389e-05
 -5.7126988e-05
  1.0552042e-04
 -3.0701071e-05
 -2.5127718e-04
 -8.3631290e-05
 -1.5294303e-05
 -2.4398921e-04
  4.5261008e-06
  4.5211706e-05
 -4.0949867e-06
 -1.2873362e-04
 -1.3771669e-04
 -7.5761869e-05
 -4.0834195e-05
 -7.5307282e-05
 -1.0288291e-04
 -1.6616010e-04
  9.8185246e-06
 -4.2160900e-07
  2.8293440e-05
  1.1699389e-04
 -8.5739784e-06
 -1.2294319e-04
  8.6980499e-06
  3.6421632e-05
  3.7569556e-05
  5.0365485e-05
 -6.7356423e-06
 -2.4950261e-05
 -5.0714945e-05
 -4.0256051e-05
  2.0880270e-05
 -6.9851660e-05
 -1.5917906e-04
 -1.9306510e-05
 -2.9416169e-05
  1.6786703e-06
  6.5472654e-05
  6.0461185e-05
  1.7947567e-04
  3.8448325e-05
  1.1901299e-05
  3.5032799e-04
 -1.1713363e-04
  4.1772942e-06
  3.3513123e-05
  1.0403437e-04
 -2.4808089e-05
  4.1582360e-05
  3.7998798e-05
  4.8274946e-05
  1.9073676e-05
 -6.5746981e-06
 -7.4550030e-03
 -3.2397231e-05
 -1.1080185e-04
 -2.6857177e-05
 -9.9792254e-05
  1.1235579e-05
 -1.8272163e-05
  8.4296211e-05
 -1.8863166e-06
  1.1646314e-05
  5.2912637e-05
  3.9383704e-05
 -6.2231789e-05
 -2.9777204e-05
 -6.1287348e-05
 -1.7696386e-05
 -1.5542719e-04
  4.6904508e-05
  2.4164969e-05
 -1.0781586e-05
  3.2592150e-05
  2.6661626e-05
 -1.6119298e-04
  4.3309170e-05
  3.8025057e-05
 -1.4586699e-04
  9.3523995e-05
  1.2107357e-05
 -2.7533215e-01
  5.5944367e-04
  3.5998179e-05
  4.2533160e-05
 -1.1923986e-04
 -7.6634118e-05
  2.5900683e-04
  2.4290001e-05
 -9.4199539e-05
  6.9619045e-02
  1.9646535e-05
  1.3585265e-01
 -2.7640045e-01
 -2.2605745e-04
  3.8345439e-05
  2.5375589e-04
  5.0891711e-05
  1.4243465e-05
  5.3541207e-05
 -9.8422453e-05
 -4.4504559e-05
 -2.8691949e-05
  5.2117044e-05
 -1.4544058e-01
  8.0078334e-02
  1.8869007e-02
  3.7011937e-06
  1.2817258e-01
 -8.2443999e-05
 -8.7866691e-05
  7.4153559e-06
  8.7297718e-05
  4.9818893e-05
  1.8272831e-05
  1.8719631e-03
  1.4681417e-04
  4.6382710e-02
  1.1109256e-01
  1.4031973e-01
  3.7395741e-05
 -1.6216525e-04
  3.3285122e-02
  1.7303590e-01
  2.3701334e-02
  1.2000839e-03
  5.5879862e-03
 -1.8054243e-06
  5.5552393e-02
 -1.9165842e-05
  1.7660750e-01
 -8.3946041e-05
  1.9498554e-04
 -7.6398157e-02
 -2.4309702e-06
  1.4879993e-04
  1.3980225e-02
 -8.8276660e-01
  8.8336943e-05
  1.8714214e-04
  2.2332608e-05
  3.9494022e-05
  5.7915466e-05
 -5.7628945e-06
 -2.0259577e-04
 -5.8914766e-06
 -2.7272385e-05
  2.5315743e-04
  9.7107941e-06
  3.0734836e-06
 -5.6748977e-06
 -2.3717144e-01
  7.0396948e-01
 -4.1347596e-01
 -6.3832885e-01
 -4.2849037e-01
 -2.0668916e-04
 -4.6148553e-01
 -5.9771669e-01
  2.2121118e-01
  6.7632461e-01
 -8.0906773e-01
  2.8046495e-01
  6.7058969e-01
  1.5323135e+00
 -2.8251228e-01
  1.1356816e+00
  1.2207030e+00
 -4.1475214e-06
  4.7361830e-01
  4.7149333e-05
 -7.4261415e-01
 -3.0954875e-02
 -8.7282658e-01
 -2.3157635e-01
  1.3684735e+00
 -1.8736476e-01
 -4.8325794e-05
  1.4623103e-01
 -3.8041184e-05
 -8.4394451e-06
  1.0619200e-04
 -2.8086367e-01
  4.9504262e-01
  1.1327530e+00
 -2.5687635e-01
  1.1005946e+00
 -6.2848359e-01
  1.7016646e+00
  5.0201023e-01
 -2.5215796e-01
 -3.3533880e-01
 -7.1035625e-05
  3.7344146e-01
 -6.3825029e-01
 -1.5117917e+00
  9.9928552e-01
  2.1821837e+00
 -2.0030570e-01
  6.9381160e-01
 -6.0091150e-01
 -2.0508923e-01
 -6.0302019e-01
  9.4528757e-03
  5.4895198e-01
  1.7452647e-01
 -5.8131522e-01
  6.5596575e-01
  8.0604285e-01
 -1.0966946e-01
  5.6365836e-01
 -1.5349731e-05
 -8.4654719e-05
 -2.8372810e-05
 -1.4358990e-05
 -5.1588933e-05
  3.1907880e-01
 -2.1102844e-05
  1.0332778e-01
 -1.4013414e-01
 -2.8177066e-04
  8.0276914e-05
 -3.7745791e-05
 -4.7931262e-06
  1.3070324e-04
 -1.5964506e-05
  5.0359115e-05
 -6.1545950e-05
 -6.9388734e-05
 -1.8452221e-04
 -3.5492003e-06
 -1.8345965e-05
  5.2542699e-05
  1.3369396e-05
  2.5786387e-05
  1.0744479e-04
  2.0885206e-04
  2.7294127e-05
  1.1611485e-04
  1.7174274e-05
  2.3871149e-05
  6.1856132e-05
  1.0115804e-05
 -7.8773819e-06
 -5.5664008e-05
  3.3023854e-05
  6.9843663e-06
  2.1396448e-04
 -4.0583705e-04
 -7.9735022e-05
  1.7242557e-05
 -1.8665980e-05
  1.4713969e-05
 -2.3664812e-05
  5.0212588e-05
  7.4274663e-05
  3.7738496e-06
  1.6301648e-04
  5.1025254e-05
  1.7997503e-05
 -1.6609461e-05
 -9.3539948e-06
  5.7783650e-06
 -4.5324603e-05
  3.4782355e-05
  4.4984145e-06
  9.1272399e-05
 -2.3756878e-05
  3.3688633e-05
  2.2357217e-06
 -5.6731969e-06
 -1.0304296e-05
  4.6156565e-05
 -2.1944114e-05
 -9.6894209e-06
 -7.5396914e-05
  8.7143744e-05
  7.0775495e-05
  2.3409113e-05
  1.0724003e-04
 -1.1679338e-04
  6.6084598e-05
 -6.8686438e-07
 -3.2923999e-06
  5.0271374e-05
 -4.8778336e-05
  8.1165766e-05
  8.7802822e-05
  1.2315036e-04
 -6.4063657e-05
 -6.7592082e-05
 -5.4306947e-05
  1.5737978e-05
 -1.9306494e-02
 -1.2319166e-01
 -8.0364424e-01
 -4.6118388e-01
  7.6888478e-01
  1.0606170e+00
 -3.2766379e-04
  2.1398425e-01
 -5.2771654e-02
  1.2876231e-02
 -1.7654626e+00
  2.2910084e-01
  1.0291061e+00
 -4.5110556e-01
 -9.6674573e-01
 -4.2817211e-01
  2.4531860e-04
 -4.0027466e-05
 -6.2863626e-05
  6.0692721e-05
  3.6904535e-01
  1.2060869e-01
  4.3759897e-01
 -2.1727856e-03
  3.6963600e-01
  4.1552557e-05
 -1.5656359e-03
 -6.1738196e-05
  3.8376151e-04
  2.8711853e-03
  7.9942314e-05
 -2.3169929e-05
  2.7502974e-05
 -4.3308988e-05
 -2.6764016e-04
 -5.9000742e-01
 -7.5909360e-05
  2.0621132e-05
  1.5737574e-01
 -3.6654161e-05
  2.0681751e-05
  2.2244396e-05
 -1.3608060e-06
 -4.8965969e-05
  5.0759810e-01
 -3.0414933e-01
 -5.3612918e-02
 -8.5689068e-01
 -5.9461892e-02
 -5.8763050e-02
 -3.3016047e-05
  1.2497450e-05
  1.1264398e-04
 -5.0618720e-01
 -2.5050357e-04
  1.4383858e+00
  2.5421846e-01
  7.9397023e-01
 -1.0412046e-02
 -3.1388670e-01
 -2.8617351e-04
  1.4414471e-05
 -1.1519632e-04
 -8.2264793e-05
 -8.3057575e-06
  8.4167164e-05
 -3.2521051e-04
  2.8457360e-05
  1.6902754e-01
 -7.4260779e-02
  1.3680849e-04
  4.3307066e-01
  4.0988007e-01
 -1.3827300e-01
  9.3917504e-02
  3.9241880e-02
 -4.8531941e-01
  4.1047040e-01
  2.6240006e-01
 -1.7450351e-02
 -4.2883420e-01
  1.0055718e+00
 -4.0069404e-01
 -5.8932640e-02
 -7.8635889e-01
  2.7777392e-01
  2.0774947e-01
 -3.1729332e-01
  3.4838514e-03
 -3.9969756e-05
 -1.9667379e-05
  1.1375643e-05
 -6.2833071e-01
 -6.0346252e-01
  2.2219402e-01
  1.0263134e+00
 -8.6901653e-01
  7.4438201e-03
  4.2670783e-01
 -4.7490073e-05
 -5.1401175e-06
 -1.8630333e-05
 -8.7019436e-02
  1.1750192e-01
  8.2773668e-01
  1.3909166e-04
 -1.2263283e-02
  3.5515937e-01
  2.0528489e-01
 -7.7880459e-04
 -2.7143244e-02
 -2.3678169e-05
 -1.1516715e-03
  2.5304386e-01
  2.2601558e-01
 -1.4065958e-02
  5.1343286e-01
  5.3330815e-01
 -1.4616027e-01
  5.1238638e-04
 -2.7607141e-05
  9.1292295e-06
 -3.5660055e-03
 -4.0410483e-05
 -1.8142071e-03
  6.6553519e-05
 -1.5282755e-01
 -3.0989134e-01
 -4.3347318e-04
 -5.2408326e-02
  2.0266937e-01
 -7.5541480e-05
 -6.7219880e-05
 -1.6023740e-03
 -1.3071906e-05
  3.0810729e-04
 -3.3724256e-05
  1.1442118e-01
  1.0509738e-01
 -1.0098903e-03
  1.2659369e-05
 -3.0220905e-01
  2.4662181e-06
  1.8384700e-03
 -1.6907092e-05
  5.7316611e-05
 -3.7611826e-05
  4.0256205e-06
 -1.3218289e-05
  1.9239667e-05
 -2.4278890e-05
  5.0396342e-05
  3.3890792e-06
 -4.5599885e-05
 -6.1242368e-05
  4.4628556e-05
  6.0067821e-04
 -1.2916826e-01
 -2.6798286e-04
  4.9239250e-05
  5.1409047e-06
  4.1213702e-06
 -9.1152317e-05
  5.9320926e-05
 -9.9610679e-06
 -4.0413995e-04
  7.2063401e-02
 -4.9223898e-05
 -8.5806787e-05
  2.5790565e-05
  6.9377573e-05
 -1.3648415e-05
  5.0290109e-06
  1.8149005e-05
 -1.1326285e-04
 -2.0631083e-05
 -4.0945455e-05
  2.4028835e-05
 -1.5575124e-04
 -1.1207520e-05
 -2.1089072e-06
  5.6540674e-05
  1.7903598e-05
  5.2177398e-05
 -7.4775438e-05
 -3.5724071e-05
 -7.4145746e-01
 -6.4922583e-06
 -1.0700005e-05
 -1.0364338e-04
 -7.1942566e-05
 -6.2845820e-06
 -5.7306992e-05
 -6.5965214e-06
 -6.6790555e-05
 -1.0232584e-04
 -9.2082293e-05
 -7.2803283e-05
 -7.1679111e-05
 -6.1488436e-06
 -1.0288777e-04
  3.7895414e-05
  1.5452821e-04
 -8.0594938e-05
 -6.3830666e-05
  8.0276899e-05
 -2.8096159e-05
 -2.9228493e-05
 -1.1349631e-04
 -7.4324547e-05
  6.5304092e-05
 -2.2892264e-06
  1.9330460e-06
 -1.6611992e-04
 -8.4366620e-02
  5.2615032e-05
  2.8752413e-05
  1.8333361e-04
  2.7092683e-05
 -3.9658049e-01
 -2.3852761e-05
  4.9208811e-06
  1.7683310e-03
  4.3984097e-01
  1.9571489e-01
 -1.8600658e-01
 -4.1096738e-01
  1.2827528e-01
  1.0172452e-02
 -1.7390022e-02
  5.0232157e-02
 -4.1014591e-06
 -5.4527893e-05
  7.3218034e-05
 -1.2804365e-05
  7.6010809e-03
  3.1859487e-01
  3.6328372e-02
 -5.4425714e-03
 -4.9672784e-05
 -7.1644758e-06
  1.0620774e-04
  1.7202593e-02
 -3.7661728e-05
  1.3123166e-03
  2.0563249e-04
  1.0796722e-05
  5.5492677e-05
  1.0957298e-04
  1.1342081e-04
 -1.6991673e-02
  1.7660577e-05
  4.6761934e-06
 -1.3553238e-01
 -2.0928152e-05
 -2.0785563e-02
 -8.5617467e-05
 -1.2697671e-02
 -4.9273279e-01
 -1.7208260e-01
 -2.8441116e-01
 -1.7586553e-01
 -3.1053183e-05
  5.0033499e-03
 -1.8917205e-04
 -3.5254317e-05
  1.9098851e-01
 -3.2809776e-06
 -3.6578053e-01
  4.2307907e-01
  2.3776309e-03
 -1.9666741e-03
  6.3037560e-06
  4.9339673e-05
 -4.4916804e-05
 -4.0682804e-05
  1.0602645e-04
  1.3776121e-04
 -3.8981034e-06
  3.8828512e-04
  5.6392028e-06
 -6.7628932e-04
 -4.7668087e-04
 -1.7323040e-05
 -6.8840658e-05
 -2.2552054e-05
  1.5865206e-05
  4.8390953e-06
  7.8452285e-06
  1.1211060e-05
 -3.4862114e-07
 -1.4075975e-05
 -4.2677502e-06
  7.8112607e-05
 -1.1318259e-05
  7.6611730e-05
 -4.7049096e-05
 -9.3664275e-05
 -9.3401883e-05
 -1.3011669e-04
  1.3384384e-05
  7.1552982e-05
  1.0927607e-05
 -6.0915881e-05
 -1.0149694e-04
 -2.1001069e-05
  4.0007373e-05
 -4.0414143e-05
 -7.6019887e-06
  1.5324096e-05
  2.5780124e-04
  1.4539172e-04
 -8.4721742e-06
 -1.5610410e-04
 -3.0699433e-05
  8.6144937e-06
 -7.4897061e-06
 -9.4672752e-05
 -8.0166319e-05
 -8.4475789e-05
  1.2817420e-05
 -2.4121109e-04
  2.3356846e-05
  7.0814531e-06
  2.7538443e-05
  2.2417518e-05
 -5.1336851e-06
  9.0692571e-05
 -1.1035934e-05
  1.7236207e-05
  1.8503352e-04
  1.4686566e-05
 -1.3578301e-06
  7.9570302e-05
  4.5154047e-05
 -3.4206172e-05
  8.3861465e-05
  8.4412437e-05
 -9.5156620e-06
 -9.6562108e-06
 -3.2981618e-05
  4.3525710e-05
  3.4806424e-05
 -1.4499658e-05
  2.1312408e-06
 -6.0903397e-04
 -4.5568049e-05
  6.1740684e-06
 -3.1114232e-05
  2.1129328e-05
 -6.9105023e-05
 -2.1845250e-05
  2.6412101e-05
  3.7835616e-05
 -4.5336201e-05
  3.8912665e-05
 -8.3359737e-07
 -5.5224755e-05
 -6.3394575e-05
  2.4531228e-05
 -1.5623586e-05
  7.1342474e-05
  2.9716233e-04
  2.4786519e-05
 -3.0332070e-05
  9.1213566e-05
 -8.3125793e-05
 -1.1508677e-05
  4.4282469e-06
  3.2545926e-05
 -4.5419950e-03
  5.6962694e-05
 -2.3958478e-04
 -4.1477397e-05
 -5.6887016e-05
 -1.0504308e-05
 -2.7254844e-05
 -9.9488132e-02
 -7.9123791e-05
 -5.7261728e-05
 -2.3575869e-05
  7.4717951e-05
  1.0004493e-05
  2.8870645e-04
 -1.5688316e-04
 -2.0950231e-06
 -5.1667012e-06
  1.6192862e-06
  6.1172868e-06
  1.3670701e-04
  1.2656447e-04
 -4.0114766e-05
  8.7597597e-05
 -2.0641008e-05
 -7.8011290e-06
  3.7057820e-05
 -4.1042898e-05
  7.9142206e-05
 -2.3875182e-05
  9.0467445e-05
  1.5045414e-05
  3.0449301e-04
 -1.0206495e-05
  4.0113882e-04
  1.6060538e-05
  1.0110727e-04
  3.7188938e-06
  1.3862118e-04
  2.1015992e-05
  1.8215926e-04
 -8.4478910e-05
 -4.7858841e-05
  1.0493921e-05
  5.4993725e-05
  1.4890968e-05
 -1.6825948e-05
  6.2252198e-05
  9.7956627e-07
 -3.5625722e-05
 -5.1070721e-05
  1.3073409e-01
 -6.0036262e-05
  1.7049324e-04
 -7.7775323e-05
  1.5665628e-05
  3.7855723e-05
 -1.6740612e-03
  4.0011942e-01
  1.4764766e+00
  1.5701503e+00
  6.5671943e-02
  3.4524506e-01
 -1.1772851e-02
  1.0400824e-04
  8.9300972e-01
 -4.6215698e-01
  1.9519740e-01
 -4.1963163e-01
 -4.3048963e-01
  6.1237878e-01
  5.4779106e-01
  1.0838856e+00
  3.3435640e-01
 -6.3939995e-05
 -5.3265747e-03
  1.5947146e-05
 -2.1059172e-02
  1.7865747e-01
 -4.4360254e-02
 -3.6577128e-02
 -7.7053225e-01
  1.0184186e-01
  2.3981586e-01
  6.2914830e-01
 -6.5017717e-05
 -2.2133323e-04
 -6.5041015e-05
 -6.1109124e-05
  1.6975573e-01
  2.5571370e-01
  7.6431774e-02
  1.9279213e-01
  1.7401300e-01
  6.7353588e-01
  1.3970830e-01
  7.2945110e-02
  7.7941542e-04
 -1.4550552e-05
  1.4453417e-02
  6.5504324e-01
 -1.2861638e+00
  3.1552702e-01
 -1.1444852e+00
 -9.1399081e-02
  6.0322404e-01
  3.1983498e-01
 -1.1662967e-04
 -8.2838945e-03
  9.2388218e-06
 -1.3627248e-01
 -1.0544230e-01
 -3.7733015e-01
 -2.4008396e-01
 -4.7790381e-01
  5.8415961e-01
  4.1265962e-01
 -1.0245141e-04
  1.8115932e-05
 -2.9527876e-04
 -1.5795729e-04
  7.4707648e-05
  2.7890918e-03
 -1.3291529e-01
  2.1066810e-01
  8.2798796e-03
  5.9820926e-05
 -1.5651550e-03
 -1.5728578e-03
 -7.9855388e-03
  8.9635234e-04
 -4.5348508e-05
  1.6736689e-04
 -1.2948802e-04
 -2.5191372e-02
  4.3463916e-02
 -5.9348960e-05
  2.0706409e-01
  1.1403538e-01
 -5.6881538e-05
 -1.1326354e-01
 -1.4687970e-01
  4.9468990e-02
  2.1040836e-02
 -9.1681302e-02
 -1.4203490e-04
 -7.1655765e-02
  6.5913213e-07
 -5.6313202e-02
 -1.2076335e-05
  8.1184255e-03
  2.5335457e-02
  7.0876904e-02
 -7.7739169e-05
 -2.1205677e-02
 -8.5522294e-02
  8.5283011e-07
  8.1176730e-04
  4.5870907e-05
 -2.4560558e-02
 -1.6533677e-01
 -1.5826188e-02
 -2.1334751e-01
 -6.9466539e-02
  1.2992835e-04
 -3.2030705e-01
 -1.6822916e-01
 -7.2599769e-02
 -2.5113572e-03
  8.8060726e-05
 -1.3591015e-03
 -9.2912046e-03
 -5.3779036e-02
  1.1168807e-01
 -2.3737932e-02
 -6.3772388e-02
 -1.8826218e-01
 -7.0378641e-03
  2.1144151e-05
 -1.3508879e-04
 -6.5117801e-04
 -2.7811647e-04
 -1.2054582e-04
 -1.4311682e-02
  1.8511726e-01
  1.5527734e-01
 -3.5277051e-03
 -6.3852101e-05
  1.8043583e-04
 -1.9259596e-06
 -7.5868433e-05
 -1.0708869e-05
 -1.5486447e-05
 -7.7913902e-03
  2.0740085e-04
 -6.7834946e-05
 -4.6538355e-04
  5.0292529e-06
 -2.1457330e-04
 -2.2906213e-05
 -7.3615891e-05
  2.2545599e-05
 -4.2380823e-05
 -1.3032532e-05
  2.8688832e-05
  2.7394466e-04
  6.4842410e-05
  7.3062532e-05
  4.4109975e-06
  1.2224491e-04
 -2.8833607e-05
 -2.8184220e-05
  8.3760634e-02
  1.5621752e-04
  4.8774335e-05
  2.0401132e-05
  2.0121508e-05
  6.5083339e-05
  1.3426674e-05
 -3.1199619e-05
 -7.0792179e-05
  2.3404897e-05
 -1.0307737e-04
  3.8272748e-05
 -2.9623978e-05
  1.4010685e-05
  7.6614742e-06
 -5.6718869e-05
  1.8830804e-04
  1.4129449e-05
  1.5885485e-05
 -6.7080706e-05
  7.7052413e-05
 -1.5398997e-04
 -2.9539022e-05
 -4.6820769e-06
 -5.1483090e-05
 -7.4685631e-05
  7.4158170e-06
 -8.3446183e-05
 -9.9567842e-06
 -1.8701950e-01
 -5.1884290e-05
 -5.1229304e-01
 -8.1730956e-05
  3.8431390e-05
  3.3814416e-05
  7.3266419e-06
 -2.6573478e-05
  2.7056742e-05
  3.2542168e-05
  1.1977983e-04
 -3.6936906e-01
 -3.9958974e-05
 -1.2828392e-01
 -9.8464625e-07
 -1.2670852e-05
  4.3546686e-05
  1.2054446e-05
  2.1917394e-05
 -4.3414075e-05
  2.6495276e-05
  2.4728919e-04
  3.9631028e-05
  1.1352650e-04
  3.6976304e-05
 -6.4617954e-05
 -7.4976735e-05
 -1.2896576e-05
  2.4684879e-05
  5.5996597e-01
 -4.0494313e-05
 -8.8720379e-05
  5.8168036e-05
  2.4763818e+00
 -7.0312863e-06
  1.4876272e-05
 -8.0296028e-01
  1.3052231e-05
  3.5764724e-01
  1.9019000e-01
 -3.2258548e-02
  1.0566354e-05
 -1.5137421e-01
  8.0069709e-05
 -1.5526396e-04
  6.2933723e-03
  2.0195608e-01
 -1.9036898e-04
  7.1652912e-02
  7.2695955e-05
 -7.5300252e-01
 -8.9500409e-01
 -8.0755883e-05
  8.2921427e-01
 -2.0738931e+00
 -1.0449531e-04
 -1.7939552e-04
  9.5505066e-02
  2.1723768e-01
  8.8042361e-06
  1.6347153e-01
  1.2961014e-04
 -6.2009811e-01
 -8.5816449e-05
  1.1100312e+00
 -4.3405682e-01
 -4.5524766e-06
  5.3596836e-02
  1.3206828e-01
  6.1246869e-06
  8.1366408e-01
  2.5020289e-01
 -1.1928938e-04
  1.7443793e-03
  1.6039347e-05
 -4.4776745e-05
 -2.8287044e-01
 -2.4408472e-01
 -5.2616303e-03
 -1.9918555e-01
  4.5319825e-02
 -8.0253300e-04
 -2.4820833e-02
 -3.3275789e-01
 -6.6767819e-02
  7.1279503e-02
 -1.9335447e-01
 -6.5519325e-02
  1.5356158e-01
 -3.2807705e-01
 -6.7456663e-01
 -5.9301291e-02
 -6.8908298e-01
  1.9412935e-01
  1.5359481e-02
  6.9238150e-01
  2.9296935e-01
  8.3064184e-02
 -7.9484260e-01
  9.0597430e-05
  1.4313741e+00
  3.2075882e-01
 -6.3723579e-02
  3.8750494e-01
  2.3279493e-01
 -5.0402287e-02
  1.4374634e-03
 -4.9315494e-02
 -6.9904017e-01
 -3.2600593e-02
 -5.9632111e-01
  1.9666041e-01
  1.8205477e-01
 -1.0195035e-04
 -3.2442406e-01
 -8.3852306e-02
 -4.1345338e-04
  1.0932264e-01
  1.8695444e-01
 -1.1455712e-04
 -1.5162568e-01
 -4.9036136e-01
 -2.9376168e-02
 -1.5193617e-01
  1.2703955e-02
  4.4305574e-02
  2.5493664e-01
 -2.2451773e-01
 -5.7266884e-02
  3.2806673e+00
  1.0362709e+00
 -7.5157249e-01
 -5.0751305e-01
 -1.0008641e-01
 -1.0000792e-01
 -1.0000674e-01
 -1.0008812e-01
  1.0018689e-01
  1.0003530e-01
 -1.5011612e-01
  1.0000264e-01
  7.3031366e-01
 -1.3661625e+00
 -3.3991343e-01
  2.8403950e+00
 -7.6856405e-01
  1.0000022e-01
  2.6249036e-01
 -1.5324458e+00
 -1.0004207e-01
  3.9800364e-01
  1.0002051e-01
 -1.5288170e-01
 -1.0006741e-01
  1.0000814e-01
 -9.6803445e-01
  3.7129635e-01
  1.0786071e-01
  4.1712174e-01
 -1.7470384e+00
  7.2914904e-01
  1.2769738e+00
  5.1798350e-01
  1.0009816e-01
 -2.1199471e-01
 -1.0026067e-01
  4.1965529e-01
 -6.6176772e-01
 -7.0983928e-01
 -5.5198288e-01
  1.0030090e-01
  1.0000025e-01
  1.0015820e-01
  1.0007672e-01
 -1.0000034e-01
 -1.0000008e-01
 -1.0003392e-01
 -1.0000392e-01
  8.9800721e-01
  1.0000837e-01
 -6.1438489e-01
 -1.8572639e+00
 -1.0002022e-01
  7.7324170e-01
 -2.1708832e+00
  1.0001138e-01
 -1.0006995e-01
  2.5127271e-01
  1.0061903e-01
  4.7543687e-01
  3.6899337e-01
 -2.1962175e-01
 -7.4649954e-01
 -1.7681780e+00
 -1.0002634e-01
 -1.4141912e+00
 -4.3053403e+00
 -5.9554631e-01
 -1.6794430e-01
  1.0103267e-01
 -5.7862777e-01
 -1.8039244e-01
  6.7286777e-01
 -8.9206833e-01
 -1.0000031e-01
 -1.0403683e+00
 -1.0002497e-01
 -1.0002813e-01
 -1.0000210e-01
 -1.0000618e-01
  1.0001755e-01
 -1.0002179e-01
 -1.0006769e-01
  1.0006048e-01
 -8.4762037e-01
  1.0000310e-01
  5.1932091e-01
 -3.8476884e-01
  1.0009485e-01
  1.0000093e-01
 -1.0000382e-01
 -1.0000300e-01
  1.2265745e-01
 -2.7664435e-01
  1.0000170e-01
 -1.0002320e-01
 -1.0697539e-01
 -1.0025696e-01
 -1.0000718e-01
 -8.2785779e-01
  6.6725272e-01
  1.0007976e-01
 -6.5747821e-01
 -1.0001872e-01
 -1.0004688e-01
 -6.4968914e-01
 -1.0341206e+00
  3.9558032e-01
 -3.4807369e-01
 -4.3450597e-01
  6.7701066e-01
 -4.5008647e-01
 -1.0000382e-01
 -1.0000896e-01
 -1.0004546e-01
 -1.0000028e-01
 -1.0000299e-01
 -1.6043167e-01
  1.0003853e-01
 -1.1603439e-01
 -1.0000384e-01
 -1.0000360e-01
 -1.0001183e-01
 -1.3928238e-01
 -1.1771619e-01
 -1.0027392e-01
 -1.0000041e-01
  1.0001924e-01
  8.8186759e-01
 -4.8196095e-01
  2.9314211e-01
 -1.0000774e-01
  1.0749362e+00
  3.0674356e-01
  8.9936143e-01
 -5.4654795e-01
 -5.2667564e-01
 -1.0000984e-01
 -1.2741353e-01
  2.2603834e-01
 -7.5854748e-01
 -7.5171900e-01
  1.4217770e+00
  8.0022717e-01
 -1.0004581e-01
 -8.5098040e-01
  7.1854031e-01
  5.2147877e-01
  1.0000035e-01
  1.0000431e-01
 -1.0012213e-01
 -2.6581654e-01
 -1.0000841e-01
  1.0001343e-01
  6.9120455e-01
 -1.0009031e-01
 -7.5683820e-01
  8.9852476e-01
 -4.3133628e-01
  2.1091594e-01
 -1.0006659e-01
 -1.0000890e-01
 -2.7162659e-01
 -4.0352967e-01
 -1.0024447e-01
  4.0115732e-01
  1.2442032e+00
 -1.0002860e-01
 -1.0001234e-01
  1.0001091e-01
  1.0002659e-01
 -5.0195086e-01
 -3.8733670e-01
  3.6839417e-01
  1.9717226e+00
 -1.2907492e+00
  2.9263377e-01
 -1.0000063e-01
 -1.0000043e-01
 -1.5356383e-01
 -1.0001922e-01
  1.0012121e-01
  1.1423132e-01
 -6.7093223e-01
 -1.0000879e-01
  1.0012277e-01
  1.0000236e-01
  1.0013204e-01
 -1.0001193e-01
  1.0020395e-01
  2.0845135e-01
 -2.2118637e-01
  1.0009144e-01
 -1.0006411e-01
  4.2377397e-01
 -3.2232535e-01
 -1.0010327e-01
 -1.0007890e-01
 -1.7841985e+00
  1.0035235e-01
  1.0000326e-01
  1.0016706e-01
  3.2568794e-01
 -2.1180160e-01
 -1.0040256e-01
 -1.0006028e-01
 -1.0004490e-01
  5.3797036e-01
 -1.0000189e-01
 -1.0001107e-01
 -7.6763529e-01
  1.0001013e-01
  1.0018832e-01
 -1.0000659e-01
 -9.4797903e-01
 -2.4200991e-01
 -2.2201524e+00
  2.9539027e+00
 -5.9139013e-01
  1.0029680e-01
 -1.0000452e-01
 -3.6089942e-01
 -1.0010132e-01
 -1.0000185e-01
  3.5275155e-01
 -1.0488427e+00
 -5.2698720e-01
 -1.0000399e-01
 -1.9097927e+00
 -2.5616884e-01
 -1.1240861e+00
 -1.0000073e-01
 -1.0002675e-01
  4.1054994e-01
 -1.0000309e-01
 -1.0000189e-01
 -1.0000141e-01
 -7.1993899e-01
 -7.0039952e-01
  1.0000225e-01
 -3.7192708e-01
 -8.0944484e-01
  1.0003299e-01
  1.0356165e-01
 -1.9277216e-01
 -1.8238859e+00
  3.0050293e-01
  7.0383573e-01
 -1.0000329e-01
 -1.1510928e+00
  8.6659956e-01
 -5.7358307e-01
 -1.0008667e-01
  1.0000128e-01
  5.4569829e-01
 -2.4658233e-01
 -1.8508367e-01
 -1.0002214e-01
  1.0000312e-01
 -1.0000394e-01
  1.0000183e-01
  1.0005212e-01
 -1.0073314e-01
  1.3434376e-01
 -1.6186123e-01
  1.0002140e-01
 -1.0007829e-01
 -1.3656279e-01
 -1.0007837e-01
 -1.2388084e+00
  8.9361954e-01
 -5.7434666e-01
 -1.0002825e-01
 -1.0012215e-01
  1.0002413e-01
  1.0006374e-01
 -2.3710671e-01
  1.0000616e-01
 -2.0767805e-01
  4.5784906e-01
 -1.7328331e-01
 -1.0000797e-01
 -1.0000017e-01
 -1.2930815e-01
  1.7096388e-01
  1.0000094e-01
 -1.4150417e-01
  2.1220189e-01
  1.0026313e-01
 -1.2757425e-01
  1.0000021e-01
 -1.0000251e-01
  1.0000233e-01
 -1.0000001e-01
  1.2399718e-01
  1.0005226e-01
 -1.0003150e-01
  1.0002350e-01
  1.0000376e-01
 -1.0000151e-01
 -1.0000518e-01
  2.1223170e-01
  1.0000239e-01
 -1.0000575e-01
  1.0000334e-01
 -1.0000011e-01
  1.0000050e-01
  3.8037768e-01
 -1.0000228e-01
 -1.0340446e-01
  1.0005724e-01
 -1.8952803e-01
  2.7733174e-01
  1.1753763e-01
  1.0121318e-01
  1.4981124e+00
  1.2787235e-01
 -1.0000250e-01
  1.0000782e-01
  1.0000908e-01
  1.0041220e-01
 -9.2910331e-01
  3.9746842e-01
 -1.0000589e-01
 -4.5786974e-01
  5.8221024e-01
 -1.6996762e+00
 -1.0343406e-01
  1.0001302e-01
  1.0000131e-01
 -1.0024890e-01
  1.0000961e-01
  1.0003107e-01
  1.0000346e-01
 -1.0000165e-01
 -1.0016346e-01
 -1.7136483e+00
 -1.0002878e-01
 -5.2917570e-01
  4.0320531e-01
 -2.1005686e-01
 -1.1131708e-01
 -1.0236458e-01
  1.0001739e-01
  1.0000033e-01
  1.2184443e-01
 -1.0024794e-01
  1.0003742e-01
  1.4427854e-01
 -1.0008257e-01
 -1.0001556e-01
  1.2218065e-01
 -1.0841852e-01
  1.1852995e+00
  1.0000087e-01
 -1.0000132e-01
 -1.1774930e-01
  1.0007741e-01
 -1.0000619e-01
 -1.0109181e-01
 -2.6182589e-01
 -3.9695996e-01
 -5.9074801e-01
 -2.6158838e+00
  1.0014988e-01
 -1.0144822e-01
  1.0051513e-01
  1.0020637e-01
 -1.0000541e-01
 -1.0000429e-01
  1.0009361e-01
  1.0029379e-01
 -8.7495488e-01
 -1.0385401e-01
 -1.0000056e-01
  1.0007275e-01
 -1.5677467e-01
 -1.0170544e-01
  1.3413595e+00
  1.0001669e-01
  1.0000502e-01
 -1.7887887e-01
  5.2954876e-01
  3.3801371e-01
 -4.1935930e-01
  1.0000096e-01
  1.0000438e-01
 -1.2433128e+00
 -4.6548876e-01
  1.0035662e-01
  1.8086812e+00
 -2.6197031e-01
 -2.4865890e-01
  1.0000688e-01
 -1.0000164e-01
 -1.0000654e-01
  5.2134603e-01
 -2.2861117e-01
 -3.8759673e-01
 -4.3214464e-01
 -1.0000434e-01
  1.0006680e-01
  1.0000577e-01
  1.0006401e-01
 -1.0000781e-01
  1.0002760e-01
  7.1544629e-01
 -1.5801910e-01
 -1.0000271e-01
 -1.3287992e+00
 -1.0002873e-01
  1.0289266e+00
 -1.0009605e-01
  1.6930825e-01
 -1.5158017e+00
  2.9131836e-01
  1.0000210e-01
 -1.0158809e-01
  2.9424512e-01
 -5.4111421e-01
 -2.3268387e+00
  1.0004596e-01
 -1.0000215e-01
 -5.4028398e-01
  1.0000236e-01
 -2.7684912e-01
 -8.3211040e-01
  2.9322094e-01
  1.0005901e-01
  1.7538214e-01
 -2.7424553e-01
  1.0005946e-01
  1.6337544e-01
  5.7180411e-01
 -1.0434489e-01
 -1.5630077e+00
  1.0000484e-01
  1.0011892e-01
 -1.0000395e-01
 -2.0101264e-01
 -1.0000049e-01
  1.0191780e-01
 -1.0000464e-01
 -1.0000268e-01
 -1.6955891e+00
 -1.0000092e-01
 -2.2430629e-01
 -1.1585774e+00
  1.0004524e-01
  5.0323647e-01
 -2.0957053e-01
 -1.4015001e-01
 -1.0007776e-01
  2.0647070e-01
  1.0006364e-01
  1.0024681e-01
 -1.0002132e-01
 -2.4560845e-01
 -1.7614979e-01
 -1.7670060e+00
  1.3918836e-01
  3.8385445e-01
 -5.2121824e-01
  1.0002466e-01
 -2.6807246e-01
 -2.5673950e-01
  1.2698653e+00
 -6.3699752e-01
  4.4038069e-01
 -5.7901520e-01
  1.0000016e-01
  1.6068906e+00
 -2.9985264e-01
 -1.0017880e-01
 -1.0264623e-01
  1.0000157e-01
  6.7541695e-01
 -1.0000548e-01
  1.0074578e-01
  1.0003687e-01
  1.1276546e+00
  1.0437168e+00
  1.0001633e-01
  1.8081825e+00
  1.1541951e-01
  1.0011831e-01
  1.3891864e-01
 -1.0000354e-01
 -5.2465743e-01
  1.3638974e+00
 -6.5147960e-01
  1.7417753e-01
  6.4221555e-01
  2.9171443e-01
  1.0000414e-01
  7.7247977e-01
  5.9746283e-01
 -7.0150805e-01
  1.5185161e-01
  3.8668710e-01
  5.6436253e-01
 -1.0009193e-01
  4.9428910e-01
  1.0145875e-01
 -2.1150501e+00
 -9.5171201e-01
 -1.0000360e-01
  6.4112490e-01
  1.0000246e-01
 -1.6511075e-01
  1.0020564e-01
 -1.0000768e-01
  6.8583077e-01
  1.0019036e-01
 -1.0000806e-01
  1.2174927e-01
 -1.0008449e-01
 -1.8292756e+00
  5.2429342e-01
 -1.0000330e-01
 -1.0000209e-01
 -6.9408727e-01
 -1.0000304e-01
  1.0001247e-01
 -1.4684638e-01
 -1.0000178e-01
  8.9930916e-01
  1.8944773e-01
 -4.6304634e-01
  3.8098589e-01
  1.0494378e-01
  4.3274423e-01
  1.6856456e-01
  1.5924814e+00
 -5.6513166e-01
 -1.0449496e-01
 -1.4725518e-01
 -1.0013893e-01
  1.0000707e-01
 -2.7280000e-01
 -4.1848728e-01
 -1.0000351e-01
 -1.8794590e+00
 -2.1862326e+00
  1.0001284e-01
  1.0008805e-01
 -1.0000039e-01
  1.0000001e-01
 -6.4090252e-01
 -1.0000072e-01
 -4.8910803e-01
 -1.1316067e+00
 -1.6024154e+00
  5.2279264e-01
 -1.8020031e+00
  1.0315014e-01
 -1.0004257e-01
 -2.1821215e+00
  1.0001421e-01
  1.8917375e+00
  1.0000335e-01
  2.5258702e-01
  1.0819372e+00
  1.3647552e+00
 -1.0332590e+00
 -6.8046916e-01
  9.7990429e-01
  1.9418689e+00
 -5.8186561e-01
 -2.7354271e+00
  8.9862514e-01
  3.3046919e-01
 -7.0238107e-01
 -2.0611210e+00
 -3.6067483e-01
 -7.8604066e-01
 -1.3454597e+00
  1.0000015e-01
  1.1984571e+00
  1.2683334e+00
 -1.0001781e-01
 -1.2725715e-01
  1.8919559e+00
  1.0019742e-01
 -6.4037460e-01
  3.8145599e-01
 -1.6575637e-01
 -1.0000432e-01
 -4.7726130e-01
 -1.2247807e+00
 -5.4381847e-01
  3.8700476e-01
 -3.9694110e-01
 -4.4435155e-01
  2.4226243e+00
 -1.0018035e-01
  1.0000251e-01
  9.3221426e-01
  5.4238081e-01
  1.3804234e+00
 -8.4545749e-01
  1.0001882e-01
 -1.0001615e-01
 -1.0000019e-01
 -4.4762203e-01
 -1.8167814e+00
  2.8116066e+00
 -1.0000020e-01
 -3.7475407e-01
 -3.3252072e+00
  9.5558327e-01
 -5.5792969e-01
  1.0001733e-01
  1.8343773e-01
 -3.3950257e-01
 -1.0000084e-01
  1.0000666e-01
  1.0000257e-01
  2.1582276e-01
  1.0000519e-01
  1.0003860e-01
  1.0096984e-01
 -1.0000993e-01
  5.8396989e-01
 -1.0000654e-01
  8.9638323e-01
 -3.2753006e-01
  5.3183454e-01
 -2.1471435e-01
  6.5576220e-01
 -4.3055055e-01
 -1.1542865e-01
  1.3200143e-01
  1.0000335e-01
  1.0149626e+00
  1.1469119e-01
 -1.0038579e-01
  2.1639965e+00
 -1.5154327e+00
  1.0038900e-01
  1.0000727e-01
  5.3062493e-01
 -2.1983212e-01
  1.0000006e-01
  1.0035071e-01
 -1.1901726e+00
  1.0028822e-01
  5.6233484e-01
 -1.0000058e-01
  5.0496316e-01
 -1.6835254e+00
 -2.1187633e-01
  1.0017885e-01
  1.0002963e-01
 -1.0017832e-01
 -1.0012321e-01
  9.3863821e-01
 -1.2527205e-01
 -1.0004488e-01
 -1.0002179e-01
  1.0142877e+00
 -1.3638960e+00
  1.8540627e-01
 -7.5866961e-01
  1.7832412e-01
  4.6514428e-01
  4.5605645e-01
 -1.0000546e-01
 -1.0000008e-01
 -8.6397195e-01
  1.0000039e-01
  1.0000274e-01
  1.8006220e-01
  4.6005112e-01
  1.9100232e+00
  1.0046194e-01
  1.1404204e+00
 -1.0000525e-01
 -1.0001878e-01
 -4.6981579e-01
  6.1048210e-01
 -2.0496273e+00
 -1.7491184e+00
 -1.4454806e-01
 -7.2299767e-01
  1.5972737e+00
 -1.0000397e-01
 -1.0000056e-01
 -1.0041379e-01
  1.0004914e-01
  1.0001836e-01
  1.0000260e-01
 -1.7805104e-01
  1.1166692e-01
  1.0000336e-01
 -1.0000147e-01
 -5.0973809e-01
 -1.0000039e-01
 -1.0008521e-01
 -1.0000517e-01
 -1.0000294e-01
  1.0000062e-01
 -1.0001230e-01
  1.0003005e-01
 -8.6676693e-01
  5.5513352e-01
  1.0000037e-01
 -1.0000201e-01
 -1.0002252e-01
 -1.0000228e-01
  1.0000107e-01
  1.0001501e-01
 -2.0269229e-01
  1.0024798e-01
 -1.0030167e-01
 -1.0001782e-01
 -5.2029812e-01
 -1.0175588e-01
  1.0000201e-01
 -1.0010298e-01
 -1.5019106e+00
  1.1529779e+00
 -2.6284792e+00
 -2.9740772e-01
  1.0000540e-01
  1.4319225e-01
  1.0000402e-01
 -1.0000330e-01
 -1.8990861e+00
 -1.0009497e-01
  6.0205901e-01
  7.1077627e-01
 -1.0005017e-01
  2.0933399e+00
  1.0004763e-01
  8.8018060e-01
 -1.9427412e+00
  3.1393003e-01
  3.7257266e-01
 -1.0000072e-01
 -1.0000012e-01
  3.6732885e-01
  2.4120197e-01
  2.0061891e-01
 -8.5159081e-01
  2.6078734e-01
 -1.1588131e+00
  1.0000393e-01
  1.0000012e-01
  1.0022938e-01
  1.3801838e+00
  5.0129539e-01
 -1.0004595e-01
 -1.0001208e-01
  7.7373362e-01
 -1.0011273e-01
 -4.7329748e-01
  2.4285892e-01
  1.0000172e-01
 -1.0398002e+00
 -1.0000139e-01
  1.0835040e-01
 -5.0868535e-01
 -1.0029607e-01
 -2.6430583e-01
 -2.6061898e-01
 -1.0000058e-01
 -3.5051557e-01
 -4.1834262e-01
  1.0564318e+00
 -3.7185371e+00
 -2.8962913e-01
 -1.0077886e-01
  1.0000124e-01
 -5.2854639e-01
 -1.0009028e-01
 -8.6959004e-01
 -4.2691612e-01
  6.4932352e-01
 -2.6968029e-01
 -1.0007618e-01
  1.0007904e-01
  1.0000568e-01
 -6.5861559e-01
 -4.3483075e-01
  1.0006011e-01
 -1.8025845e-01
 -2.8084481e-01
 -1.0002059e-01
 -1.3816112e+00
 -1.0000035e-01
 -1.0002027e-01
 -1.0008232e-01
  4.2122990e-01
 -6.4839274e-01
 -1.0005627e-01
 -1.0021678e-01
  1.0018278e-01
 -8.3270878e-01
 -1.0013611e-01
  1.0002762e-01
  3.8562623e-01
 -1.6226790e+00
  8.8807076e-01
 -3.8068619e-01
  1.3316544e+00
 -2.2187767e+00
 -2.6256171e-01
  1.0046158e-01
 -1.2252184e+00
  5.4046613e-01
  5.5297148e-01
 -6.3220799e-01
  6.8215728e-01
  4.6214619e-01
  2.4746668e-01
 -1.0099898e-01
  2.2319803e+00
 -2.3619568e-01
 -1.5967295e-01
 -1.0000107e-01
  5.1683408e-01
  7.1026814e-01
 -6.7837435e-01
  1.0002808e-01
  3.8852742e-01
 -8.1763744e-01
 -5.8512074e-01
 -1.0000910e-01
 -1.0000078e-01
  3.3907205e-01
  4.8091164e-01
  1.0005102e-01
  2.1578269e-01
 -8.0518413e-01
  1.0000210e-01
  1.0000087e-01
  4.9783024e-01
 -1.0000967e-01
  1.0079549e-01
  1.0000792e-01
  2.0337284e+00
 -1.7668564e+00
  1.0140469e+00
  1.0002162e-01
 -1.0003252e-01
  1.0028404e-01
 -2.7552041e-01
 -1.0000333e-01
 -1.0000354e-01
 -1.0031684e-01
  3.4040183e-01
 -1.0000131e-01
 -1.0301007e-01
 -2.1349726e+00
 -1.0001447e-01
 -1.0000091e-01
 -1.0717771e-01
  1.0011513e-01
 -1.0000674e-01
 -1.0000431e-01
  2.2652266e+00
  3.6627156e-01
  1.0000025e-01
  1.0001267e-01
 -3.2095489e-01
 -1.0216577e+00
 -1.2712407e+00
 -1.0042996e-01
 -1.0042603e-01
  1.0000735e-01
  1.0065655e-01
  7.4052775e-01
  2.1887620e-01
 -1.8336107e+00
 -2.0247378e+00
 -1.0000008e-01
  2.2240577e+00
 -9.5639157e-01
  1.9733644e+00
 -1.0001347e-01
 -9.9168545e-01
 -9.3748766e-01
 -2.3390279e+00
 -6.0514230e-01
  2.4183765e-01
 -2.6452119e+00
 -1.0002401e-01
  1.0195858e-01
 -3.9629138e-01
  1.0016757e-01
 -3.7346249e+00
 -4.8916447e-01
 -1.3450837e+00
  1.0000312e-01
 -1.3555253e+00
  1.1779640e-01
 -1.0000201e-01
 -1.0300879e-01
 -4.9275887e-01
 -1.0004897e-01
  1.0000591e-01
 -2.2575283e+00
  9.2219752e-01
  1.0004694e-01
  1.0004655e-01
 -1.0004698e-01
 -1.0006466e-01
 -1.0014205e-01
  1.2164705e-01
 -1.4571003e+00
  9.2733568e-01
  1.0008481e-01
  1.0000143e-01
  1.2863961e+00
 -1.3709059e-01
 -1.0115839e-01
 -1.0000332e-01
  1.0000607e-01
  8.5058141e-01
 -1.0000667e-01
  1.0009694e-01
  1.0024435e-01
 -1.0000026e-01
 -1.0000090e-01
  1.0000157e-01
 -1.2467811e+00
  2.0239896e-01
 -1.0000170e-01
 -1.0004768e-01
  1.0000519e-01
  1.0263157e+00
  1.0005862e-01
  1.0000516e-01
 -1.2277912e+00
 -1.5312344e-01
  2.2519999e+00
 -1.0001183e-01
  3.1329843e-01
 -1.4848570e+00
 -1.0000165e-01
  1.0018449e-01
 -1.0000370e-01
  1.0005507e-01
  1.6292936e+00
  1.0001219e-01
  2.0350024e-01
  1.0000432e-01
 -1.0000024e-01
 -4.5244086e-01
  1.1485630e+00
 -1.7773885e+00
  1.0006604e-01
  4.8562342e-01
  7.6320875e-01
  1.8540707e-01
  7.4981797e-01
  1.0000078e-01
 -9.8508811e-01
  1.2084018e+00
  1.3861166e+00
  2.2727103e+00
  1.2014018e+00
 -5.9040946e-01
 -1.0002400e-01
 -1.0522085e-01
  2.1314266e+00
 -1.0000484e-01
 -1.0000046e-01
  1.0001278e-01
 -1.0000349e-01
  3.6139908e-01
  7.5674020e-02
  7.5674020e-02
  7.5674020e-02
  7.5674020e-02
  7.5674020e-02
  7.5674020e-02
  7.5674020e-02
  7.5674020e-02
  7.5674020e-02
  7.5674020e-02
  7.5674020e-02
  7.5674020e-02
  7.5674020e-02
  7.5674020e-02
  7.5674020e-02
  7.5674020e-02
  1.6079615e-01
  1.6079615e-01
  1.6079615e-01
  1.6079615e-01
  1.6079615e-01
  1.6079615e-01
  1.6079615e-01
  1.6079615e-01
  1.6079615e-01
  1.6079615e-01
  1.6079615e-01
  1.2261336e-01
  1.2261336e-01
  1.2261336e-01
  1.2261336e-01
  1.2261336e-01
  1.2261336e-01
  1.2261336e-01
  1.2261336e-01
  1.2261336e-01
  1.2261336e-01
  1.2261336e-01
  8.0735341e-02
  8.0735341e-02
  8.0735341e-02
  8.0735341e-02
  8.0735341e-02
  8.0735341e-02
  8.0735341e-02
  8.0735341e-02
  8.0735341e-02
  8.0735341e-02
  8.0735341e-02
  5.2544162e-02
  5.2544162e-02
  5.2544162e-02
  5.2544162e-02
  5.2544162e-02
  5.2544162e-02
  5.2544162e-02
  5.2544162e-02
  5.2544162e-02
  5.2544162e-02
  5.2544162e-02
  1.5832645e-01
  1.5832645e-01
  1.5832645e-01
  1.5832645e-01
  1.5832645e-01
  1.5832645e-01
  1.5832645e-01
  1.5832645e-01
  1.5832645e-01
  1.5832645e-01
  1.5832645e-01
