nep3 1 C 
cutoff 3.5 3.5 25 25
n_max 8 8
basis_size 12 12
l_max 4 2 0
ANN 50 0
 -2.6705668e+00
  9.3175626e-01
 -8.2848426e-03
 -8.6784506e-01
  5.1321477e-01
 -1.0732900e+00
 -1.7982321e-02
 -4.1522968e-01
  8.1810498e-01
 -6.9527082e-02
 -1.8343372e+00
  8.0173457e-01
 -1.8135064e+00
  5.4176431e-02
 -8.4380861e-03
  9.4971555e-01
  3.4020209e-01
 -1.1495265e-01
  4.9412778e-01
 -1.1866851e-01
 -2.1402919e+00
 -1.8467441e-02
  4.3105885e-01
 -4.3359777e-01
  2.6948589e-01
  9.4416982e-01
 -2.0438876e-02
 -9.9919818e-02
  9.8830414e-01
  1.4177327e+00
  9.8474932e-01
  5.4350787e-01
  4.1099610e-03
 -1.6740285e+00
 -1.3007307e+00
  4.9731433e-02
 -1.1427320e-02
 -1.6502898e-02
  6.8837273e-01
  1.7669132e-01
  2.8900272e-01
 -2.5992224e-01
 -3.0477008e-01
  1.3908300e+00
 -1.8251388e-01
  1.2121019e-01
 -1.7512092e-02
  2.3740804e-01
 -3.7840558e-03
 -5.3369338e-03
 -8.6544650e-03
 -2.8055352e-01
 -5.0396070e-02
 -1.9781882e-02
  1.6640376e-01
  5.0024772e-01
  1.7975628e-01
 -8.5132368e-02
  5.4822677e-01
  1.7761536e-02
 -3.4277555e-01
 -1.6863354e-01
  5.2591622e-01
  7.4226767e-02
 -2.0485738e-02
  8.4215395e-02
  2.1998918e-01
  1.2701821e-01
  6.8683758e-02
  1.3075002e-02
 -1.2434170e-01
  1.0122758e-03
  7.8231424e-02
 -4.5857406e-01
 -1.9326274e-01
 -1.3751426e-01
 -3.4336910e-02
  2.0914124e-02
 -1.8186588e-02
  1.9233716e-01
 -9.6998448e-03
  8.0745980e-02
  6.1014432e-02
 -5.7577509e-01
 -1.0384621e-01
 -1.0653723e+00
  4.4378294e-03
 -3.7388772e-01
  4.2598927e-01
 -9.2202604e-02
  1.1753614e-02
 -2.1988140e-02
  1.7285730e-01
 -2.5994068e-01
 -3.4834806e-02
 -1.8859735e-01
 -2.7188912e-01
 -3.2275063e-01
 -2.4407883e-01
  8.5724711e-02
  3.0585978e-02
  7.7795409e-02
 -4.4866600e-03
  3.7799174e-01
 -8.6992877e-03
 -1.2373509e-01
 -2.8357938e-01
 -1.2251524e-02
 -9.0091932e-01
  6.5337867e-03
 -8.7441737e-03
  1.1178615e+00
 -2.3027256e-03
 -8.0975133e-01
  6.8080246e-01
  4.2508194e-01
 -7.4052215e-01
 -3.5413385e-03
 -3.9474376e-02
 -2.0580746e-02
  1.8409849e-03
  7.3011704e-03
 -2.3575982e-02
  8.1948929e-02
  2.0196205e-02
  1.7682252e-02
 -8.1473878e-03
 -2.1306587e-02
  3.5780726e-03
  1.5290089e-02
  4.5740213e-03
 -2.3265958e-02
  8.9245662e-03
  1.0665676e-02
 -7.9960749e-03
  1.4176365e-02
 -6.4219460e-03
  4.8598766e-01
 -1.4603943e-02
  8.6642092e-04
 -4.0059928e-02
 -1.5199910e-02
  1.0891040e-01
 -1.1150653e-02
  3.9725611e-03
 -2.1045960e-03
  5.0849635e-03
  4.4178749e-03
  9.3512367e-03
  6.9649098e-04
  1.7030550e-02
 -1.4124800e-01
 -3.8965575e-02
 -1.6821111e-03
 -3.3298018e-03
  4.0128101e-02
  8.0743441e-03
  4.7076456e-02
  3.9590825e-03
 -2.0295249e-03
  1.9238647e-02
  1.6827559e-02
 -4.3022144e-01
 -5.1358366e-01
 -4.5844442e-01
 -7.4326295e-01
  5.5230826e-01
  4.4218445e-01
 -1.6827245e-01
 -9.3697780e-01
 -9.7275183e-02
 -1.6720087e-03
 -7.2144868e-04
  3.7615472e-03
  1.0250106e-02
  8.1742488e-02
 -1.7145386e-02
  1.9994948e-02
 -3.0326024e-02
 -9.2713609e-03
 -1.8017209e-01
 -1.9455614e-03
  6.1109629e-02
 -8.7219698e-04
  7.3116464e-03
 -3.3157559e-03
 -5.7826443e-03
  1.7703599e-03
 -3.8079407e-02
  1.0223372e-02
 -2.9242478e-02
  5.8632497e-02
 -5.5604102e-03
 -1.7333785e-01
  7.9780854e-03
  4.0077031e-02
 -2.1248598e-02
  4.1647986e-02
  9.0284340e-02
  1.1244584e-02
  9.6042991e-02
 -2.2215970e-01
 -9.8156005e-02
  1.3924256e-02
  6.2885387e-03
 -2.2250690e-02
 -1.1937885e-03
 -3.6900733e-03
 -4.7044428e-03
  1.6838802e-02
  2.3767598e-02
  9.8601673e-03
 -3.9938185e-03
 -9.5148105e-03
 -8.6637018e-03
 -2.7368732e-02
  4.2282175e-03
  2.3857571e-02
 -5.0302166e-03
  9.1341764e-02
 -3.5991371e-02
 -1.1535047e-02
  3.2052503e-03
  2.4617931e-03
  1.2864210e-03
  2.3824990e-02
  1.7826455e-02
 -1.0116830e-02
  2.5055313e-03
 -2.8503606e-02
 -4.4934652e-03
  3.9427541e-05
 -1.6698870e-04
 -1.4526924e-02
 -1.2929784e-02
 -2.0721009e+00
 -7.3392503e-03
  4.5892233e-03
 -9.1522466e-03
 -1.8839061e-02
  2.0130156e-02
 -4.9287099e-03
 -4.4411581e-02
 -1.6090138e-02
 -1.3761698e-02
 -7.1926462e-03
 -1.1907363e-02
 -9.6271038e-03
  1.4323307e-02
  7.5227125e-03
  8.0093406e-03
  4.9639195e-03
 -2.4602737e-03
  1.6419829e-03
  4.6841238e-02
  4.8165326e-04
  2.1904888e-02
  1.1588749e-02
 -6.8189953e-03
 -4.8894290e-02
 -2.7114016e-03
 -7.8293085e-03
  1.2542017e-02
 -3.8798042e-03
  1.3341349e-02
  2.3431789e-02
 -9.4534028e-03
  1.6485218e-02
 -1.1335525e-02
 -3.5699949e-02
  8.0557160e-02
 -1.8787058e-04
 -1.1295768e-02
  1.1059549e-02
 -6.5379329e-03
 -4.4316813e-02
  1.6760051e-03
 -1.1402121e-02
 -1.6978579e-02
  1.6205644e-02
 -1.0242535e-02
 -5.5694707e-02
  1.8625094e-03
 -1.3786543e-03
 -2.6216265e-04
 -2.9822120e-02
 -8.8249771e-03
 -7.4697998e-03
 -2.1862682e-02
 -2.1556269e-02
  5.8627697e-03
  8.1671597e-03
  2.1979185e-02
  8.2533555e-03
  5.6740851e-04
  1.7851703e-02
  3.1038297e-03
 -3.2983534e-03
  4.4083507e-03
  1.6362396e-03
 -4.7637895e-04
  5.5066692e-03
 -1.7486935e-02
 -1.6268291e-02
 -3.7356000e-02
  3.2139346e-03
 -5.9378240e-03
 -1.0056302e-02
  1.7135214e-02
 -5.8735162e-03
 -1.9404776e-02
  1.0981597e-03
 -3.6179658e-02
  6.5171398e-02
 -2.1374460e-02
  7.0214397e-03
  1.0332081e-03
  1.2735836e-05
  3.4780281e-03
  1.5257518e-01
 -7.4277455e-03
  7.6654390e-03
 -7.4101742e-03
 -1.6882552e-02
 -4.4030491e-03
  1.7497328e-01
  1.2889117e-02
 -4.4390918e-03
  1.2125745e-02
 -1.9675573e-02
 -7.0934007e-03
 -3.1866333e-03
 -6.9413587e-02
  2.1221343e-02
 -2.4455290e-02
 -2.8963420e-03
 -4.0136270e-02
  3.9330292e-02
 -6.8002036e-03
  3.0865797e-03
 -1.2733624e-04
  2.4956144e-02
  4.3610301e-02
 -3.1352441e-03
 -1.5796576e-02
 -6.8182079e-04
  7.6605985e-04
  1.9275529e-02
 -2.4328536e-01
  4.5993369e-02
 -3.3715703e-03
  3.9644163e-02
  2.2048792e-03
 -1.0690471e-03
  1.7921325e-02
  1.2503701e-02
 -1.0713046e-02
  3.6059194e-03
  2.0171717e-02
 -4.0469866e-02
  2.0600569e-02
  8.5779019e-03
  1.0782036e-02
  5.6420472e-03
  1.4784458e-02
 -3.7815352e-04
 -4.8342063e-03
 -2.0692572e-02
 -1.1683684e-03
  6.5333247e-02
 -1.0428995e-02
 -1.7973337e-02
 -2.3517702e-02
 -1.6065948e-02
  1.4405935e-01
 -2.9881559e-03
 -2.2167103e-01
  3.2881568e-03
 -7.3834099e-02
 -1.5833179e-02
 -7.6052411e-03
  5.7367340e-02
  4.5219227e-03
 -4.0844263e-04
  2.1888398e-02
 -1.0406525e-02
 -3.6422908e-02
  4.7340281e-03
 -2.5345185e-03
  4.3633403e-03
 -9.2316531e-03
 -1.0446527e-02
 -1.9593248e-02
  4.6980274e-03
 -5.5784970e-03
 -6.4692218e-03
 -2.5905883e-03
 -2.2526132e-02
  2.5656857e-03
 -7.2496836e-03
 -1.4120834e-02
  3.0247893e-02
  2.6100543e-03
  1.7043320e-02
  3.4849374e-03
 -1.3351755e-02
 -1.4415190e-02
 -6.9997250e-03
 -1.6219819e-02
  6.0455846e-03
  1.6720206e-02
  7.6422188e-03
  1.3637384e-02
 -3.0950591e-01
  1.4235743e-02
  3.6463562e-02
 -2.3652844e-03
  1.0189065e-03
  2.7929218e-03
  2.8724119e-02
 -4.8146141e-03
  3.5206839e-02
 -2.1629477e-02
  8.6868992e-03
 -6.9143006e-04
  7.5873826e-03
 -2.4413630e-02
 -5.2656950e-03
 -2.1525295e-02
 -4.4394005e-02
 -2.5260217e-02
 -3.5907719e-03
 -7.1454987e-02
 -1.0321997e-01
  4.9162093e-01
 -3.9762732e-02
  1.3192534e-02
  5.1248349e-02
  5.7217903e-02
  4.8449496e-03
 -8.5736521e-02
 -1.4634956e-02
  5.4382859e-03
 -1.4815235e-01
 -2.1310407e-01
 -2.5038782e-01
  3.6372144e-02
 -6.9680452e-02
 -2.9353541e-03
  2.0757699e-03
 -2.7389107e-02
  2.4295682e-01
 -4.0797457e-02
 -2.6891685e-01
  5.9905779e-03
 -6.3022971e-02
  5.8271172e-03
 -9.2547491e-02
  6.3322335e-01
 -1.2333634e-01
 -5.2342089e-03
  1.7479581e-01
  1.0869969e-01
  5.9042301e-02
 -3.7139303e-03
 -3.6594454e-02
 -8.1866801e-02
  6.6921830e-02
 -2.2748409e-01
 -4.1969039e-02
 -2.2440188e-01
  1.5128890e-02
  3.4387237e-03
  7.1047805e-02
  7.3247477e-02
 -1.5230899e-02
  8.1709502e-03
 -7.8604035e-02
  3.7343111e-02
 -2.1034965e-02
  5.3073578e-03
 -9.6231915e-02
  3.2729525e-02
  5.1181585e-02
  2.2286065e-01
 -1.4065679e-02
 -3.2808930e-02
  3.7935618e-02
  1.2304217e-02
  6.7660578e-02
  3.1410158e-04
 -1.7888016e-03
 -8.0143422e-04
 -2.9574219e-02
 -3.6501314e-03
 -3.5152048e-01
 -2.3885600e-02
 -6.8934932e-02
  5.0921631e-03
 -5.3131629e-02
 -3.6020600e-03
  2.8250876e-03
 -9.4477776e-03
  1.8159222e-02
  3.5466928e-02
 -1.0136001e-02
  6.5946764e-01
 -1.4251327e-02
 -1.0790385e-02
  1.6071552e-02
  4.5015179e-03
 -3.3137746e-02
 -1.4086715e-02
 -4.0428169e-02
  1.8908853e-02
  1.8952752e-02
 -1.2940266e-02
  1.3187228e-02
 -4.0918454e-03
  1.2947896e-02
 -5.0084144e-03
  3.0134753e-03
 -1.3346724e-02
 -1.3921447e-03
  2.3095869e-02
 -2.5745332e-02
 -1.0072593e-01
  1.1099914e-02
 -1.2569914e-03
 -1.9430459e-02
  1.2106044e-02
 -1.6803188e-02
 -2.9035645e-02
 -2.1187388e-03
  2.6482765e-02
  3.4238432e-02
  2.7322283e-02
 -3.0021090e-03
  1.3610702e-02
  9.3880370e-03
  1.8162198e-01
  1.1456930e-02
 -2.1980783e-02
  5.0740112e-03
  1.1211310e-01
  1.0073507e-01
  2.9081831e-02
 -4.2007336e-01
 -8.0565952e-02
 -8.0442447e-03
  4.8826649e-03
  3.3620842e-02
  7.8337761e-03
 -1.9245971e-02
  2.0584720e-03
 -4.5847706e-04
  5.3499951e-03
 -1.0550705e-02
  3.2608761e-03
  2.1384429e-02
  7.6789618e-04
 -1.8222407e-02
 -5.5033574e-03
 -2.2630269e-02
 -7.8868447e-04
 -8.7147513e-03
  4.6106890e-02
  8.8782771e-04
  1.6279202e-02
 -4.0644307e-02
  7.8754202e-03
  9.4098505e-05
 -2.6438162e-01
  5.2177999e-03
  1.8382967e-01
  3.7537189e-04
  5.7524025e-02
  9.3593784e-03
 -7.5885281e-03
 -4.2045098e-03
 -3.9173111e-02
 -5.7227546e-03
 -1.8974492e-02
  1.8083621e-02
  4.2159922e-02
  6.6681705e-02
 -2.8176742e-02
  3.1256545e-02
 -2.0725435e-02
  1.2271307e-02
 -2.5584612e-02
 -2.9287029e-02
 -1.6019443e-02
 -3.9121783e-03
  6.8622872e-02
 -1.6441424e-01
  4.8055768e-01
 -5.3518910e-02
  8.0841677e-03
 -4.0310231e-01
  7.2912619e-02
  1.6209838e-01
  6.9708124e-02
  1.3306425e-02
  1.6614310e-02
 -3.5105553e-01
 -1.5817249e-01
 -7.9612590e-02
  1.6034445e-02
  1.1948615e-02
  6.0766857e-02
  2.7149722e-03
 -4.0407542e-02
  5.0369659e-03
 -8.7083708e-03
  8.9621104e-02
  1.2671786e-02
 -2.4710560e-02
  5.7440836e-02
 -8.1040626e-03
  2.3480155e-02
  1.3684314e-01
 -1.6290462e-01
  2.9725000e-02
  6.2891231e-03
  4.8478141e-01
  1.5610929e-02
  6.3920788e-02
 -2.5215808e-02
 -3.7957607e-03
 -4.6509993e-03
 -3.5355724e-02
 -9.3291991e-04
  7.9066135e-02
  5.0608542e-02
  1.8912108e-01
  5.9899364e-02
 -1.2506166e-01
  4.8577629e-02
  9.4839148e-03
  2.1717137e-02
 -1.9046433e-02
  3.2656998e-03
  7.6551642e-04
  1.3516456e-03
  1.6456069e-03
  1.0596139e-01
  4.6552857e-04
 -2.6252244e+00
  6.0160756e-01
 -2.2701207e-01
  3.4244400e-01
  1.2670866e+00
  2.3788525e-01
  6.2233537e-02
 -1.6434462e+00
  1.7457421e+00
  5.8592319e-02
  2.7203665e-03
  8.8177919e-01
  5.9908833e-02
  4.3134000e-03
 -1.0395767e-02
  1.1177259e-03
 -1.1966439e+00
 -7.4208668e-03
  7.4196345e-01
  1.3451515e+00
 -7.1605289e-01
  5.8335084e-01
 -2.2029866e-01
  1.6112976e-01
  8.5494868e-02
  9.6467835e-01
  3.0750940e-02
  3.3645876e-02
  7.6571387e-01
  5.7914901e-01
 -3.9082932e-01
 -1.6707680e-01
 -1.1171170e-01
  3.7878922e-01
 -1.6074747e+00
 -5.5256825e-02
 -9.3819038e-04
 -2.2471417e-03
  2.2917199e+00
  8.4962523e-01
  1.7365950e-01
  2.5922194e-02
 -1.0841774e+00
  1.4331852e+00
  6.7425393e-03
  1.7315015e-02
 -1.5389017e-02
  8.9555450e-02
 -2.8372877e-03
 -6.6654528e-03
  1.0190932e-02
 -3.4677563e-03
  3.1523551e-03
 -1.9973367e-02
  2.0047951e-02
  3.2717530e-02
 -1.3786614e-03
  2.6168490e-02
 -1.5713537e-02
  5.1561254e-03
 -2.5253769e-02
 -3.6106497e-02
  1.0306602e-02
  3.9040312e-02
 -1.7504301e-02
  4.0922114e-03
 -5.8958814e-03
  1.6673736e-02
  1.6713517e-02
  2.4363013e-02
 -8.6243590e-03
 -4.4902922e-03
 -1.6509887e-02
 -3.3616978e-03
  5.3453792e-02
 -1.5990026e-02
 -9.4097182e-03
  3.4232936e-03
  1.2077823e-02
 -2.6864722e-02
 -1.6144060e-02
  1.5008388e-01
  4.6664115e-02
  1.3401734e-02
  3.7073046e-03
  2.2146992e-02
 -1.1859369e-02
  4.6939394e-03
 -4.8675915e-04
 -2.6615061e-02
  3.4169875e-02
 -5.2364543e-03
 -5.2758339e-03
 -7.4479803e-03
  2.9878342e-03
  1.9921446e-02
 -8.2857348e-03
  2.1738675e-03
  2.0835252e-02
  1.6325200e-02
  2.7042059e-02
  1.4920855e-02
 -4.1185240e-03
  6.4399873e-04
 -6.0872389e-03
 -1.9029230e-02
  1.4930068e-02
 -1.6422769e-02
  1.2379479e-01
 -1.7137311e-02
 -1.1011747e-01
  2.8829926e-01
 -3.1753834e-03
  2.5464503e-02
 -1.3169711e-02
 -6.8542254e-03
  4.3471092e-03
  8.8577442e-02
  8.5146446e-04
  1.9054003e-02
  4.0684827e-04
  6.3074175e-03
 -2.2485318e-02
  8.8258805e-03
 -5.8069568e-02
 -7.0864353e-03
 -4.0374342e-03
 -2.2301110e-02
  5.9296442e-03
  7.1782442e-03
  1.8498026e-02
  3.5884576e-03
 -2.4246005e-03
  2.6188034e-03
 -2.4366453e-03
 -4.6794484e-03
 -3.7823785e-02
  2.4179739e-03
 -6.2485971e-03
  1.4453107e-02
  2.3627486e-03
  3.3352874e-02
  4.3325808e-02
 -3.8756527e-02
 -8.3376832e-02
  7.3555801e-03
 -5.0762981e-02
 -5.3595398e-03
 -3.0336833e-02
  1.2377884e-01
 -9.9604642e-03
 -1.6218359e-02
  2.0593371e-02
  2.6653800e-03
 -1.7700177e-02
 -6.0998918e-03
 -2.5882665e-04
 -3.4025507e-03
  5.2508898e-03
  8.2721002e-05
  8.8987462e-03
  2.7885754e-02
 -1.1206448e+00
  8.1121939e-01
 -4.8190605e-02
  1.2596470e+00
 -9.5674217e-01
 -1.2828952e+00
  6.3136578e-02
 -1.6504092e+00
  3.0198681e+00
  1.6696276e-02
  1.6413718e-01
  8.6470377e-03
  2.0627154e-04
  2.4764348e-02
  1.7977852e-02
  2.4498915e-02
 -2.1537706e-01
 -1.3328925e-02
 -4.0345761e-01
 -8.6549416e-02
 -9.8597020e-01
  8.3631486e-01
  1.6759906e-02
  1.9929637e-03
 -1.8279426e-01
  1.1113821e+00
 -5.4668552e-01
 -4.4758413e-02
 -7.3228672e-02
  5.5290449e-01
  1.5740279e-02
  5.8688390e-01
  7.4288324e-02
  1.6163956e-01
 -1.1782037e+00
 -1.7215820e-02
  7.0534065e-02
  5.7490282e-03
 -2.1896081e+00
  3.1089054e-02
  4.1552447e-03
  2.3495387e-03
  1.8832395e-02
 -8.9511520e-01
 -7.1952632e-03
 -1.9441035e-02
 -1.9050734e-03
 -6.0632531e-02
 -5.7746805e-03
  6.1937843e-02
  1.4077039e-03
  4.7901934e-03
 -3.2289540e-03
  3.4404988e-04
 -1.4995565e-01
  5.3365386e-01
  1.0635798e-01
  6.2160915e-01
  5.3435606e-01
  2.1201081e+00
  3.5811967e-01
  7.1321470e-01
 -1.3189907e-01
 -2.3716928e-01
  1.0363096e+00
 -4.7587705e-01
  5.4815942e-01
 -8.8846284e-01
  1.8305851e+00
  2.1539362e-01
 -2.1629705e+00
 -3.1305753e-02
 -1.5335046e-01
  1.5220697e+00
 -3.8336068e-01
 -1.0539954e+00
  1.1944654e+00
 -1.2045853e-01
 -9.3095303e-01
 -9.0709507e-01
 -1.1819118e-01
  3.3838516e-01
  7.3647583e-01
 -2.3727616e-02
 -2.2978880e+00
 -6.6941231e-01
  1.2922002e-01
  8.7522310e-01
  5.5391878e-01
  6.8301845e-01
 -7.1188563e-01
 -1.1028841e+00
 -3.8218346e-01
 -6.6124576e-01
  1.3075652e+00
  9.7076166e-03
 -2.0541286e-01
 -2.0793931e+00
  2.4446766e+00
 -5.4829633e-01
  2.7628854e-02
 -1.4895828e+00
  1.5097442e+00
 -3.6183310e-01
  7.8244829e-01
  5.8043342e+00
  9.0963733e-01
  2.9748665e-02
  4.2297967e-02
  8.0677588e-03
 -1.4119597e-01
 -2.4190880e-03
 -1.8922525e-02
 -3.3545379e-02
 -1.0047829e-02
  2.5470719e-01
  1.9045563e-01
  2.8552407e-02
  1.1960849e-03
 -4.2400728e-03
  1.1349869e-02
 -3.0311099e-03
 -2.0207210e-01
  1.4217685e-02
 -6.4681908e-03
  1.6369666e-03
 -1.3948587e-02
 -2.9447379e-03
 -1.0296914e-01
 -3.4525781e-04
  2.9860342e-02
  1.7039115e-02
  2.8325094e-02
  2.4025237e-02
 -8.6763194e-03
  8.1663746e-03
  1.5804028e-02
 -4.2786868e-03
 -3.8545749e-03
 -1.4703561e-01
  1.1121428e-02
  3.8409553e-02
  1.5260659e-02
 -4.3307901e-03
 -1.3698079e-02
 -5.5104760e-03
 -8.1318039e-03
 -8.1532886e-03
 -1.1149851e-01
 -4.6603121e-03
  2.9426489e-03
 -3.2753661e-02
 -1.7191691e-02
  1.0280455e-02
 -3.3006563e-03
  1.6244859e-02
 -3.3283290e-02
  5.1353984e-03
  2.2244558e-03
 -1.7289598e-03
  7.3438045e-05
  2.8754875e-02
 -2.6465595e-01
  1.0495007e-02
  1.0970588e-02
  2.6221165e-02
 -1.9509600e-01
  1.6290788e-03
  2.6345056e-02
  2.0064525e-02
 -5.5515754e-01
  2.0529197e-03
  9.7997710e-03
  4.7478308e-03
  5.9755459e-02
  6.9050901e-03
  1.1221596e-02
  2.6427630e-02
 -5.3828368e-03
 -6.6053071e-03
  2.8311517e-02
  4.7602259e-02
  1.3620634e-02
 -1.2659788e-02
  6.0222507e-04
 -3.4235951e-01
 -1.8071026e-02
  5.9983503e-02
 -4.1216111e-04
 -2.7646556e-02
  7.4796313e-03
  2.4471910e-01
 -6.0971575e-03
  3.6249321e-04
 -5.0090756e-03
  5.1283617e-02
  5.2807158e-01
 -1.2390913e-02
 -5.1607336e-03
 -1.3227920e-02
  2.4306500e-02
 -1.2166964e-01
 -2.6335344e-02
  2.6030140e-03
 -1.7798278e-02
 -3.8284732e-03
 -1.7907128e-02
 -5.0027948e-03
 -1.6286004e-02
 -1.7560877e-02
  3.4485221e-02
  1.9643232e-02
  9.1605894e-03
  1.6252056e-02
 -1.3343956e-02
 -1.6854279e-02
  1.2696644e-03
  7.5731003e-01
 -8.7641692e-01
 -1.1900429e+00
  2.2478321e-01
  1.0005495e-01
 -4.1291842e-01
  2.7635083e-01
  1.1565589e+00
  9.2019016e-01
 -2.8749542e-02
  8.7702489e-01
  1.2642489e-01
  3.3541951e-01
  2.6121305e-02
 -1.3960662e-01
 -5.9677166e-01
  2.4756681e-02
 -2.7459639e-01
 -9.1567332e-01
 -8.4912664e-01
 -1.8621618e-01
  2.6113403e-01
 -8.3610281e-02
 -1.8298614e-01
  6.7284897e-02
 -2.9579578e-02
 -1.2543809e-01
 -1.5714514e-01
  1.5601514e-01
 -1.8174091e-01
 -1.4117092e-01
 -3.3463296e-02
  2.7647120e-01
  2.0021324e-01
 -5.5530143e-01
  2.4089372e-01
 -2.5090924e-04
 -1.0862195e-01
 -5.2351695e-01
 -1.6738597e-01
 -5.4326898e-01
 -4.1364673e-01
 -1.8091592e-01
 -6.9465381e-01
  1.7460708e-01
 -5.3071361e-02
  2.2333071e-02
  3.4844619e-03
  3.8804509e-02
 -1.7579556e-02
 -1.7971016e-01
 -4.6201310e-01
 -8.9297146e-03
  1.6290419e+00
 -1.5582049e-02
  1.0035463e-02
  2.6377866e-02
  4.2446144e-03
  3.1010243e-03
  2.5435183e-03
  4.7638137e-03
 -2.2427235e-02
  3.0016731e-03
 -8.1218317e-02
 -2.8854012e-02
 -9.6585425e-03
  6.1329953e-02
 -1.4569887e-02
  1.2876647e-02
  1.0102751e-02
 -2.2775844e-02
 -7.3557370e-03
  1.7304972e-02
 -1.0199068e-03
  1.2772710e-02
 -1.4470359e-03
 -4.1404817e-02
 -2.5893817e-02
 -7.6068328e-03
 -1.8733507e-02
 -4.8054745e-03
 -9.6769864e-03
  2.4028195e-02
 -6.3163666e-03
  2.2872943e-02
 -2.1852385e-02
 -5.0768744e-02
  4.4379635e-03
 -1.5210461e-02
  1.9212624e-02
  8.1202574e-03
 -9.9261003e-03
  2.1683613e-02
  5.6298161e-03
  5.5601048e-01
 -1.3984823e-02
  1.5913989e-02
  7.0025846e-03
 -1.7594589e-02
  5.0194544e-01
  2.3356611e-03
  2.8262869e-02
  6.6087432e-03
  1.2158206e-02
  2.5135137e-02
  1.6940437e-02
  3.7100859e-02
  2.0999271e-02
 -7.4793729e-03
 -4.2469472e-02
  8.8356584e-03
  2.4213903e-03
  1.5904479e-02
  2.1537608e-02
 -4.7779460e-03
  4.5133415e-01
  3.5752533e-03
  1.9234100e-02
  5.9826095e-02
  4.4896808e-03
 -4.5697473e-02
  1.7642837e-02
 -2.2671184e-02
  2.1045439e-02
  2.4210788e-02
 -1.5868966e-02
 -3.3805780e-02
 -7.1448945e-03
  1.8791230e-03
 -1.8851792e-02
  8.3460789e-03
  2.9082862e-03
 -9.7341761e-03
 -7.4267760e-04
  3.1609755e-02
  7.9819011e-03
 -4.4990797e-04
 -7.3715369e-03
 -2.6328197e-02
  7.3998910e-03
  1.0385087e-02
  9.2276987e-03
  1.6401985e-03
 -4.6317652e-03
 -1.2727404e-02
  3.1879000e-02
 -3.0372787e-02
  9.1479821e-03
 -3.5832688e-02
 -2.3161052e-02
  8.7416377e-03
 -6.1586660e-01
  5.0968053e-03
 -1.7267551e-02
 -3.5307191e-02
 -5.6764903e-04
 -1.8953566e-02
 -1.7983606e-02
 -1.2311401e-02
 -1.0352206e+00
  2.8907133e-02
  6.1501354e-01
 -7.4630839e-01
 -3.1427318e-01
 -1.8038571e+00
 -4.0708965e-01
 -3.7089536e-01
 -4.6134782e-01
 -3.4691036e-01
 -2.3598540e+00
  5.7383166e-03
 -1.8577428e+00
  6.4751458e-01
 -1.4285868e-01
  4.7836083e-01
 -9.7391129e-01
  7.5491703e-01
 -6.0817146e-01
 -1.6841760e+00
  8.7879747e-02
 -3.6646838e+00
 -8.6861193e-01
  6.0180366e-01
  4.0299755e-01
  6.6156286e-01
 -9.9969047e-01
  2.4503846e+00
 -4.7619104e-01
 -1.7380435e+00
  1.1515421e+00
 -1.5741965e+00
 -7.0874239e-03
 -4.6771950e-01
 -2.6379159e-01
  1.1801070e-01
 -7.5984591e-01
 -3.4550971e-01
 -1.2247141e-01
  4.6864444e-01
  5.7921093e-02
 -7.5894898e-01
 -9.5439646e-03
 -3.6226991e-01
 -3.2678797e+00
 -8.6137146e-01
 -7.4381942e-01
 -6.6412939e-03
  6.7455480e-03
  8.3775324e-01
 -7.1253544e-03
 -3.1614858e-03
  1.1340716e-02
 -8.3150142e-01
 -2.9397672e-01
  3.0164775e-02
  1.9323882e-02
  2.3930103e-02
 -1.2286848e-02
  8.3744787e-03
  1.5468626e-02
  1.7001215e-02
  8.7123867e-03
 -5.0116321e-03
 -8.0808051e-02
 -3.4505114e-02
  2.1537328e-02
 -1.2612781e-02
 -4.6793772e-03
  9.1054402e-03
  4.2020801e-02
  7.9860864e-03
 -9.0684853e-03
 -1.2403301e-02
 -9.2096804e-03
 -7.6745450e-03
 -5.8234623e-03
  1.4085460e-02
  3.9316686e-03
 -4.1265734e-02
 -2.4623643e-03
  2.1961981e-01
  1.9091954e-02
  1.8285702e-03
  5.0876606e-03
  2.9372122e-02
  5.7859272e-03
  6.1434470e-03
 -4.7893845e-05
  3.2813123e-03
  7.0848018e-03
  1.1723414e-02
  2.4214838e-02
  1.2570962e-03
  1.0778437e-01
  1.7191794e-02
 -2.3641977e-02
  3.3987490e-03
  1.1159771e-03
  5.8952060e-02
  6.5245032e-03
  4.9912212e-03
 -9.3647093e-03
  3.1996872e-03
 -1.8847318e-02
 -2.8535943e-03
  1.5454352e-02
 -1.3389767e-02
  3.1107510e-02
  2.5581397e-02
 -4.6679992e-02
 -2.1477824e-02
  7.2143376e-02
 -1.6594608e-01
 -1.7162917e-02
 -6.9292910e-02
 -2.6129268e-02
 -6.1238915e-01
 -5.6088850e-02
  4.3248534e-03
  1.6777125e-01
  6.6042519e-03
  4.6299351e-03
 -2.8966855e-02
 -8.4830597e-03
 -5.7597687e-03
  1.1321246e-02
 -3.8710944e-03
 -1.8271607e-01
 -5.1108645e-03
 -1.3352513e-01
 -2.0603772e-02
 -9.2764432e-03
  1.1894307e+00
 -1.5365671e-02
 -3.5520706e-02
 -1.6502908e-03
  1.1798678e-02
 -3.7259026e-03
 -5.7048801e-02
 -2.4102552e-02
 -2.6729897e-02
  2.7111001e-02
 -2.4594110e-03
 -1.3493212e-01
  2.1578146e-02
  6.6843824e-03
  2.1344835e-03
 -2.5625548e-03
 -8.9922668e-03
 -1.2318166e-02
 -2.7871549e-03
 -4.2751685e-02
 -4.9194697e-02
 -4.9716886e-04
  4.1910363e-03
 -3.0576656e-02
 -1.6582919e-02
 -4.6536135e-03
 -1.9839190e-02
  2.8914569e-02
  7.5465575e-02
  4.5627523e-03
  1.6945891e-02
 -6.5294532e-03
  3.2520015e-03
 -4.2606667e-01
 -1.4221198e-03
  1.6773559e-02
 -6.0378835e-03
  6.5241619e-03
  1.1071803e-02
  7.5502913e-03
 -3.9005999e-02
  2.3526283e-02
 -2.0221200e-02
  9.8409643e-03
  1.1645840e-02
  7.2847498e-03
 -7.9074912e-03
  1.5543670e-02
 -5.2486984e-03
  2.0258009e-02
  8.0097951e-03
 -2.6384322e-02
 -2.1778313e-02
 -5.8454443e-03
  5.1966604e-02
  1.3708725e-02
  1.5619754e-02
  5.6425547e-03
  1.8125502e-03
  4.0187661e-02
 -1.9837599e-02
 -6.0930215e-02
 -1.6340381e-02
  1.1485968e-02
 -2.0813923e-02
  1.1710402e-01
 -3.4825865e-02
  2.0715330e-02
 -2.0783158e-02
  2.2569099e-03
  9.2328445e-04
  1.0719583e-02
 -6.4107087e-03
  9.2839487e-03
 -2.4019072e-02
 -1.1136647e-02
  7.6697790e-04
 -2.2702329e-03
  1.9483495e-04
 -9.8420996e-03
 -1.5986707e-02
  3.1643105e-03
  1.4139157e-02
  4.2097541e-03
  1.6450653e-02
  4.3064439e-01
 -6.7287326e-01
 -7.2076690e-01
 -1.3197883e+00
 -8.0634058e-01
  8.9604676e-01
  1.5959668e+00
  1.4849277e-01
 -5.5518657e-01
  1.4652827e-02
 -1.1835057e+00
 -3.1725758e-01
 -4.8142076e-01
  2.9853261e-01
  2.6420382e-01
 -1.4100131e+00
  9.6053487e-01
  3.7654912e-01
 -2.0553873e-01
 -7.1257132e-01
 -1.1935272e+00
  5.3821862e-02
  7.4761939e-01
  1.3847261e-02
  1.5520579e-02
  3.7337220e-01
 -2.7539486e-01
  4.3245313e-01
  6.3204668e-03
  1.7710161e+00
  2.2029679e-01
 -4.2235315e-01
  1.9072390e-01
 -6.3454485e-01
 -2.5705404e+00
 -8.0187082e-02
 -2.1294935e+00
 -9.1400959e-02
  1.3287880e+00
  1.0997773e+00
  2.8144720e-01
 -7.0668703e-01
 -4.3357350e-03
 -3.9842026e+00
 -2.3361446e-01
  4.5481373e-02
 -2.9966472e-02
  1.1353958e+00
 -1.6923027e-02
  7.0847953e-03
 -5.1013824e-02
 -2.7734002e-01
 -1.2280308e-01
 -3.0441804e-02
  4.8763976e-02
  4.5495257e-03
  2.4583716e-02
  9.2258565e-03
 -6.1957306e-01
  5.6512468e-04
 -1.0587955e-02
 -2.6101176e-02
 -3.2225996e-04
 -2.2184853e-02
 -1.6251820e-03
 -5.4367678e-03
  1.9232221e-02
  5.6693377e-04
  1.2787865e-02
  6.7806272e-03
  8.0303196e-03
  1.5430299e-02
  3.3536635e-04
 -7.5417398e-03
  3.1904437e-02
 -9.1651629e-04
 -9.8816343e-03
  2.9318439e-02
 -7.2046667e-02
  8.0463095e-03
  2.3742458e-02
  5.7602660e-03
 -2.0032512e-02
 -6.5559149e-03
 -7.2186932e-02
 -1.0999022e-03
  1.0177284e-04
 -2.9065872e-03
 -9.3145687e-03
  1.1706566e-02
  1.6339612e+00
  1.9447640e-02
  2.4989382e-03
  3.3496015e-03
 -8.4346738e-03
 -9.8818149e-03
  1.1752479e-02
 -8.4633548e-03
 -1.2941768e-02
  9.3644792e-03
  9.4566811e-03
  5.6354459e-03
  2.8307250e-01
 -3.2490086e-02
  6.3460846e-03
 -6.0685251e-02
  7.6376945e-03
 -3.1332739e-02
  2.9458015e-03
 -5.8108997e-01
  9.1920510e-02
 -4.1459483e-01
  3.6138079e-01
  2.5845721e-01
 -3.5125735e-01
 -6.8338692e-01
  6.1129820e-02
 -6.2568563e-01
 -1.2189310e+00
 -6.9568038e-01
 -9.7357976e-01
  1.6064465e-01
 -6.4321026e-02
 -7.6496506e-01
  5.1184863e-01
 -3.5413882e-01
 -2.7180248e-01
 -9.8531240e-01
 -4.8770428e-01
  4.6596432e-01
  1.4513939e-03
  2.5402416e-02
  4.6367645e-01
  5.4849267e-02
  1.1755855e-02
  1.2450249e-01
  1.6871521e-01
 -9.0743199e-02
 -1.1097630e+00
  1.4496547e-02
 -3.1621292e-01
 -3.7912497e-01
  1.2011143e+00
  7.1127334e-04
 -2.0231076e-01
  6.4874545e-02
  1.4166892e-02
  6.8722939e-01
 -1.7725611e-01
  7.1514422e-01
 -4.3564659e-02
  8.1857222e-01
  6.1759204e-03
 -1.6901337e+00
 -9.1066109e-03
  1.1847289e-02
 -3.8840976e-03
  7.0930552e-03
 -4.9069249e-03
 -9.2691369e-02
 -8.8357426e-02
 -1.7950797e-02
  8.0974633e-04
  8.3544478e-03
 -4.0992592e-03
  8.9477738e-03
  2.4712710e-02
  1.1725785e-02
 -2.7222622e-02
 -1.5926020e-02
  4.4422094e-03
  8.1181852e-03
 -1.7103152e-03
 -2.7597401e-02
 -2.2914704e-02
 -1.0448217e-02
  3.4071229e-02
 -7.8259725e-03
  9.4298109e-02
 -3.0163590e-02
 -1.8320698e-02
  1.1461109e-02
 -4.9471813e-03
  1.6490543e-02
 -1.3684499e-02
  9.8490564e-04
 -1.9085379e-02
 -1.0718995e-02
 -1.9013284e-02
  2.5197960e-02
 -2.3444748e-02
 -1.0147875e-03
  1.5878074e-02
 -5.6166705e-03
  1.0702660e-02
 -2.0123024e-02
 -2.3439974e-03
 -3.0882191e-04
  8.3012553e-03
 -6.1598942e-03
 -6.9372170e-03
  3.3454668e-02
  1.2849823e-02
 -1.3608956e-02
 -1.1882251e-03
 -2.1985236e-03
 -6.4140051e-03
  5.3122826e-04
 -1.6829561e-02
 -1.8673072e-02
 -2.3109810e-03
  9.0192258e-03
 -1.0906126e-02
  1.7000504e-02
 -1.6056262e-02
 -8.6681321e-03
  7.1424901e-02
  3.4294699e-03
 -1.8809743e-01
  3.7280589e-02
  1.1412315e-03
  2.8295978e-03
 -1.6905822e-02
  3.2705642e-02
 -2.8353428e-02
 -4.7135768e-03
 -1.8537011e-02
 -2.6189152e-04
 -4.6064234e-03
 -5.1781931e-04
 -1.7534815e-02
  1.3016311e-02
  1.3657739e-02
  4.5926884e-02
 -1.2538458e-02
  8.7052248e-03
 -1.6119907e-02
  1.6784597e-02
 -1.5120427e-02
 -9.6102748e-03
 -5.8398601e-03
  1.8989535e-02
 -1.8497368e-02
  2.4380626e-02
  4.9126451e-03
 -8.5268073e-02
  1.2992727e-02
 -4.2204205e-03
 -1.9711144e-03
 -1.3664630e-02
  3.3389680e-02
 -2.2018416e-02
 -1.1744156e-02
 -6.0923598e-03
  7.6368965e-02
 -1.2140716e-02
  2.8149467e-03
  2.2125173e-02
 -1.5658874e-02
 -3.6979999e-02
 -9.8186228e-03
 -7.5873360e-04
 -6.1725709e-04
 -4.3849684e-03
  1.2588342e-02
  1.4792291e-02
 -2.8536320e-02
 -6.1190117e-02
  1.5988322e-02
  1.6087309e-02
  6.4646723e-03
 -1.2345223e-02
 -1.6743701e-02
 -1.8552264e-02
 -2.1141933e-02
 -1.3904225e-03
  5.4166801e-03
 -7.9990573e-02
 -4.7785550e-02
 -9.4645238e-04
  7.4252789e-03
  1.6650833e-02
 -4.7200499e-03
 -2.1344148e-02
  6.9428156e-03
 -9.3997549e-04
  8.2119182e-03
  3.0876473e-03
 -1.2916226e-02
 -1.4181104e-02
 -1.8549862e-03
  2.9522295e-03
 -2.5972410e-03
  3.0440500e-02
 -6.1931852e-02
  1.1039472e-03
 -2.1843433e-02
 -2.6735545e-03
 -3.9991280e-03
 -4.7283940e-02
  1.4974683e-02
  1.9614925e-03
  4.3236800e-02
  9.4856136e-03
  5.0761856e-02
 -6.8994910e-02
 -2.2307251e-02
 -5.0607040e-03
 -6.1868113e-03
  7.8079496e-03
  2.7017719e-03
  3.1301729e-02
  2.9541971e-04
  6.4666986e-02
  7.3705576e-02
 -3.3762283e-03
  1.8728599e-02
 -3.1178854e-03
  1.4467156e-02
  7.8107906e-03
 -6.2139582e-02
  1.5757384e-02
 -4.3587708e-03
 -2.7361089e-02
  2.5490800e-01
 -3.2832254e-02
 -7.4002929e-03
 -7.0068859e-03
  1.5357593e-02
  4.2704999e-02
 -2.4163146e-01
  9.4492491e-03
 -7.2002155e-04
  1.2951065e-04
  5.4246327e-03
  1.0116835e-02
  2.3794244e-01
  1.0098912e-02
  4.6729315e-03
 -3.5863385e-02
 -6.7612000e-02
  2.3717150e-02
  1.9678516e-02
  1.9576524e-03
 -4.0177430e-05
 -1.4258986e-03
 -1.6426677e-02
 -1.8602768e-02
  5.5457922e-03
 -5.5665448e-03
 -6.8141026e-03
 -2.9240448e-02
 -3.1887461e-03
 -3.0254532e-02
  3.2567447e-03
 -1.6151041e-02
  1.4602330e-02
 -1.3713513e-02
 -1.3120478e-01
  3.1924946e-04
  2.5320238e-02
 -2.0521451e-02
  8.4615843e-03
 -1.5452349e-02
  2.1037498e-02
  6.9996347e-03
  1.2837645e-02
  1.3172411e-02
  4.6420298e-03
  2.4888699e-04
 -3.0275114e-02
  9.3180244e-04
  1.5425374e-02
 -9.5467176e-03
  2.9048985e-03
 -5.3298930e-03
 -1.3048363e-02
  2.4832035e-03
  1.1185296e-02
  2.7239043e-02
  3.7332308e-01
  2.3300171e-01
  2.6889709e-01
  3.0190678e-02
 -1.1841569e-03
  1.5752221e-02
 -1.5913427e-01
 -5.1580135e-02
  2.7334828e-02
 -3.9910403e-01
 -4.3024372e-02
 -1.1194440e-01
 -2.2549885e-03
  3.1136826e-04
  2.1192689e-01
  7.4007278e-03
  1.6413231e-03
  7.7534854e-02
  7.7324957e-02
  7.7548288e-03
 -9.2107514e-03
  8.5804500e-03
  6.1338842e-01
 -9.9385185e-03
  1.2514515e-02
  4.9362309e-02
 -2.1881268e-03
  1.1214720e-01
 -5.0731819e-02
 -3.3871781e-02
  2.1880170e-02
  1.0541858e-02
 -1.9033830e-01
  5.4118885e-03
 -9.8853875e-03
  1.3919010e-02
 -3.0338034e-01
  1.2754921e-02
  3.5613552e-02
  7.8727794e-04
  5.0744530e-02
 -2.2617152e-03
 -3.3047101e-03
 -1.0634691e-01
 -1.5302643e-02
 -1.4424298e-02
  1.3783408e-02
 -7.0955269e-03
  4.3822038e-03
  1.1613614e-01
 -1.1050737e-02
 -8.3550289e-03
  1.5422861e-02
  2.6527164e-03
  1.0489736e-01
  4.6038467e-02
 -1.7918460e-02
 -3.4274484e-03
 -3.4757555e-02
 -2.3411636e-01
 -1.7844427e-02
 -4.0476210e-05
 -1.4823576e-02
 -3.2952234e-02
 -8.6360127e-03
 -3.9217193e-03
 -3.8455755e-03
  1.0213088e-03
  1.8253595e-02
  2.0794613e-02
  1.1170444e-02
  4.3954179e-03
 -1.9603582e-02
 -1.0288548e+00
 -8.1493966e-03
  1.6421443e-02
  1.2093829e-02
  2.5225040e-03
  5.6840535e-02
  4.6036523e-03
 -3.7836891e-02
  2.0026334e-01
  9.3373843e-03
  3.7970517e-02
 -9.4834557e-03
  1.4659418e-02
 -1.8000618e-01
  1.1912972e-02
  2.3846915e-02
 -6.8518654e-02
 -2.5825948e-02
  6.2967353e-03
  5.8775684e-03
 -2.9123807e-03
 -8.4127635e-02
 -6.7486335e-03
  7.0987023e-02
 -2.5537051e-02
  1.3288151e-02
  2.4935469e-02
 -1.0894403e-02
 -4.9260585e-04
  7.5596427e-03
  1.2458291e-02
  1.0123792e-02
  1.7057997e-03
 -1.3203827e-01
 -2.3030885e-01
 -1.7586111e-01
 -6.8842894e-01
 -6.1934316e-03
 -3.9222602e-02
  3.8532377e-03
  1.3624714e-01
  3.6931451e-02
  1.1904936e-02
  8.1236223e-03
 -2.1917217e-03
  2.8790015e-04
 -4.3402947e-03
  9.0405755e-03
  6.3243164e-03
  1.1144766e-01
 -5.4611126e-03
  1.4798072e-03
 -9.0946341e-03
 -6.4708553e-03
 -1.5485875e-02
  5.9006447e-03
 -1.0065123e-03
 -7.1968175e-02
 -2.6126970e-02
  1.2101789e-01
  2.3053266e-02
 -5.8572949e-03
  2.7414788e-03
 -2.7841421e-02
  1.0241306e-02
 -1.7489810e-03
  8.0676526e-03
  4.6606636e-01
 -1.1516369e-02
 -1.9154143e-02
 -2.1638710e-02
 -8.1653386e-02
 -6.2176336e-02
  6.8903655e-02
 -5.5871974e-04
 -2.9293592e-03
  4.2240298e-03
 -2.2509698e-02
 -5.1685441e-03
  6.4257495e-03
 -1.7822188e-01
 -1.2177944e-02
  2.8960731e-02
  5.6264076e-02
  4.4577472e-02
  2.1524496e-02
 -6.3556479e-03
 -1.1406974e-01
 -1.3069516e-01
 -2.0998554e-02
  1.5537362e-01
  8.7396484e-03
  1.6951427e-01
  1.4322858e+00
 -3.0787534e-01
 -2.9080310e-01
  6.1673122e-03
 -1.0679149e-01
 -1.3091454e-01
 -3.5007815e+00
  1.5248894e-02
 -3.2140967e-03
 -4.5357555e-02
 -2.4249084e-02
 -1.4027692e-02
 -6.0246233e-03
 -1.7352011e-02
 -3.5103951e-03
 -8.7959357e-03
  1.1600894e-03
  1.5594562e-02
  6.4398840e-02
 -1.9013651e-02
  8.6135365e-02
 -6.3416818e-03
 -2.5257643e-02
 -1.9723494e-01
  5.4057670e-04
 -9.5725998e-02
 -8.8695632e-03
  1.5848733e+00
 -6.9749273e-02
  1.9212974e-02
  8.5569388e-01
 -1.4656162e-02
 -3.6606938e-02
 -6.3316990e-04
  9.6198898e-03
 -5.1612914e-02
  1.7099379e-02
 -2.1828765e-02
  1.2385491e-02
 -1.7700219e-01
  6.7916098e-03
  4.0750429e-03
  3.0821639e-03
 -2.1102082e-02
 -1.0676442e-02
  1.4239809e-02
  9.0374704e-04
  3.3411914e-03
  8.4444094e-01
 -1.0836227e+00
 -4.1091448e-01
 -7.4717325e-01
 -2.1174392e-01
  7.4950790e-01
  1.7668355e+00
  1.2641137e+00
 -1.2366363e+00
 -2.3511152e-01
  3.1695211e-01
  3.6462000e-01
 -7.2002649e-01
  3.1947091e-01
  6.2634224e-01
 -1.1156517e+00
  5.7358700e-01
  4.0714964e-01
  2.1565007e-01
 -4.7190163e-01
 -4.5998614e-02
  1.6220226e+00
  4.3549716e-01
  3.9757636e-01
  1.3983711e+00
  6.4036018e-01
  1.1804667e-03
  6.4148404e-02
 -9.7092288e-03
  5.7511359e-01
  4.9742661e-02
  1.6746948e+00
  2.2179264e-01
  1.5982077e+00
 -2.5543785e+00
  4.3076005e-02
 -3.8246126e-03
 -5.8735663e-01
 -2.0482864e+00
 -3.3704594e-01
 -1.4283334e-01
 -8.1818050e-01
 -6.2163556e-01
  1.1791432e+00
 -6.4193153e-01
  2.8014472e-01
 -1.1512261e-02
  3.2587966e-01
  7.3064417e-03
  2.2127947e-02
 -8.4655825e-04
 -1.7069945e-02
 -3.2958499e-01
 -7.2187662e-02
 -4.6294434e-03
 -1.7749071e-02
  5.4236505e-02
  1.1552066e-02
  9.5016584e-03
  1.9144341e-02
 -5.2752718e-03
 -1.1321410e-02
 -1.6481040e-02
 -3.0369153e-03
  9.6962391e-04
 -5.2720822e-02
 -4.4119723e-02
 -3.4840670e-03
  1.2642277e-02
  7.6393168e-03
  3.4013437e-03
 -3.9269302e-02
  1.3516729e-02
 -4.9742889e-03
  7.4924110e-03
  1.3734912e-04
  1.5024926e-02
  1.3535012e-02
  1.1651425e-02
 -3.5758436e-02
 -1.2678495e-02
  1.2859524e-03
 -1.0645776e-02
 -2.1624148e-02
  2.2411488e-03
  3.2587107e-03
 -2.8036840e-02
 -3.1666369e-03
 -9.1579901e-03
 -7.2545260e-02
  2.8882693e-02
 -4.2840149e-03
  6.2918179e-03
  3.5192189e-04
  1.8241531e-03
  1.2617534e-02
  1.7063940e-02
  3.2814644e-02
 -8.7647829e-03
  1.4122901e-02
  2.2657216e+00
  8.2664369e-03
  3.2966589e-03
 -1.3790349e-03
  3.6395185e-02
 -1.6300704e-02
 -8.9198882e-03
 -8.4233452e-03
 -2.4772296e-04
  4.0868819e-03
 -3.4455817e-02
 -1.1891746e-03
 -7.2403466e-03
 -6.5388214e-03
  1.5984330e-02
  1.2093314e-03
 -2.2196257e-03
  6.2580314e-03
  1.4500738e-02
  8.1184609e-03
 -2.4800538e-04
 -1.4691986e-03
  1.5723655e-02
 -2.4678089e-02
  1.9303134e-02
  1.4765265e-03
  8.3357722e-02
  1.2440807e-03
 -2.3043988e-02
  4.6169832e-03
 -1.0208925e-03
 -3.4182537e-03
 -5.0728098e-03
  3.3738813e-03
  1.2066810e-02
  9.0237306e-03
 -3.8077254e-02
  8.5913222e-03
 -3.3377998e-02
 -6.6036510e-04
 -1.5048202e-02
  7.2046053e-03
  9.8037720e-03
 -4.7736829e-03
  6.9348109e-03
  2.8228793e-02
  1.8078519e-02
  3.5863511e-02
 -8.2747675e-03
 -3.6411025e-02
 -2.1198820e-02
  1.2932429e-03
 -1.9254036e-02
 -3.2808345e-03
 -2.2506523e-03
  1.6486805e-02
 -2.9676236e-02
  6.0997191e-03
  1.4364817e-02
 -7.0598200e-03
  4.6340348e-03
  7.2004362e-03
 -3.6701206e-03
 -3.8637817e-01
  3.6184606e-03
 -2.4472852e+00
  1.1075115e-02
 -1.4295222e-02
  7.4024647e-03
 -1.8956386e-02
  1.6461525e-02
 -6.6892575e-03
  2.7838364e-02
  4.6872176e-02
 -4.5034759e-02
  1.3579754e-02
  4.0918879e-02
  2.5045997e-02
  2.3039963e-02
 -1.3604270e-02
  3.7751522e-02
  4.0729892e-02
 -2.9955662e-03
 -8.1018098e-03
  1.2150478e-02
  8.5112955e-03
 -5.5419076e-03
  3.0866191e-02
  2.2481972e-02
  4.2397182e-02
 -1.1915037e-02
  5.1038411e-02
 -3.3522576e-02
  2.0760277e-02
  1.1011400e-02
 -2.2165158e-03
 -2.7073754e-02
 -3.8746532e-02
 -1.0357119e-02
  1.4944025e-02
 -1.2752736e-02
  4.2622060e-02
 -1.2947185e-02
 -7.9972204e-05
 -1.5078127e-02
 -1.2387382e-02
  2.6897094e-03
  9.8239835e-03
 -4.3673031e-03
  8.9124283e-03
  2.1843370e-03
 -6.8727718e-04
  3.1215392e-02
  5.8041133e-02
 -8.4018176e-03
 -7.4253143e-03
  3.7191664e-03
 -8.1143035e-03
 -5.8522979e-03
  4.2993622e-03
  2.5663027e-03
  3.3644068e-03
 -2.2267099e-02
 -4.5760196e-02
 -1.5026310e-02
  1.4614285e-02
 -1.6746260e-02
  1.1754842e-02
  8.4120166e-03
  4.3550588e-02
  9.7625675e-03
 -1.6205771e-02
  2.9244912e-03
 -2.6222300e-03
 -5.3325671e-01
 -2.1480210e-04
 -2.5947422e-02
  1.0043080e-02
  7.7862870e-03
 -4.7670072e-03
  6.3663274e-02
 -1.3364008e-02
 -1.6809257e-02
  5.0884508e-02
  7.0220996e-03
 -9.4876736e-03
  3.2020144e-02
  1.3109772e-02
 -9.8486664e-04
 -5.0538402e-02
 -4.0273834e-04
 -1.2995072e-02
  3.3115592e-02
  5.8697183e-03
 -2.1745399e-02
 -9.1613922e-04
 -1.3613977e-02
  4.4907844e-03
  1.5238022e-02
  1.6875289e-02
 -2.6139175e-03
  2.8811861e-05
 -2.6266535e-03
 -2.3224762e-02
  2.1714965e-02
 -1.0897584e-02
 -2.8166603e-03
  1.1900316e-02
  5.8827647e-03
 -1.0233214e-02
  9.9606305e-01
 -5.0228299e-03
  2.8501746e-01
  6.6177803e-01
  9.3153045e-03
  7.0920237e-03
  9.5687312e-01
 -1.0278976e+00
  7.3039412e-02
 -5.8097728e-03
 -3.0054858e-01
 -2.5412342e-02
 -1.2927143e-01
 -1.1427781e-02
 -1.0389344e-02
 -3.6551733e-02
  8.2916528e-02
 -1.7609820e-04
 -8.3673038e-03
 -1.8535266e-02
 -3.4041885e-02
  1.6882049e-02
 -2.0052738e-02
 -4.6365060e-02
  9.5037706e-02
 -1.9409509e-01
 -3.2882476e-03
 -1.1692120e-02
 -2.1214709e-01
 -6.1691208e-03
 -1.9410456e-02
  1.7523886e-01
  1.6018695e-03
  1.2974815e-01
  6.1412466e-01
 -1.2556521e-02
  8.9126483e-02
 -4.2762470e-02
 -1.8602307e-01
  1.8420817e-02
  1.8226585e-03
 -2.6740211e-03
  1.6026663e-02
  2.3006530e-02
  5.2489019e-03
  3.1629382e-03
 -1.5233128e-03
 -1.2235922e-03
 -2.2373963e-02
 -4.9898315e-02
  4.5685668e-02
  4.1556645e-02
  2.3438277e-02
  3.6146604e-02
 -1.0216940e-02
 -1.3047135e-02
  3.0001283e-03
 -1.6698364e-02
  5.0707008e-03
  1.6891401e-02
 -6.1233744e-02
 -7.4664783e-03
  3.6754951e-02
 -2.6035346e-02
 -2.2891334e-03
  2.0983968e-02
  6.9569156e-02
 -1.7217404e-01
 -3.1239094e-02
 -1.4365621e-02
 -7.9771988e-03
 -8.4459838e-03
  2.2217496e-03
 -8.5659558e-03
 -1.3313214e-01
 -1.0663411e-02
  1.9593844e-02
  4.8790881e-03
  5.8152908e-03
  6.7629576e-02
 -2.5360402e-02
  1.7191581e-03
 -9.3216420e-04
 -5.1841646e-02
 -1.9916316e-02
 -2.3841024e-03
 -7.9848105e-03
  6.1358642e-03
  3.7878500e-03
  1.0596999e-02
 -6.5783551e-04
 -5.8843710e-02
  1.3794304e-02
  1.3733276e-03
  2.8392139e-03
 -1.2828832e-02
  1.4172474e-02
  8.1618491e-05
  3.2091185e-02
 -9.6910093e-03
  2.7638514e-02
 -2.6817456e-02
 -5.9567760e-03
  6.2213703e-03
 -4.1480385e-02
 -8.4107351e-03
  4.8243385e-02
  6.4791083e-01
 -2.6926401e-01
  1.6057979e-02
  3.4309281e-03
  1.1458308e-01
 -2.1046931e-02
  1.0842228e-03
 -2.4240902e-03
 -1.1882199e-01
 -2.2866485e-01
  1.0810352e-02
  1.8364087e-02
  1.7861363e-02
  1.3943692e-01
  5.3093014e-03
  4.7460683e-03
  2.8879592e-02
  1.7170195e-02
 -1.4887969e-02
 -4.9393196e-03
 -1.4356079e-02
  1.7769014e-02
  1.4275683e-02
  3.6678184e-03
 -3.4725945e-03
  1.3110311e-01
  8.3652046e-03
 -2.4060585e-02
  1.0536282e-02
 -6.3543078e-03
  2.7138317e-01
  1.3515471e-02
  7.1807334e-04
  6.8800594e-03
 -3.9649915e-02
  7.6196961e-02
 -1.1333555e-02
  9.2755705e-03
 -2.1844491e-02
  2.0947181e-02
 -5.8298507e-03
 -1.1646936e-02
 -2.0586799e-03
 -2.0703315e-03
  1.1585779e-02
 -1.5268711e-03
 -6.6811189e-02
  1.2889670e-02
  1.0978377e-02
 -1.8069046e-03
  6.0611968e-03
 -5.1062037e-03
 -2.4733994e-02
  4.9162423e-03
  5.3546904e-03
  2.3160102e-03
 -2.3449399e-04
  2.0956367e-02
  4.0110849e-02
  6.5454324e-03
  2.2934988e-02
 -6.3034566e-04
  1.6281191e-02
 -1.1754178e-02
  4.1844337e-03
 -1.0796872e-02
 -1.5779978e-03
 -1.0228524e-02
 -1.7581159e-02
  1.0541327e-02
  7.1283584e-03
  2.1840923e-04
 -3.2596178e-03
  2.4100358e-03
  5.4661084e-02
  4.8031020e-03
  1.8320397e-02
  1.9373990e-03
  2.4897177e-02
  1.7861482e-03
 -1.4477689e-02
 -3.9409250e-02
 -7.4001472e-04
 -2.2839271e-02
  1.0214901e-02
 -2.0852998e-02
 -1.6249274e-03
  4.8639011e-03
  1.8745335e-02
 -5.7836114e-03
  1.8876364e-02
 -5.7369079e-03
  2.3114519e-02
  2.7243711e-02
 -2.3740888e-02
  1.4352982e-03
 -6.7492854e-03
  4.3307580e-03
 -6.8530077e-03
 -4.3469593e-03
  1.1420745e-02
  4.7352128e-03
 -3.7276477e-04
 -3.4907885e-02
  5.0032623e-03
 -7.7046314e-03
  9.2921872e-04
 -1.0334839e-02
  2.1089318e-03
 -1.8575318e-02
  6.2667625e-03
 -3.3265285e-02
  1.1005919e-02
  1.4524275e-02
 -2.6807791e-02
 -5.1928912e-03
  2.8466594e-01
 -2.8643734e-04
 -2.7866419e-03
 -1.1505947e-02
 -2.6473643e-02
 -1.2759892e-03
 -4.2437468e-02
  1.3515176e-03
  3.3047598e-02
 -1.2144567e-02
  1.5172826e-02
  3.2466296e-02
  6.4145746e-03
 -1.4845436e-02
  3.4808989e-03
 -1.3617771e-02
 -9.9047190e-03
  1.0096689e-03
  4.0480038e-03
  1.1051683e-02
 -7.2361082e-03
  7.8997836e-03
 -1.5589452e-02
 -6.3338582e-03
 -9.5731672e-03
  2.1898422e-02
 -6.0829492e-03
 -2.4183981e-02
  5.2283918e-03
 -6.6894218e-03
 -7.0007653e-03
  4.2308751e-01
  5.2773722e-02
  4.8332900e-02
 -4.2927630e-02
 -1.7388679e-02
 -8.1670418e-02
 -2.8872306e-02
  1.4213433e-03
  8.9131482e-03
  1.9858267e-02
  1.0857971e-02
  1.7807424e-02
 -3.8390157e-03
  6.0683852e-03
  2.5431765e-04
 -5.0103396e-02
  1.3655130e-03
 -9.5232502e-03
  2.7323328e-03
 -1.9686434e-03
 -1.7269957e-04
 -2.6144732e-02
  9.5481530e-02
  6.8678486e-04
 -2.6657404e-03
  8.8334773e-03
 -1.8024035e-02
  3.0151468e-03
 -2.7915295e-02
 -2.2611268e-02
 -2.6167922e-02
 -3.8809814e-02
 -3.7911888e-02
 -3.6437768e-02
  1.5687475e-02
 -7.1302131e-03
 -1.7192943e-01
 -4.7664490e-02
  3.9151881e-02
 -3.3933178e-02
 -2.2086920e-03
  3.1609368e-03
  8.0404524e-03
  1.6953215e-02
  9.9180127e-03
 -2.2774856e-03
  5.9564738e-03
 -1.9792590e-02
 -1.9313574e-02
  5.6313507e-02
 -1.0995876e-02
 -7.4319076e-03
 -1.3893459e-02
 -8.0120042e-03
  1.9187441e-02
  5.9019481e-03
  8.1578013e-04
  4.5975707e-03
  1.9109292e-02
 -1.1567485e-01
  9.5196486e-01
  1.7148048e-02
 -2.8492656e-02
 -1.1106643e-02
 -1.3176229e-02
  3.0651296e-02
  9.9986224e-03
  6.1900686e-02
 -1.3146914e-03
  2.4679285e-02
  1.6582274e+00
  4.5600832e-01
  3.6139071e-02
  6.5292829e-01
 -7.6018089e-01
 -2.0965071e-01
 -3.9481416e-02
 -2.8818050e-01
  4.5433888e-01
 -9.9644782e-03
 -7.7606022e-01
 -6.3014567e-01
 -5.6388092e-01
 -5.3818023e-01
  8.0905862e-02
 -6.7197227e-01
  1.0283304e+00
 -7.7149190e-02
  4.0185657e-01
  1.7598517e-01
 -1.7171569e-01
 -6.3009810e-01
  8.2006228e-01
 -8.1599104e-01
  8.0490124e-01
 -7.1907498e-02
  2.1001261e-02
 -2.7166992e-01
 -3.7095785e-02
  6.6979438e-01
  1.5953810e+00
  9.4619032e-04
  4.2951241e-01
  3.3823314e-01
 -9.3720692e-01
 -2.8827790e-02
 -6.0613906e-01
  5.7439035e-01
  1.9298233e-01
 -6.0023254e-01
  9.1605410e-02
 -1.1118489e-01
  5.9078890e-01
 -4.5624152e-01
 -1.7929794e-02
 -2.7364972e-03
  4.9256396e-02
 -4.9489208e-02
  1.0904499e+00
 -1.6889539e-01
  1.6707730e-01
  8.1343085e-02
  1.2385372e-01
  1.4734300e-02
 -1.9456491e-02
 -4.4939006e-03
  2.2913674e-02
  1.0032489e-02
 -6.4495695e-03
 -9.8720044e-03
  2.6485093e-03
 -1.8344976e-02
 -5.4907016e-03
 -2.3585200e-02
  1.2857286e-02
 -1.4661593e-02
  2.1997141e-04
  5.3312150e-03
 -9.9082221e-04
  2.3614693e-02
  1.9740829e-02
  4.8332168e-03
 -3.0455701e-03
  2.5996761e-03
 -1.7343761e-02
 -1.2763944e-02
  5.0075855e-03
  2.2490507e-03
  8.3820699e-03
 -3.0651102e-03
  2.4737865e-02
  1.4084045e-02
  1.5179326e-02
 -9.3435673e-03
 -3.6723809e-03
  1.3679919e-02
 -3.2195414e-04
 -1.7493883e-02
  8.3649131e-03
  1.9419648e-02
 -8.6343832e-02
 -1.4671036e-02
  3.9137229e-03
 -2.6306765e-02
 -7.3557729e-03
 -1.7430687e-02
  1.5469696e-03
 -1.0314637e-02
  1.1976951e-02
 -1.5197292e-02
 -1.4606357e-02
  1.0772998e-02
  2.0060131e-02
 -1.6120888e-02
 -2.0429108e-02
  2.5022637e-02
  2.6619002e-02
  5.7025799e-03
  1.1218696e+00
 -6.0883445e-01
  1.0435576e-01
 -6.1741775e-01
  3.0514330e-02
  6.8227923e-03
  8.3384244e-04
 -2.2940334e-02
 -6.8474531e-01
  3.0823221e-02
 -2.8361287e-02
  5.7222754e-01
  1.9756325e-01
  2.9312854e-03
 -4.8940394e-02
  3.2052433e-01
 -8.3131403e-01
 -1.8739350e-02
  2.2815727e-01
  9.1874868e-01
 -2.2988813e-02
 -1.1607050e-02
 -1.5715511e+00
  8.1445090e-03
  2.7378939e-02
  2.0736841e-02
  2.0155044e+00
 -6.0401058e-01
 -7.8904808e-02
  1.9391102e-03
 -2.2098555e-01
 -3.9203539e-02
 -1.4063530e-03
 -1.5993685e-01
  1.0314338e-03
 -3.3597076e-01
  4.0927011e-01
  1.3476524e+00
  1.4026603e-02
 -5.9763067e-03
 -1.2042644e-02
  1.8660799e-02
  2.4820879e+00
  3.1852939e-03
 -5.4725599e-02
 -4.9908243e-02
 -2.3156255e-02
 -9.0146018e-03
  2.1271114e+00
 -8.7313515e-01
  6.8566108e-01
  4.1579455e-01
  2.2592460e-01
  2.3782913e-01
  3.1344432e-03
 -3.3563816e-03
 -3.1550333e-02
  6.3207991e-02
 -5.7362694e-01
 -1.6677886e-02
  5.3742044e-02
 -2.1176410e-01
  2.2072600e-01
 -2.2876624e-02
  5.1117234e-02
  3.1760624e-01
 -7.6191640e-01
  7.4525736e-02
  1.6512781e-01
  5.2989823e-01
  1.4332342e-02
  4.2237606e-02
  5.2819920e-01
  4.9852856e-02
 -5.8098607e-02
  3.8619157e-02
  1.3395995e+00
  3.5238724e-02
  5.4177886e-01
 -4.5672613e-03
  1.0939895e-01
  5.6409318e-02
  3.8955282e-02
 -2.3023513e-01
 -5.9965000e-02
 -4.0207309e-01
 -1.0289457e-01
  1.0675062e+00
 -3.1668223e-02
  1.0370226e-02
 -7.6164417e-02
  6.1543472e-03
 -1.3316454e-01
 -6.8165390e-03
  6.7692839e-02
  1.3487472e-02
 -4.0449321e-02
  4.7644641e-04
 -8.6538106e-01
 -6.9500551e-02
  7.0435195e+00
 -5.3682429e-01
  1.0078721e+00
  3.1800695e-02
  6.8279821e-01
  3.8777414e-01
 -1.2090901e+00
  1.1258044e+00
  3.0233488e+00
 -2.2023778e+00
 -1.6177905e+00
  5.6427443e-01
  6.6904521e-01
 -3.0751815e-01
  1.0969808e+00
 -7.1893805e-01
  3.7789142e-01
 -1.3380593e+00
  2.5153771e-01
 -1.2566666e-01
  3.3468031e-03
  2.7473372e-01
  1.1298422e+00
  2.8750179e+00
 -4.9556562e-01
  2.9967737e-01
 -7.5049949e-01
  2.0995608e-01
 -6.3390625e-01
 -3.9431047e-01
 -1.0890330e+00
 -1.9562733e+00
  2.2998522e-01
  6.0143495e-01
 -9.1019106e-01
  6.1192816e-01
  6.9260024e-02
  1.2031134e+00
  2.4009783e+00
 -2.3250943e-02
 -5.9944582e-01
 -1.8326112e+00
  1.6362752e+00
 -1.8338093e+00
  1.8896648e-01
 -5.7008553e-01
 -1.3661766e-01
  9.3139982e-01
 -9.5343143e-03
 -9.7500378e-01
 -4.5265710e-01
 -1.6411222e+00
 -6.0493416e-01
  1.0356538e-01
  1.4604404e+00
  5.8483040e-01
 -1.7450552e+00
 -5.9976089e-01
  9.8264688e-01
  3.1397205e-02
 -8.4595799e-02
  2.2136573e-02
 -9.6666038e-01
 -2.1740775e-01
  3.9075941e-01
 -5.0216395e-01
 -5.9900349e-01
 -4.6854162e-01
 -9.4764531e-03
 -2.3327250e+00
  1.1184812e+00
  6.8947248e-02
 -1.8724006e-01
  1.4520924e+00
  5.3226012e-01
 -5.6198746e-01
  5.2036679e-01
  6.8406388e-02
 -1.0408741e+00
  2.6631007e-01
  1.0714688e+00
  9.0602762e-01
  2.8180158e+00
  8.6121053e-01
  2.6085761e-01
  5.4713959e-01
 -2.7769344e+00
 -8.5744196e-01
  1.5442357e+00
  7.4419886e-01
  7.9632610e-01
  3.3528098e-01
 -2.6715574e+00
  9.1507775e-01
  1.1309033e-02
 -2.4538190e+00
 -1.2297034e-01
 -9.2455500e-01
  3.1325325e-01
  1.1891963e+00
 -1.1102308e+00
  1.6122950e+00
  1.8041674e+00
  1.3234891e-01
 -4.5644897e-01
  9.5845711e-01
 -1.5420860e-01
 -1.2212811e+00
  1.9754391e+00
 -9.5276579e-02
 -3.2443941e+00
 -2.0172203e+00
  2.3710213e+00
  2.1264040e-01
  4.6206644e-01
 -4.4644963e-02
  1.8882899e+00
  3.6564830e-01
 -5.7177049e-01
  1.0007225e+00
  3.0840120e-01
 -3.7439805e-01
  1.0328320e+00
 -3.7968987e-01
  1.1194193e+00
 -6.1512595e-01
 -3.6629185e-03
  2.4243615e+00
  6.2404537e-01
  2.0725935e+00
 -6.9272810e-01
  2.5998273e-01
  6.9305575e-01
 -1.9792827e+00
  2.6035678e-01
 -2.7590117e+00
  6.1049581e-01
  5.6189412e-01
 -6.6379410e-01
  1.1738671e+00
  1.1388668e+00
  7.5648820e-01
 -8.8665885e-01
 -9.9585336e-01
  4.3538591e-01
 -1.1551350e-01
 -1.5007017e+00
 -1.5740979e-01
 -1.4779754e+00
  9.1972351e-01
 -3.8755181e-01
 -1.7564051e+00
  1.1367542e+00
 -1.3028826e-01
 -8.6783880e-01
  1.9011116e-01
 -2.0523356e-01
  1.0208474e+00
  1.3576206e+00
 -1.5121329e+00
 -1.5792603e+00
 -1.2166392e+00
 -3.5816898e+00
 -8.4915608e-02
 -7.6390514e-03
  3.7754500e-01
 -5.6563920e-01
 -1.8010756e-01
  8.1286573e-01
  8.7031102e-01
 -1.7149655e+00
 -3.6926576e-01
  2.6983991e+00
  1.3097776e+00
 -1.7326880e+00
  3.5038456e-01
 -5.4152471e-01
  1.6860495e+00
 -1.5559961e+00
 -3.4906667e-01
 -1.8142909e+00
  6.8669742e-01
 -3.2067090e-01
  8.8399321e-01
  4.4568050e-01
 -1.9485009e+00
  6.1035156e-01
 -6.8779784e-01
 -1.6644130e+00
  1.0036594e+00
 -6.9831616e-01
  3.4894148e-01
 -2.6178426e-01
 -1.1935114e+00
  1.9801727e-02
 -6.3941449e-01
 -9.0415210e-01
  6.6698295e-01
  1.0582360e+00
  3.1757331e+00
  2.7474812e-01
 -2.7699608e-01
 -1.0703362e+00
 -1.5147270e-01
 -9.1835350e-01
 -7.1332641e-02
  3.8321686e-01
  1.6191866e+00
  8.6146563e-01
 -1.1566739e+00
  9.7606736e-01
  4.3063798e+00
 -1.8401095e+00
 -2.0098916e-01
  2.5817580e+00
 -1.1717072e+00
 -6.9570386e-01
  1.1441166e+00
  5.6945664e-01
  7.8693889e-02
  6.7380473e-02
 -8.4478223e-01
  7.4906576e-01
  3.8759407e-01
 -1.5346692e+00
  4.6498114e-01
 -1.0897624e-01
 -1.0045751e+00
  4.2409712e-01
 -1.4275866e+00
  4.2062253e-01
 -4.4116476e-01
  5.9488237e-01
 -5.6988460e-01
 -9.1842264e-01
  8.1826642e-02
  8.1826642e-02
  8.1826642e-02
  8.1826642e-02
  8.1826642e-02
  8.1826642e-02
  8.1826642e-02
  8.1826642e-02
  8.1826642e-02
  6.9004267e-02
  6.9004267e-02
  6.9004267e-02
  6.9004267e-02
  6.9004267e-02
  6.9004267e-02
  6.9004267e-02
  6.9004267e-02
  6.9004267e-02
  2.2299781e-02
  2.2299781e-02
  2.2299781e-02
  2.2299781e-02
  2.2299781e-02
  2.2299781e-02
  2.2299781e-02
  2.2299781e-02
  2.2299781e-02
  3.3997510e-02
  3.3997510e-02
  3.3997510e-02
  3.3997510e-02
  3.3997510e-02
  3.3997510e-02
  3.3997510e-02
  3.3997510e-02
  3.3997510e-02
  1.7117148e-02
  1.7117148e-02
  1.7117148e-02
  1.7117148e-02
  1.7117148e-02
  1.7117148e-02
  1.7117148e-02
  1.7117148e-02
  1.7117148e-02
  1.1184661e-02
  1.1184661e-02
  1.1184661e-02
  1.1184661e-02
  1.1184661e-02
  1.1184661e-02
  1.1184661e-02
  1.1184661e-02
  1.1184661e-02
