nep3 3 Cs Pb Cl 
cutoff 5 4 20 12
n_max 8 4
basis_size 10 8
l_max 4 2 0
ANN 50 0
  1.4172795e-05
  1.8024253e-05
  1.4531308e-05
 -5.2993028e-06
  1.9848356e-05
  5.6558779e-06
  1.0433988e-05
  1.7388560e-05
  4.8814863e-06
  1.6322949e-05
 -2.3566397e-06
 -7.7138575e-06
 -1.3316877e-05
  6.9044254e-06
  7.4812688e-06
 -9.5458327e-06
  7.4919888e-05
 -7.7827326e-06
 -6.1884875e-06
  5.9890806e-07
 -1.2187643e-04
  2.5858296e-06
 -6.8551881e-06
 -4.2095498e-06
  3.9333190e-07
  5.4862130e-06
 -2.6542416e-06
 -1.2154394e-06
  1.0663743e-05
  1.1006280e-06
  4.7147483e-07
 -2.9247722e-05
  5.4567709e-06
 -1.1159478e-05
  5.6644594e-06
  1.3433193e+00
 -8.2814686e-06
  3.1889058e-04
 -5.6017917e-01
  1.6565928e-03
  5.2687433e-04
  1.0772488e+00
 -1.1584924e-02
  4.2019370e-01
 -1.3284430e-02
 -7.8037414e-03
  2.5658321e-01
 -1.9596230e-06
  2.7726375e-02
  7.4606949e-05
  5.8105368e-05
 -1.5408096e-02
 -1.0808706e-06
  1.4598441e-01
 -1.3713869e-01
 -1.0587274e-01
 -1.3843662e-05
  1.6284041e-01
  5.4081045e-03
 -3.7597849e-05
 -2.8794837e-01
 -7.6548176e-06
 -3.0322935e-05
 -3.8159593e-05
 -4.4250546e-06
 -1.1358800e-06
  7.9789133e-06
  1.5427426e-05
 -6.1894648e-06
 -1.3575373e+00
 -6.2123654e-06
 -5.2273905e-01
  5.1167834e-01
 -3.4053847e-01
 -1.0144674e-01
 -5.3590138e-02
  9.3148404e-01
  6.6436338e-01
  2.9892772e-01
  6.0048681e-02
 -6.8611815e-04
  3.5388368e-06
 -7.3339797e-06
 -8.9417708e-06
 -2.9332623e-01
  9.5531084e-07
  1.3710101e-05
  8.2491136e-01
  1.5097412e-01
  3.7025807e-03
 -3.7006859e-05
  4.2088456e-07
 -2.0041991e-06
  9.8467499e-06
  7.3112108e-02
  8.2730742e-07
 -4.0737969e-08
  8.8971401e-06
 -7.8422236e-06
  2.8220920e-02
 -1.7908234e-05
  1.2009104e-05
 -2.3784074e-05
  3.8755916e-06
  6.3318016e-06
  2.0531712e-05
 -5.2489628e-05
 -4.5881905e-05
  2.5464598e-05
  5.5307362e-07
  7.0199358e-06
 -3.0162719e-06
  1.5375348e-05
  2.5520349e-05
  5.2016940e-06
 -9.4706866e-06
 -3.0792285e-07
 -3.2097869e-05
 -3.0313661e-06
 -1.0237371e-05
 -1.8659208e-05
  5.1589845e-06
  1.9966255e-05
 -1.6082666e-05
 -6.7251694e-06
 -9.5952191e-06
 -3.9409147e-06
 -8.6499193e-07
  6.8199743e-06
  2.8857943e-05
  1.0571501e-05
 -4.3074848e-05
 -1.7725226e-05
  2.2920099e-06
 -2.2887832e-06
 -8.0417167e-06
 -4.6886857e-06
  9.3272574e-06
  6.0627840e-06
  6.1932860e-06
 -2.4948822e-05
  2.2270451e-06
  2.3880116e-07
  1.8824779e-06
 -2.8823954e-06
  8.7969611e-06
 -5.9715353e-07
  8.7323624e-06
 -2.5157574e-06
  3.4576801e-06
  3.4539695e-05
 -6.2365471e-05
 -8.6027176e-06
  6.0265197e-06
  1.1670186e-06
 -1.3852656e-05
  9.7232050e-06
 -3.7564553e-06
  1.0375040e-05
 -1.9411777e-06
  1.5064649e-06
 -2.3957862e-05
  1.5515721e-05
 -4.9724076e-06
 -8.2806901e-07
 -2.9977643e-06
 -3.0883206e-07
 -3.8064445e-06
 -1.7636881e-05
  7.3816682e-06
  3.7327338e-06
  1.1935338e-05
 -2.8918228e-06
 -4.2064244e-06
 -1.6034241e-05
  1.7623817e-05
  1.7360312e-06
 -9.7519969e-06
 -1.9355279e-05
  6.7173560e-06
 -7.3096460e-05
 -3.0883593e-06
  3.4041050e-06
 -1.4779240e-05
 -4.3146432e-05
 -1.8850673e-05
 -2.0481652e-06
  3.1801756e-05
  3.6194565e-06
  7.0711435e-06
  2.5925367e-05
 -2.5637366e-06
 -2.0105514e-05
  2.8530558e-06
  1.9132297e-06
  2.2216136e-06
  7.5766770e-06
  6.4064875e-07
 -9.4542947e-06
 -7.1981340e-06
  3.6138192e-06
 -1.0083836e-05
 -1.9016232e-05
  3.9061606e-06
 -1.0605526e-06
  6.4541332e-02
 -1.6164293e-05
 -1.8368833e-06
 -2.9452932e-01
 -9.4509167e-05
  6.5627271e-01
 -9.2236602e-01
  1.3715433e-01
 -4.6713355e-01
  7.1437216e-06
 -3.4176756e-02
 -5.3813132e-05
  5.7279485e-06
 -4.4440314e-01
 -2.7653203e-07
  2.1165264e-01
  2.2061911e-05
 -1.4725435e-05
 -2.4449942e-01
  2.5028352e-05
  8.3167136e-02
  4.2269326e-06
  6.8452437e-06
 -4.4023287e-01
 -5.4546504e-06
 -8.5093814e-04
 -4.1832063e-06
  1.9086850e-05
 -1.1743745e-04
  1.6334659e-05
 -1.2054020e-05
 -8.0905792e-08
 -1.4347941e-05
  3.7518112e-06
  1.3457397e-05
 -2.3243481e-06
  1.2663186e-05
 -8.2028291e-06
 -2.2448301e-05
  2.1153644e-06
  1.8127585e-05
  3.2765968e-06
 -1.2586798e-05
 -1.3574404e-06
  1.1713079e-05
 -4.7497306e-06
  7.7548457e-06
  1.2763987e-05
 -6.2884196e-06
 -4.3584885e-05
  4.2271222e-06
 -9.2998662e-06
  4.9653086e-06
 -2.3019886e-07
 -7.7201839e-06
 -5.6616586e-06
 -1.7992326e-05
 -2.8823015e-05
 -2.1631502e-07
  1.0957963e-05
 -2.8813069e-05
 -2.0267813e-05
  1.6442611e-06
  8.8884588e-07
  2.6308790e-05
  2.1767748e-06
  1.3790814e-05
 -8.8046800e-06
 -5.2539445e-02
 -3.8547478e-06
 -2.2109671e-01
 -2.8010584e-02
 -2.1913620e-02
  4.6628591e-02
 -6.8837740e-02
 -1.3130513e-01
  2.2135524e-02
  1.3791687e-03
  2.5993785e-02
 -2.4198187e-05
  4.7178205e-06
 -1.6920035e-01
 -5.6380977e-06
  6.2832139e-02
  4.2374618e-06
 -3.3746296e-06
 -2.6303843e-01
  4.9773492e-02
  1.3167182e-01
 -1.6309341e-06
  7.5661997e-06
 -3.2443486e-02
  3.3037406e-06
  1.3829022e-06
 -3.1404140e-06
  2.4121232e-06
 -3.5414207e-06
 -1.4352378e-06
  6.5368345e-06
  5.1799507e-06
  2.0660747e-07
  9.1976235e-06
 -5.1882012e-06
 -3.9097690e-06
 -2.7895039e-05
 -3.4273278e-05
  1.7882072e-05
  5.7504258e-07
 -2.0560321e-05
 -1.2933704e-07
 -5.3399554e-06
  7.7724198e-06
  1.5008605e-05
 -3.4814300e-07
  4.2040115e-06
  5.5939627e-06
 -3.0280041e-06
  3.3013744e-06
  7.0784000e-07
  3.4095545e-05
 -1.9991399e-05
  3.1984587e-06
  1.1779405e-07
 -8.1888111e-06
 -1.3566632e-05
 -7.5151156e-06
 -1.9613258e-06
  1.2183207e-05
  3.4934612e-07
  5.2414780e-06
 -1.7932117e-06
  6.2156287e-06
  9.7074758e-07
  5.2692558e-06
 -2.8475140e-06
  5.6738045e-06
 -1.8203058e-05
 -6.9818743e-06
  1.1469981e-06
  2.7956770e-05
 -2.3700836e-06
 -4.7957415e-06
  2.3978890e-05
 -1.5103937e-05
 -1.3901441e-05
 -2.6533920e-05
  6.3393945e-06
  4.0089822e-06
  9.0448930e-06
 -1.1188782e-05
 -3.5122330e-06
 -7.6022270e-06
  4.9683745e-06
 -6.5288266e-05
  1.6501977e-05
  1.5826230e-05
  9.2286591e-06
  3.2224618e-06
  4.1732196e-06
  1.7016842e-05
 -1.9389558e-06
  8.0585405e-06
 -4.8527077e-06
  1.6116448e-05
 -1.6791475e-05
 -1.0674924e-05
  1.4853718e-05
 -1.2622671e-05
  1.1874725e-05
 -1.6772431e-08
 -7.2802463e-06
  1.5245173e-05
 -1.9799052e-06
  2.8197464e-06
 -8.7974831e-07
 -1.7015203e-05
 -7.0251899e-06
  1.1949216e-05
  2.4291664e-06
 -9.4499037e-06
  2.3048419e-07
  9.1838856e-06
  1.3629982e-05
 -1.9300081e-05
  7.9199862e-07
 -4.2247775e-06
 -1.5111643e-06
 -1.6087812e-06
 -6.0698762e-06
  4.0361374e-06
  1.7347036e-05
  1.1394524e-05
  1.7815177e-05
  3.8358498e-06
 -1.5506728e-05
 -2.1196804e-06
 -7.5490898e-06
 -4.9476312e-06
  4.5533425e-06
 -1.7032275e-05
 -1.4771465e-05
  2.4838517e-05
  3.2845226e-06
  5.4405673e-06
 -1.0060572e-05
 -3.2426817e-06
 -2.8533007e-06
 -3.4564237e-05
 -1.1028863e-05
 -1.2266726e-05
  1.5015903e-06
 -4.9846367e-06
 -1.2391151e-05
  3.7636753e-05
 -2.3381517e-06
 -4.1477080e-05
  1.6564577e-06
  7.3913225e-07
  3.9859974e-06
  1.5179841e-06
 -1.4033439e-05
 -3.4942079e-06
 -5.2346813e-06
 -9.4613424e-06
  3.9325564e-06
  5.2722617e-06
 -4.7293843e-06
  6.7065239e-06
 -4.3924447e-06
  4.7232588e-06
 -1.1679429e-05
 -1.9965582e-06
 -2.2947438e-06
 -1.6127893e-06
 -1.9097226e-05
  9.8688242e-06
  1.0586917e-05
  2.0946844e-05
 -6.0151947e-06
 -1.8505010e-06
  2.5313891e-06
 -3.1921641e-06
 -2.5907066e-06
 -1.9865888e-06
  1.3912880e-05
  1.4498000e-05
  3.5759986e-06
  1.0635698e-05
  3.1346751e-06
 -1.7113680e-05
 -4.8888701e-06
  2.1025109e-05
  5.9823592e-06
 -7.3791598e-06
 -5.4278627e-07
  2.3072766e-06
  1.1148155e-06
  1.1194144e-05
  1.3607939e-06
 -1.3002053e-05
 -1.2787708e-05
 -1.2597798e-05
  2.1883288e-05
 -6.8268200e-06
 -4.2663805e-07
  8.6556483e-06
 -9.5682917e-06
  1.0089795e-05
 -1.0946923e-06
  1.4459408e-05
  8.0787895e-06
 -2.5614697e-06
 -1.1402168e+00
 -1.7695299e-07
  4.5049737e-06
 -6.0111177e-01
  8.2384694e-01
  2.0946391e-01
  2.0153052e-01
 -1.8253425e+00
  9.7493328e-02
 -2.1153173e-06
 -1.6775679e-05
  1.1894213e-01
 -1.1369109e-05
 -4.8938060e-01
  6.9287148e-06
 -2.9252416e-05
 -9.8444461e-06
  1.1707855e-06
  1.8397489e-01
 -5.0928575e-06
 -1.1256117e-05
 -4.8673501e-06
  3.3842013e-03
 -1.1841984e-04
  1.8468052e-06
 -3.8999610e-06
  4.1576819e-05
 -4.8260508e-06
 -7.7522294e-05
  5.9657296e-08
 -1.0081098e-05
  8.4648664e-06
  1.0828218e-05
  3.5161793e-05
 -5.1221102e-01
  5.0871254e-06
 -1.7791052e-01
  1.9277426e+00
 -1.7283100e-01
 -1.1660559e+00
  8.5097671e-01
 -1.5787394e+00
  8.5775048e-02
  1.7124335e-01
 -5.9162114e-02
 -6.4825827e-01
 -1.3807276e-05
  6.8206519e-02
 -6.2899133e-05
 -4.2109153e-01
  7.5268769e-04
 -2.2636061e-06
  2.8046317e-02
  2.9331651e-01
  1.1939072e-02
  7.0452520e-06
 -5.2655548e-01
  6.3885465e-02
  4.1173920e-02
  2.2530596e-01
 -7.0610266e-05
  1.1407013e-02
  1.8873428e-01
  1.1511339e-05
  1.5895140e-04
  7.3988940e-06
  1.0856476e-04
 -8.8574052e-06
  2.5736053e-06
  6.8651452e-06
  1.8188166e-05
  8.6075370e-06
 -3.5262747e-06
  1.1316462e-05
  9.0074209e-06
  1.5830187e-06
 -7.0507442e-05
  2.0916375e-06
  3.2806915e-05
 -6.5684017e-06
 -2.9727823e-07
  1.8158837e-06
 -7.3851916e-06
 -4.6290676e-05
 -7.0718474e-06
 -1.8390201e-05
 -6.5916402e-07
 -1.5298795e-06
 -2.3134447e-08
 -1.2097181e-05
 -1.1796625e-05
  4.6244945e-06
 -1.0009154e-05
  4.4878825e-06
  4.0139889e-06
 -2.5446698e-05
  8.5981919e-06
  6.5874030e-07
  3.3432693e-06
  2.5216580e-06
  4.5806794e-07
 -8.7658836e-06
  1.4802021e-05
 -2.0051404e-05
  2.7749404e-06
 -2.5448840e-06
 -1.0137444e-05
  2.2435838e-06
 -9.9564988e-07
  1.9201210e-05
 -2.2504803e-06
 -1.2958271e-05
 -5.4434536e-06
 -3.6721678e-06
 -2.2248252e-05
 -2.0745836e-06
  9.6968438e-07
  6.4218079e-06
 -1.3093935e-05
  1.5995570e-06
 -4.8044294e-06
  7.3977657e-07
 -2.8228231e-07
  1.1845417e-05
  3.2784958e-06
  1.2299713e-05
  8.0495201e-06
 -2.0460338e-06
 -5.3518249e-07
 -5.6390372e-06
  3.2812823e-06
 -1.4311014e-05
  1.7594473e-06
  1.0691161e-05
 -5.1966322e-06
  1.7681725e-05
  4.0769924e-06
  2.6251826e-05
 -3.0866695e-06
  1.2303539e-06
 -2.5235731e-05
  4.3851114e-06
  1.7237737e-05
  1.0916574e-06
  5.5242361e-07
  3.6032106e-05
 -2.3487086e-05
  8.8828074e-06
 -1.1218735e-05
  3.4009263e-06
 -2.5110178e-06
 -1.6468213e-06
  1.4206814e-05
 -1.9142558e-06
 -6.9624907e-06
 -1.0089999e-05
 -7.2975099e-06
 -1.5029788e-05
 -1.4256275e-05
  3.2051812e-06
  2.1299062e-05
 -4.5979882e-06
 -9.1378688e-06
  3.3670740e-06
  2.3648086e-05
 -3.1359289e-06
  2.2655765e-06
  3.6035937e-07
  2.5912252e-06
  1.6604992e-07
 -8.9121704e-06
  9.5732730e-07
 -5.8103055e-06
  1.3578764e-06
  9.5536407e-06
 -2.1442953e-05
  1.4838607e-05
  1.2854406e-05
  8.5658794e-06
  5.6507542e-06
  3.5191872e-05
 -1.7638056e-05
 -7.5487383e-06
  8.6383761e-07
  1.5972746e-06
  7.9978217e-06
 -9.6426602e-06
  1.0881757e-05
 -1.6519648e-06
 -2.8040822e-06
  9.5419755e-06
 -2.2116340e-06
  5.6319518e-06
  7.7630839e-06
 -1.1979631e-05
  2.4179969e-06
  6.4341493e-06
  4.5257487e-08
 -3.4120021e-06
  2.0728430e-05
 -1.0632624e-05
  2.0421234e-05
  3.3369397e-06
  5.9300772e-05
 -8.9134686e-05
  4.2298443e-06
 -7.8377643e-06
  2.0158988e-05
  7.6436970e-07
 -3.5327459e-05
  6.4987930e-06
  7.5453390e-05
  3.2916330e-05
  5.2450616e-07
 -3.2920088e-05
  7.7739896e-06
  2.5382709e-05
 -8.7810868e-06
 -1.8290919e-05
  7.0405886e-06
 -2.8713514e-05
  4.2189936e-06
 -1.2380479e-05
 -1.5688245e-05
  3.7606216e-05
 -1.5850578e-06
 -1.1258840e-06
  4.9663940e-06
 -3.4654608e-05
  2.8585494e-06
  2.8537999e-05
  9.2844693e-06
  5.6231329e-06
 -1.2824595e-05
  2.4263452e-05
  1.2193364e-05
  8.9535956e-07
 -9.9054314e-06
 -1.4825713e-02
  1.3745373e-05
 -2.6131868e-01
 -4.3623827e-02
 -5.8180076e-01
  1.7448522e-02
 -6.3220081e-03
 -4.5323577e-02
 -5.4134682e-02
  9.4840944e-02
  2.2087038e-02
 -2.8996372e-01
 -2.2030490e-07
 -6.8430066e-01
 -9.0535417e-02
 -7.5912768e-01
 -8.6995233e-06
 -4.8995289e-06
 -1.0001458e-01
  1.8774576e-01
 -4.0305302e-01
 -1.5471636e-04
 -1.1130618e-01
 -1.4159717e-01
 -1.0620133e-04
  5.2121002e-03
  5.2123673e-06
  1.5514647e-06
  2.4357453e-06
  6.4426382e-07
 -2.6859550e-04
  1.1073043e-07
  5.6059530e-06
 -9.4006600e-06
 -1.3834395e+00
 -1.2026717e-06
  1.9227971e-01
  1.0779113e+00
  2.2233061e-02
 -1.1969266e+00
  8.7444705e-01
 -1.3449149e-02
 -4.0645310e-01
 -1.1638146e-01
 -2.9536607e-02
  5.2717370e-01
 -1.5476214e-06
  1.3964016e+00
 -2.7425401e-04
 -5.2092612e-01
 -1.7041215e-01
  4.2420692e-05
  7.9479724e-01
 -8.6576492e-01
  5.3022660e-02
  2.8836181e-05
  2.7115062e-01
  2.3069519e-01
  8.0887474e-02
 -2.1254466e-01
  3.4956879e-04
 -1.3220709e-05
  7.0152231e-02
 -9.3660847e-06
 -2.1150962e-01
 -5.9472300e-06
 -4.2313404e-06
 -7.2230187e-06
 -4.9364485e-06
  3.4572122e-06
  1.5497417e-05
 -1.1450462e-05
  3.1046652e-06
 -4.4085209e-06
 -4.7034632e-06
 -1.1346793e-05
 -4.9527549e-05
 -2.2271171e-05
 -8.3213490e-06
  2.1949843e-07
 -7.8709654e-06
 -3.5790052e-07
 -4.3363621e-06
  3.3110703e-06
 -1.7464265e-05
  2.9716259e-06
 -3.1292304e-05
  9.8843730e-06
  5.7218699e-06
  1.1631799e-05
 -4.0725610e-07
 -1.2320968e-05
  1.6784030e-05
  4.7365229e-06
  2.2578270e-06
 -1.9565818e-05
 -7.9289739e-06
 -5.3013023e-06
 -2.6823493e-05
 -6.5689774e-06
 -2.8890790e-06
 -2.0186981e-05
 -2.5957841e-03
 -3.5115045e-06
  3.3072320e-01
 -3.4425989e-06
  6.4085685e-02
 -2.9859611e-01
  1.2994932e-01
  2.0007795e-02
 -3.0461270e-02
 -1.0222957e-01
 -6.0394082e-02
  1.2419552e-01
 -1.2857366e-06
  1.7533623e-01
  8.3323876e-06
 -2.3209056e-01
 -1.1304202e-05
  6.1191022e-05
  2.1358363e-05
 -1.3822086e-01
 -5.8437183e-02
 -6.9897906e-06
  2.0618282e-02
  1.0346421e-01
 -1.0499522e-05
 -4.9321644e-02
 -3.3449444e-06
 -4.5954526e-05
  1.5936288e-05
 -5.0450631e-06
  1.6664090e-06
 -1.2714433e-05
 -1.5613846e-06
  2.2077134e-07
  4.6520020e-04
 -1.5339787e-06
  4.8677143e-01
  1.4442984e-02
  6.7498207e-02
 -1.7932566e-01
  1.4424668e-01
  7.0329597e-03
 -4.9775071e-04
 -8.0391541e-02
 -4.2879745e-02
  6.4575329e-02
  1.7578151e-06
  2.6959097e-01
  7.8609746e-06
 -7.3102452e-02
 -5.7718586e-05
 -4.3117784e-06
 -1.1697532e-06
 -1.7685017e-01
 -2.2050571e-02
 -4.8754031e-05
  3.7169724e-04
  6.7582391e-02
  1.0483814e-05
 -1.9135542e-02
  3.2187287e-05
  5.1188363e-06
 -7.0545393e-06
 -2.7335738e-05
 -9.4489269e-06
 -6.3664311e-06
  4.5690613e-06
  1.4985562e-05
 -1.3235154e-05
 -1.0314135e-05
  6.1129972e-06
 -1.1965757e-05
  2.3357175e-05
 -9.1728507e-06
  4.6017794e-07
 -1.8400537e-05
  2.8133591e-06
 -4.5450943e-06
 -2.6099870e-06
  4.2796642e-06
 -1.7307915e-05
  5.6165868e-06
 -7.9467247e-07
 -3.3680542e-06
  1.1175100e-05
  1.1329433e-05
  3.5451865e-07
  2.3325347e-05
 -1.0764009e-05
  2.1624270e-05
 -1.2613719e-05
 -7.0988808e-06
 -8.9885907e-06
 -1.3233222e-05
  3.5040091e-06
  8.9110872e-06
  2.2386187e-06
  9.9055505e-06
  3.1383486e-05
 -1.5451167e-05
 -4.4158096e-06
 -1.3306173e-05
 -1.1184464e-05
  4.9527926e-06
 -1.6261476e-05
  9.6729855e-06
 -8.6471637e-06
  1.7396160e-06
 -8.5422698e-06
  1.0289091e-05
  6.1659684e-06
 -2.3682791e-05
  2.1772863e-05
 -4.7130966e-06
 -1.2706839e-05
  2.0700945e-05
 -1.1471275e-05
  6.9317521e-06
 -1.3441474e-05
 -1.2635163e-05
  1.1473143e-05
  5.1804655e-06
  1.1016278e-05
 -3.2687558e-06
 -2.3806590e-06
  1.2021370e-05
  4.4755321e-05
 -9.4571060e-06
  2.7757426e-06
 -1.8877643e-06
 -1.2635157e-05
 -4.7175467e-06
 -7.9464635e-06
  9.4393329e-08
  5.6510902e-07
 -1.2629043e-05
 -1.3343922e-05
 -1.6770442e-05
 -8.2552970e-07
 -1.6832086e-05
  1.1562371e-06
 -3.0920586e-05
 -1.0835637e-05
  8.1857788e-06
  9.0516805e-06
 -6.5545210e-06
  5.2701512e-06
  1.1364005e-05
 -5.0562880e-06
 -3.6835941e-06
 -7.0564383e-06
 -2.8592967e-05
 -3.1912364e-06
  1.7945036e-05
 -4.2630936e-06
  5.3820027e-06
  2.2217506e-07
  3.2400885e-06
 -1.8352554e-05
 -1.2807172e-05
  6.9105654e-06
 -4.9400055e-06
 -1.7813696e-05
 -9.8660785e-06
  8.8396600e-06
 -1.1342696e-06
  1.4176272e-05
  8.1724156e-06
 -7.9813918e-07
 -1.9459998e-05
  5.3072131e-06
 -5.4801735e-06
  1.6072139e-06
 -7.3006163e-06
 -8.3041195e-06
  6.7617143e-06
 -8.0252397e-07
  1.7514024e-06
  1.3799518e-05
 -8.6300970e-06
 -9.3342951e-06
 -4.5786956e-06
  7.4675972e-06
 -4.0091287e-05
 -3.3784199e-05
  2.6655234e-06
  9.2059981e-06
  1.7476621e-06
 -8.0686310e-05
 -1.6825059e-06
 -7.0746119e-06
  3.9418832e-05
 -5.3358043e-08
 -4.9516011e-06
 -2.6207979e-05
 -1.3029671e-05
 -1.2157333e-06
 -3.7680489e-05
 -4.2971752e-07
 -2.3752271e-05
  4.9690748e-06
  7.4689419e-06
 -2.1791047e-07
  1.7741349e-06
 -1.3305803e-01
 -2.8777646e-05
  1.4360525e-01
  1.3592166e-01
 -1.5073274e-06
  1.6205503e-01
 -8.8514149e-01
  8.9452162e-02
 -6.9481599e-01
 -9.2252310e-05
 -2.2326756e-01
 -1.2702835e-02
  6.5967855e-05
 -5.4779011e-01
 -2.2179986e-05
  6.7717269e-02
  1.4141739e-05
 -9.9874014e-06
 -5.0875276e-01
  8.0074981e-02
  4.5499444e-01
  3.1708271e-06
 -8.7815051e-06
 -2.1825530e-01
 -7.2012017e-06
  2.0504990e-01
 -7.0432552e-06
  1.4018841e-06
 -1.6518348e-04
  5.7860448e-06
  9.1851180e-05
 -8.6773207e-06
  3.0173933e-06
  1.2868821e-06
 -8.8961815e-06
 -2.0751067e-05
 -9.1271750e-06
  2.0139338e-05
  6.0465131e-06
 -8.8186989e-06
  2.3172533e-06
  1.1235549e-05
  9.2961163e-06
  9.3341492e-07
  2.5141471e-05
 -1.1604202e-05
 -2.2104532e-05
  2.4414541e-05
  8.2485385e-06
 -1.3344724e-06
 -5.1039194e-07
 -1.1524124e-06
  8.8717002e-07
  1.3967114e-05
  1.0791540e-05
 -4.3930750e-06
 -6.7672536e-06
  1.2709298e-05
 -1.0841239e-05
 -4.5826500e-06
  1.7874299e-05
 -4.6438621e-05
 -7.6606029e-06
  1.5114178e-05
  1.1027294e-05
  4.0951181e-06
  2.8747468e-06
 -5.9387671e-06
 -5.4819742e-07
 -6.4818814e-06
 -5.3645290e-06
  5.5005116e-06
  4.6346475e-05
 -1.5686923e-05
  2.2745025e-05
 -1.3032014e-05
  1.4335556e-05
  7.8104722e-06
 -1.2929331e-05
  1.2347376e-06
 -1.6046120e-05
  6.6570014e-06
 -1.6785165e-05
 -1.4398454e-05
  1.4906538e-05
  1.2718082e-05
  7.2306138e-06
 -1.3141189e-05
  2.2797419e-06
 -2.4644014e-06
  3.7408565e-06
  2.1481468e-05
 -9.3721326e-07
 -2.9544917e-06
  2.3732662e-06
 -1.9498600e-07
 -3.5923986e-06
 -9.8529590e-06
 -2.8444281e-05
  4.7315666e-06
  2.2489208e-05
 -1.9288643e-06
 -1.0087695e-05
  7.4309464e-06
  2.6212658e-05
  3.3824840e-06
 -3.0457591e-06
  1.7582710e-06
 -9.1190232e-06
 -7.7012455e-06
  6.9650287e-07
 -3.5028731e-06
  3.0818228e-06
  3.0616179e-06
 -1.0218209e-05
 -6.7753717e-06
  1.4139916e-05
  1.9898855e-06
  2.1007978e-05
  1.4523303e-05
  1.3443417e-05
 -1.3355510e-06
 -7.4664954e-06
  5.5588534e-06
 -6.6293560e-06
  1.8465412e-06
 -5.1760767e-06
  1.2101737e-05
 -3.2488715e-06
 -2.0282125e-06
 -1.1547160e-05
 -1.5319923e-05
 -9.8311230e-06
  1.5345648e-06
  9.9446697e-06
  9.3172875e-06
  4.1794283e-06
 -8.5508088e-07
  1.2648520e-05
 -1.8710532e-05
  6.5748936e-06
  4.7598942e-06
  2.2354423e-05
 -8.5357669e-06
 -1.8572827e-06
 -6.7746180e-07
 -1.0892767e-05
 -2.0033905e-05
  9.7908742e-06
  1.9832602e-05
  2.0101252e-06
  1.3704182e-05
 -1.3494122e-05
  3.3961169e-07
  1.4799846e-05
 -5.8354876e-06
 -1.0156191e-05
 -9.3638791e-06
 -5.7779416e-05
  6.4814105e-07
  3.3979796e-07
  6.5320801e-06
 -6.9299431e-06
  4.1199451e-06
  1.7821321e-05
 -1.1725626e-06
  1.1672442e-05
 -1.2055873e-05
  5.4155375e-06
  2.1451322e-06
  3.2276300e-06
  2.6499563e-06
 -5.3262447e-05
 -2.4160932e-05
 -1.1605391e-05
  2.0569774e-05
 -7.3829506e-06
  1.6274316e-05
 -5.3040349e-05
  3.9782303e-06
  2.0345116e-05
 -1.2777361e-06
  5.1569923e-06
 -1.2903972e-05
  1.7285729e-05
  2.3052294e-06
 -6.4968390e-06
 -1.2667389e-05
  6.3854313e-05
  1.1708231e-05
  5.8960402e-05
 -2.0011732e-05
  1.2869932e-05
 -1.8780946e-06
  2.1968270e-05
  1.3909794e-05
 -6.7854899e-06
 -5.1880784e-06
  1.6947699e-05
 -1.2293503e-05
  2.4759502e-05
  5.8234356e-05
  1.8395993e-05
 -2.1513071e-05
  1.0999939e-05
 -9.8419014e-06
 -1.2745948e-05
 -7.3111269e-06
  1.1746707e-05
 -2.4316629e-05
  1.9126803e-05
  1.9724530e-05
  1.2324657e-05
  2.6208947e-05
  1.0179640e-05
 -4.0443069e-06
  1.6280570e-05
  1.1686722e-05
 -9.0165795e-06
  1.2357893e-05
 -4.0479977e-06
  1.8545008e-05
 -1.1383625e-05
 -9.1286656e-06
  1.5156334e-05
  3.5000477e-07
  1.2218457e-05
 -2.1365102e-05
  7.4694213e-07
 -2.4656612e-07
 -1.9932737e-05
  4.3798300e-06
 -2.0344846e-06
 -1.4129498e-06
 -2.8977240e-06
 -3.0561164e-06
  1.0934147e-05
  1.4801005e-05
 -3.9603892e-05
  2.8481552e-06
 -2.2391859e-02
 -1.3074554e-03
 -2.9497221e-06
  4.0716216e-01
 -1.6424255e-01
 -5.2898800e-01
  3.5966414e-01
  1.4726324e-04
 -3.2186560e-02
 -6.2796622e-05
  2.1263886e-05
 -1.6063431e-01
  5.8807591e-06
  9.5028721e-02
  4.1608969e-06
 -4.8357069e-06
  3.2082599e-01
  8.3777355e-03
  1.2752718e-01
  3.5289791e-06
 -4.1233085e-05
 -3.7178896e-02
  5.7460115e-06
  1.0886107e-01
 -4.9380924e-07
 -7.5871449e-06
 -1.2360937e-04
 -1.6478841e-06
 -5.5850683e-07
  5.8654400e-06
  1.0119449e-05
  2.9055773e-06
 -2.0378569e-05
  8.5464859e-07
 -2.4031244e-05
  3.0904630e-06
 -2.4799349e-06
  2.3243119e-05
 -8.9757432e-06
  1.2987049e-05
  3.6098139e-05
  9.8008577e-06
  2.5169008e-06
  4.1476560e-06
 -4.5379446e-05
 -2.0254103e-05
  2.3652074e-06
 -6.5255517e-06
 -8.7778253e-06
  1.0129216e-05
 -1.3483678e-05
 -4.4421195e-06
  1.2149263e-05
  1.7056773e-06
  7.4080281e-06
  1.0120026e-05
  1.5781477e-05
 -4.6260800e-05
 -9.9836852e-06
 -1.3994353e-05
  1.1321482e-05
 -2.2420006e-06
 -1.1791599e-05
  5.3160561e-06
 -1.7811113e-05
 -4.3817381e-06
  5.2903147e-06
  8.1784401e-07
 -5.5965484e-06
 -1.0261854e-05
 -6.3802154e-06
 -8.4468247e-06
  1.1035978e-05
  1.7590066e-05
 -1.0348267e-05
  3.4526115e-06
 -3.8274629e-05
  1.0629092e-05
  1.4061352e-05
  1.5882504e-05
 -1.3630772e-06
 -6.6707476e-06
 -1.1668109e-06
 -1.1864873e-05
  5.4794349e-05
  1.4466405e-05
  1.0205295e-06
 -2.7439331e-05
 -1.1328639e-06
  4.1493959e-06
  1.1637487e-05
  2.8202010e-07
 -2.2172417e-05
  4.6550203e-06
 -5.9800573e-06
  6.9295147e-06
 -7.8043058e-06
 -1.0913708e-05
 -4.4032290e-06
 -7.6296583e-06
  1.5962760e-05
  4.5005090e-06
  7.2386779e-04
  2.0838144e-05
  1.4577513e-05
 -1.9943607e-05
  3.0815971e-01
  2.3661281e-05
 -4.4454373e-02
 -2.6552749e-05
 -1.0189692e-02
 -3.8057494e-06
  2.6628586e-06
  4.5841563e-05
 -3.7588322e-06
 -1.1776942e-02
 -1.7968719e-05
  1.7421819e-06
 -1.8380892e-07
  6.7804017e-06
 -1.0306397e-05
  2.4754039e-05
  7.2964998e-05
  3.8774501e-04
 -2.0041314e-06
 -1.1938913e-04
 -1.9178211e-05
  1.5168713e-06
  1.2386773e-05
  2.9007665e-06
 -2.1047344e-06
  1.3984842e-05
  9.9566450e-06
  4.0548039e-06
  7.1454951e-06
  3.5877210e-06
  2.7666651e-05
 -7.9022821e-06
  7.7675191e-05
  1.6900628e-06
 -1.8967073e-06
  2.2909418e-05
 -6.3727821e-05
 -4.6867841e-05
 -4.6953996e-06
 -3.4448283e-05
 -4.3743657e-05
 -1.1816806e-07
  3.4823890e-06
 -5.2247146e-06
  8.0808859e-06
 -3.7646728e-06
  3.7640672e-05
  3.2711523e-05
  4.4602443e-06
  7.4503200e-06
 -4.7565386e-06
 -1.2309078e-05
  1.9330791e-06
  8.4807753e-06
  8.1068902e-06
  6.1323276e-06
 -7.4485411e-07
 -7.5170556e-06
 -6.2579825e-06
  8.5269730e-06
  8.0265108e-06
 -6.9339626e-06
 -2.6369926e-01
  1.6596468e-05
 -4.3509364e-02
  4.9210373e-01
 -7.9541646e-02
  1.6226998e-04
 -2.3449248e-02
  1.4275454e-02
  1.6083936e-01
  6.2756680e-02
  2.1027917e-02
 -1.2981650e-02
  2.4976703e-06
 -1.0079298e-06
 -1.2517722e-05
  2.7857495e-03
  7.6179473e-05
  4.3303571e-06
 -3.2282562e-05
  7.0902589e-03
  1.8233780e-02
 -2.6019426e-10
  3.1964322e-07
 -5.8183521e-03
 -5.6254416e-06
  5.2655887e-02
  2.4081767e-06
 -1.1686211e-06
  1.2267190e-05
 -8.6401715e-06
 -7.6532961e-06
  1.6871152e-05
  5.2166602e-06
 -9.2162242e-07
 -6.9654340e-07
  3.9596065e-07
  3.4219054e-05
 -1.0097126e-06
  9.6845397e-06
  2.8634833e-05
 -8.9316727e-06
  2.7852284e-06
  2.0279598e-05
 -3.1618310e-05
 -5.7025063e-06
 -3.3396762e-05
  5.7725915e-06
 -2.2912971e-06
  1.3942624e-06
 -5.2848864e-06
  2.0036134e-05
 -8.8066927e-06
 -8.0115051e-06
  2.2493811e-07
  7.9288429e-06
 -1.7787490e-05
  1.7573182e-05
  4.7280237e-06
 -9.0026624e-06
 -2.0185180e-05
  1.2477475e-05
  4.6725577e-06
 -1.4714522e-05
 -4.5884763e-06
  5.3826006e-06
 -1.2118082e-06
  2.2732916e-06
  1.4320824e-06
  4.1638023e-06
 -6.6195494e-06
  1.0560188e-05
  5.4942780e-06
  1.1789824e-05
 -7.2422363e-06
  1.5131552e-05
 -2.0528318e-05
 -5.3591643e-06
  9.0766571e-07
  3.6260481e-06
 -3.1122340e-06
  2.2842691e-05
 -1.9261313e-05
  1.7608463e-05
 -6.1826249e-06
 -1.6930608e-05
 -1.4370224e-05
  8.3057193e-06
  1.5636520e-05
  3.7344351e-05
  3.7052503e-06
 -7.0939850e-06
  3.2309199e-06
  1.0037064e-05
  3.0842006e-05
  2.0645261e-06
  1.7404896e-06
  3.4913122e-05
 -8.5431193e-06
 -3.4042962e-06
  6.0401958e-06
  1.2373731e-05
 -2.1555011e-06
  3.0757525e-05
 -3.3572476e-06
  1.9259194e-05
  9.0369967e-06
  4.6786909e-06
 -1.8859944e-05
 -2.2897726e-05
  1.1164830e-05
  3.0942956e-05
  5.7441407e-06
  1.1221062e-05
 -1.9881589e-05
  5.5303946e-05
 -1.1022707e-07
 -2.6557356e-05
 -8.1460093e-06
 -1.1559279e-05
  1.4089122e-05
  1.5857660e-05
 -1.8502896e-06
  3.5047055e-06
 -5.0818911e-05
  7.3063984e-07
  1.1295962e-06
  2.3360739e-05
 -4.8501209e-07
 -1.7719693e-05
  1.7259869e-06
 -8.3511040e-06
  1.2203272e-05
 -1.8549930e-06
  1.9247957e-05
  4.2329734e-06
 -5.3219787e-06
 -1.2904717e-05
 -2.7714117e-05
  1.7603128e-06
  2.4546032e-05
 -3.4132736e-06
 -2.1075825e-06
  4.9855100e-07
 -2.5942003e-05
 -5.4023017e-06
  1.1300127e-05
  8.7752214e-06
 -9.2684659e-06
  6.2095110e-06
 -3.6100901e-05
 -4.1303241e-07
 -1.1229269e-05
 -3.5105845e-07
  7.5282487e-06
  1.0624719e-05
  1.3291759e-05
  2.6672071e-05
  8.1843236e-06
 -7.0049323e-06
  9.7293987e-06
  3.5098628e-07
 -1.7151651e-05
  4.7145791e-06
  2.8900215e-06
 -6.2090830e-06
 -9.9650315e-06
  1.2823069e-05
  1.8047109e-05
 -6.6091184e-06
  1.5296569e-06
  3.2500695e-05
 -1.2719416e-05
 -1.0076065e-05
  7.3642173e-07
 -1.2282846e-05
  4.8927200e-06
  6.1268729e-06
  1.4515434e-06
  5.5829955e-06
 -2.1454813e-05
  4.9911205e-07
 -1.7729568e-05
 -9.2810315e-06
 -5.2816936e-06
 -1.0805592e-05
  1.8457962e-05
  9.8497103e-06
  1.8064617e-05
 -7.2168391e-06
  3.1531636e-05
 -7.2585954e-07
  1.5600924e-07
  9.2231596e-07
 -8.7765529e-06
 -2.6671562e-06
 -4.2294556e-07
 -1.0041140e-05
 -7.3230672e-06
  1.0699323e-05
  2.3446730e-06
  9.8365090e-06
  4.3795199e-06
 -7.9569072e-06
 -5.1247775e-06
  4.7558290e-01
 -1.5104495e-06
  1.6918777e-02
 -7.6015902e-01
  8.3587104e-03
  6.5155976e-02
  9.1368526e-02
  2.2315332e-01
 -3.3609316e-02
 -2.8793842e-02
 -5.1643226e-02
  2.8038250e-02
  3.8034673e-06
  5.5160772e-02
  5.7723037e-06
  1.1687197e-02
 -2.5741785e-05
  2.9325196e-05
  7.7629710e-07
 -5.7607535e-03
 -1.5629417e-03
  1.2058417e-05
  2.3100400e-05
  8.5393774e-05
  1.5501467e-06
 -6.9097593e-02
 -2.8714717e-06
 -3.8196595e-06
 -1.1669508e-05
  3.4429888e-06
 -7.3058945e-06
 -1.3500246e-06
  7.6466667e-06
 -4.0805430e-06
  5.8979866e-05
  3.3468684e-06
 -2.0725127e-05
 -1.3557514e-06
  5.4905107e-05
 -2.0208133e-06
  4.4637898e-07
  2.1794341e-04
  1.4351686e-05
  1.4667217e-05
  2.9809455e-05
 -1.2226775e-05
 -2.9561909e-07
  2.0609971e-07
  3.0111003e-06
  1.9964480e-06
 -1.0950751e-05
  6.0790167e-06
 -1.8630919e-06
 -2.9837979e-06
  2.8184838e-06
 -1.8216195e-05
  6.8534450e-06
  1.5069138e-05
 -9.5829137e-07
  1.0847640e-05
 -2.2961340e-05
 -5.0980352e-06
  9.8836754e-06
  4.3944765e-06
  2.5373599e-06
 -2.7821633e-07
  4.3026859e-07
 -2.3127807e-06
  2.5542638e-01
  4.7553727e-01
  1.6786165e-05
 -1.5256609e-05
  9.5509322e-06
 -9.4641507e-01
 -6.0865541e-06
 -1.0710702e-05
  3.4122875e-06
 -6.0865432e-06
 -2.9873545e-05
 -7.0902965e-06
 -5.8213118e-05
 -1.0874368e+00
 -2.4997513e-01
  7.2721036e-07
 -1.0140798e-07
 -3.8795911e-06
 -2.5572233e-05
 -2.5577686e-04
  5.9785813e-01
  1.4916687e+00
 -2.5805584e-06
 -2.3213579e-06
 -3.0275469e-06
 -4.7600568e-07
 -1.9078554e-06
 -2.6127924e-07
 -1.2930330e-05
 -7.1273208e-01
  1.6401674e-07
  7.6043125e-06
  1.1226584e-05
 -1.4863951e-05
 -6.7864521e-06
  6.7105707e-06
  8.4818445e-02
 -1.2471170e-05
 -4.4871632e-07
  7.0589290e-06
  6.0172179e-06
 -6.4233919e-03
  4.0397836e-07
  1.4760474e-07
 -9.2165936e-07
  4.6117516e-06
 -1.2605613e-04
  1.3219270e-01
 -2.9088555e-06
  1.5849789e-06
  1.3516598e+00
 -4.3964186e-01
  4.7140016e-05
  1.6431168e-06
  1.0838081e-05
 -4.4235140e-01
 -8.1672160e-06
 -2.7702084e-01
 -8.9514786e-03
  6.8178735e-05
 -7.4772688e-06
 -1.2570694e-05
 -3.3521749e-06
  6.0611099e-01
 -2.3077900e+00
  8.1198605e-06
  2.0165569e-06
 -1.5455525e-05
  1.6184658e-05
  1.1263489e-03
 -9.5949072e-01
  1.2706838e+00
 -3.9271313e-06
  5.2881753e-01
  4.0966129e-01
 -3.2281710e-06
  2.8680740e-06
  3.7098250e-06
 -2.9953346e-06
 -6.4269894e-01
 -7.3662213e-06
 -8.7626786e-06
 -1.9274801e-06
 -2.6026890e-05
 -8.3078764e-02
 -1.2944985e-05
 -3.0636248e-01
 -1.0227473e-05
 -1.1438088e-06
  2.0025107e-01
  1.2357417e-07
 -3.7645414e-01
  3.3503891e-06
  3.4429630e-07
 -3.2074090e-07
  7.3871474e-06
  3.0826673e-06
  4.5778152e-01
 -3.7118994e-07
 -2.7689488e+00
 -1.6698019e-05
 -2.7286609e-05
 -3.8572566e-06
  4.7996346e-05
  2.8783647e-06
  6.3027960e-07
 -6.2274767e-06
 -1.1494561e-05
 -4.2159438e-05
 -6.4762332e-07
  4.6388550e-06
  1.6954689e-05
 -6.8624072e-06
  3.8739809e-06
  1.1411393e-05
  1.8621965e-06
 -9.4526740e-06
 -1.9602528e-05
  1.2693862e-07
  1.3450027e-05
 -4.5198417e-06
 -1.1466152e-05
  9.9872714e-06
 -5.1214147e-06
 -6.5318832e-06
  4.3510558e-06
 -2.9974967e-06
  1.9957592e-05
  3.1652009e-05
  5.6135905e-06
 -1.4708889e-06
  8.9241321e-06
 -1.3242721e-05
 -3.1916359e-06
  2.4377885e-05
 -1.6588656e-06
 -1.0036642e-05
  1.0626233e-05
 -7.0198377e-07
  9.3756180e-06
 -6.1105527e-07
  1.3423474e-05
 -1.0230430e-05
  4.2090060e-06
 -7.3504639e-06
 -7.5065191e-06
 -9.7232232e-06
  2.0329149e-05
  8.7223152e-06
 -3.3507583e-06
  5.3883664e-06
 -1.0121280e-05
 -1.1380964e-05
  2.5870083e-06
  6.5181143e-06
 -1.7718282e-06
 -7.0124059e-07
  1.7672024e-05
  8.3710402e-06
 -1.4141381e-05
  5.4385318e-06
 -2.1079736e-06
  1.7579338e-06
  5.6229333e-06
 -1.4466157e-06
 -1.5926275e-05
  4.5167935e-06
  1.6200937e-07
  7.9351357e-06
 -1.4147548e-05
 -7.9349593e-06
 -1.3142497e-05
  8.4792591e-06
 -3.2587316e-06
 -3.2173214e-06
  1.2276304e-05
 -6.2576823e-06
  3.5629398e-06
  1.8048826e-05
 -1.9784746e-05
 -1.6022201e-05
 -7.9539604e-06
  3.1381639e-06
  1.8478758e-06
 -7.8762905e-06
 -3.9613406e-07
  1.3504912e-05
 -1.8096406e-06
 -3.3629992e-06
 -9.5572323e-06
  4.3817136e-06
 -3.2908792e-07
 -5.2635827e-05
  1.9990259e-06
  7.8638323e-06
  1.4133993e-06
  2.5354575e-06
  8.6990513e-06
 -2.4985118e-05
  7.3635533e-02
  2.1325764e-01
 -1.4087982e-06
  2.8120360e-01
  5.7817520e-06
 -1.0939403e+00
  1.1228942e-01
 -1.3480521e+00
  5.8421320e-01
 -6.3539943e-07
  6.5822869e-06
  9.4652205e-07
  4.3438074e-05
 -1.8620363e-05
 -2.7473905e-04
  2.6382391e-05
 -8.7481691e-03
  1.6875883e-05
  6.0335092e-02
  1.1366807e-01
 -1.7232139e-03
  2.9471204e-01
 -9.7828943e-06
  1.1086352e-03
  1.4651713e-02
 -3.5873151e-01
  2.0558763e-01
  3.8117157e-06
  6.9405410e-06
  6.8016059e-05
  1.7849305e-05
  1.8338252e-06
 -1.2102352e+00
  1.6640291e-01
 -1.3137184e+00
  1.4977999e-01
  3.2607898e-02
  7.0061047e-05
 -5.6757021e-05
  2.8786570e-01
 -1.6745760e-05
 -3.2679995e-06
  5.3612835e-06
 -4.6192381e-06
  2.3091313e-01
  2.4825009e-05
  1.4872254e-01
 -1.1749425e-01
  1.8564849e-06
 -1.0882756e-05
  6.6789955e-01
  1.9928096e-02
 -7.5087953e-01
  2.7090195e-01
  3.5412831e-04
 -2.2824524e-06
  5.5484420e-01
  2.6568109e-01
  7.5726748e-06
 -9.8283720e-01
  2.7051835e-06
 -8.8530600e-01
  4.1273615e-01
 -1.0482221e-06
  2.1411869e-01
 -2.1236840e-01
  1.0803976e-06
 -2.8693028e-06
  4.4469001e-05
  2.0622481e-02
  2.2498175e-06
 -5.0935264e-06
  4.8247384e-05
 -3.0389151e-06
 -4.6924338e-01
  2.4024314e-01
 -1.3952885e-05
  3.9699763e-01
 -6.8679668e-02
 -8.4893560e-01
  2.8395876e-01
  2.4567089e-05
  2.5620215e-05
 -3.9195835e-05
  2.0005466e-05
  6.3297525e-06
 -3.2478729e-01
  3.5008958e-01
 -6.5949530e-04
  3.0660129e-01
  3.3483084e-05
  1.7516033e-01
 -2.5744104e-01
  1.7123471e-01
  4.6917889e-06
 -8.7482768e-01
  1.5983162e-05
 -4.5706692e-01
  2.3278137e-01
  2.0285413e-05
  5.5304790e-06
  9.9777544e-06
  9.5300566e-06
 -1.9765523e-06
 -4.0509181e-06
 -2.1218787e-06
 -1.7301424e-01
  1.0189458e-05
  1.3630213e-05
  1.7149980e-05
  1.7842574e-05
 -2.8182797e-06
 -1.1940012e-05
  5.9940942e-07
 -2.8933495e-05
 -3.8044295e-06
  4.9476284e-06
  5.2162259e-06
  2.3171360e-06
 -7.6183796e-06
  3.2595929e-06
 -1.0474812e-05
  1.7297618e-05
  7.1852555e-06
 -1.2827386e-06
  3.4742396e-05
 -4.0401096e-06
  4.0025752e-06
  7.2857212e-08
  9.9540957e-06
 -1.1564040e-06
 -9.4569286e-06
 -2.1172482e-06
  1.0824112e-05
 -1.9074407e-06
 -4.6128312e-06
 -2.8751308e-06
 -3.2081598e-06
  2.0950312e-05
  1.3323452e-05
  1.0330872e-05
  1.4851531e-05
 -3.1179252e-06
 -3.7204265e-06
  6.3180860e-06
 -2.6669613e-06
 -2.2340349e-05
 -4.7382637e-06
 -1.9483750e-05
  2.0533237e-06
  1.8230014e-05
  2.5845296e-05
 -6.7310120e-06
  7.7761406e-06
 -2.6573016e-05
  1.6883336e-06
 -2.2858190e-05
  3.3922386e-06
 -8.1935304e-06
  2.2526783e-06
  6.8829222e-06
  2.5373154e-05
  1.2949366e-05
  1.7855582e-05
  5.6978392e-06
  2.4445890e-05
 -1.3655700e-05
 -2.9437911e-06
 -2.5323259e-06
  2.5371321e-05
  6.5431959e-07
  2.0978239e-06
 -1.1534106e-06
 -8.4301146e-06
  6.0817740e-07
  1.8609255e-05
  1.2579991e-05
  2.8045556e-06
  1.8189852e-05
  6.1536953e-06
 -7.1641352e-06
  9.5194200e-06
 -9.4998759e-06
  8.5998827e-06
 -2.2509969e-06
 -6.3107643e-07
  5.4622847e-06
 -8.4114927e-06
  2.2351227e-05
  2.9833227e-06
 -2.2872200e-05
  1.4254930e-05
  2.3581290e-06
 -2.7232163e-06
  1.1671444e-05
 -4.1708506e-07
  3.6978417e-06
  1.0396677e-02
  2.5124029e-05
  7.3634345e-07
  1.8159917e-05
  5.4932689e-06
  3.3615745e-06
  7.5617594e-05
  1.7455281e-05
 -2.8542925e-07
  3.4386095e-01
  8.0345872e-06
 -2.3967309e-06
  2.4233852e-05
  2.0105506e-06
 -9.1938477e-07
 -6.7843412e-06
 -1.0177939e-05
  3.1192001e-05
 -2.7862147e-06
 -7.7111662e-07
  1.8796969e-06
  5.7378202e-06
  1.1322686e-05
 -9.3123545e-06
  1.7593335e-04
 -6.8743662e-05
  4.6700450e-07
 -1.5758419e-03
  5.2796358e-06
  2.6889034e-05
  4.2195031e-03
 -3.0965061e-06
  1.1572193e-05
  1.7861196e-06
  3.1691638e-03
 -9.5072764e-06
  4.7828209e-01
  3.3238791e-06
 -1.2084911e-05
 -9.9050176e-06
  3.3895765e-06
  4.4433086e-06
 -8.7950802e-06
 -1.6206035e-05
 -1.2994733e-06
 -2.4044655e-01
 -1.4373695e-05
  1.1654613e-05
  3.6497932e-02
 -3.4015573e-06
  8.2139495e-06
  9.5906790e-04
  2.7003554e-07
 -2.4615714e-05
  4.1189629e-01
  4.2666936e-05
 -7.1653784e-07
  7.0438042e-02
 -1.5685305e-07
  1.8356990e-05
  1.2001711e-01
  1.1134905e-01
  6.3435429e-05
  6.4192274e-05
  1.0098251e-05
 -2.1021208e-06
 -3.6000827e-04
  2.7487231e-05
 -5.9442878e-06
 -2.8652496e-06
 -5.2241664e-02
 -2.4668528e-03
 -1.5591572e-01
  1.4799823e-04
 -5.0985750e-06
  4.1146544e-05
 -3.3142493e-05
 -3.2831878e-05
  2.9905647e-01
  3.0325884e-03
  2.7477490e-03
  1.1513105e-01
  4.4266558e-06
 -2.1827501e-07
  1.0874006e-05
  3.7669602e-06
 -4.7024587e-05
  1.4350752e-04
 -6.5317554e-06
 -5.0609153e-05
  2.6299367e-03
 -5.9096750e-05
  1.1979307e-05
  3.7995923e-02
  3.2291016e-05
 -1.8549246e-05
 -3.0587353e-03
  4.4042951e-01
 -1.7330840e-01
  7.9601490e-01
 -2.2873069e-01
 -4.7545767e-01
  7.0326473e-03
 -6.2359762e-01
  4.3087476e-07
  1.1069735e+00
  5.8955979e-01
  9.4895011e-01
  5.7519591e-01
  7.5483658e-06
 -6.5064701e-06
 -9.7887705e-06
 -3.8613831e-07
 -2.2205106e-06
  5.1089683e-05
  2.7027093e-06
  6.4114011e-03
 -3.3349032e-04
 -2.1236391e-01
 -3.9399335e-01
  1.2844236e-01
 -6.4603001e-01
  2.9729326e-06
 -1.0213846e+00
  9.9636358e-01
  8.7278313e-06
 -2.0583504e-01
 -1.5486668e-06
 -5.9760191e-02
 -9.0656133e-05
 -2.2811785e-06
 -1.0203972e-05
  9.8541321e-04
 -1.1594488e-01
  5.3986293e-01
 -5.2403706e-01
 -1.6090348e-01
 -2.1621130e-02
  2.0655338e-05
 -5.1530010e-01
 -3.1430311e-05
 -2.5891259e-06
  7.1371633e-01
  8.3572492e-02
  1.8148618e-05
 -3.9671009e-05
 -3.5776094e-01
  7.7814363e-02
 -4.8817397e-05
  6.4494097e-06
 -1.6668504e+00
 -1.9208594e-04
 -2.4191826e-03
  4.8236972e-01
 -9.7112469e-02
  8.4686426e-06
 -1.1751269e-02
 -3.9952263e-01
 -2.1865289e-06
  1.3225590e+00
  4.4258738e-01
  3.7828612e-01
 -5.9337962e-01
 -5.7528655e-06
 -4.7100413e-01
  1.0452613e+00
 -2.9375173e-02
 -1.5881107e-05
 -7.2625466e-02
  1.2188291e-02
  2.8058144e-01
  1.6987278e-01
 -2.6103312e-02
 -3.0879764e-05
  5.0152683e-01
 -3.5959220e-01
 -1.7588902e-05
  3.6127308e-01
  7.8372508e-01
  8.3445317e-01
  1.1063494e-01
 -2.0636555e-02
 -1.5438399e-01
 -1.1462171e-01
 -5.6598419e-03
 -2.8450293e-06
 -2.5181342e-02
  5.3559291e-01
  9.4677436e-01
 -1.3888103e-01
  4.0781626e-07
 -4.9623880e-01
 -5.6344897e-01
 -4.4288179e-01
  5.4734137e-06
  3.3920068e-01
  4.7301024e-01
  1.6608347e-01
 -2.7643798e-02
  1.8564620e-05
 -1.0909288e-06
  4.1356925e-06
  1.4244101e-05
 -6.2077302e-06
 -6.3176340e-06
 -1.5280508e-01
 -5.6009185e-02
 -5.0308418e-01
 -1.3028510e-06
  4.0823510e-05
  1.4658223e-06
  4.5788688e-06
  1.3142568e-05
  2.4878987e-06
  6.3798552e-06
  9.5125988e-06
  9.6065769e-06
 -2.4546714e-06
 -4.3101140e-06
 -3.2103970e-05
  9.5849318e-06
  6.5309628e-08
 -4.1676838e-05
 -6.0670808e-02
 -9.4910465e-06
 -2.9027268e-01
  1.0207966e-05
  2.0455939e-06
  1.1924702e-04
 -4.9251967e-06
 -1.8487395e-05
  1.1065963e-05
  2.0683683e-02
 -6.1183877e-02
  4.2383173e-01
 -7.0389374e-06
 -1.2502509e-06
 -2.6117375e-06
  9.6073200e-07
 -1.8544493e-05
 -4.0264576e-06
 -1.6831656e-05
  1.6089009e-06
 -3.8150620e-01
 -8.3907616e-06
  7.9374055e-05
 -1.8095874e-05
  2.1807118e-06
  6.2025902e-06
  6.1210785e-06
 -1.3367404e-05
  3.6286153e-06
  4.3127558e-01
 -1.4120052e-05
 -2.8619199e-06
  8.1727076e-03
 -5.2886553e-06
  1.9329530e-06
  3.4830668e-06
  3.2559969e-03
 -8.8314123e-02
  6.3280990e-05
 -7.6117785e-06
  9.1629437e-07
 -5.9316359e-03
 -2.4150470e-06
 -4.5451384e-06
 -4.5516708e-06
 -1.2681256e-01
  3.7590626e-06
 -3.6691099e-01
  2.0040545e-05
 -1.7784590e-05
  6.6040629e-05
  9.7346083e-06
  3.2650688e-04
 -1.4544375e-01
  9.2541268e-03
  6.1008134e-03
  3.6565548e-01
 -4.0910577e-06
  3.4993452e-06
 -2.5685491e-05
 -4.9257915e-06
  6.8766394e-06
  6.0215984e-06
 -4.1151201e-05
 -1.8766037e-01
 -2.5433066e-01
  2.0441059e-05
  6.1880513e-05
 -4.5192282e-05
  2.1672291e-05
  5.1374836e-06
 -4.2152576e-04
  1.4818370e-01
  2.2986687e-05
  6.6280313e-02
  1.8893584e-07
  1.8378481e-01
 -2.6833019e-01
  2.1164849e-01
 -4.7199355e-06
  7.1894777e-01
 -5.3730005e-01
 -6.3288951e-01
  1.0669392e-05
 -5.7126890e-06
  7.0919491e-06
 -7.0116621e-05
 -4.8910074e-06
 -2.4534716e-06
 -2.1451359e-04
 -4.2583852e-06
  1.4383760e-06
  2.0129906e-05
 -7.4298218e-06
  1.5608975e-01
 -4.0146008e-02
  2.4910429e-01
  4.6118166e-06
  4.3323673e-02
 -4.7363731e-01
 -1.9584153e-05
  2.3452880e-02
 -8.9315135e-06
  4.4643264e-05
 -7.0594460e-02
  8.6232967e-06
 -4.3984737e-06
 -7.7536869e-01
  6.2148611e-06
 -5.9198362e-01
 -2.0073645e-01
  1.1466653e-06
  9.1178641e-02
  1.8807776e-05
  3.1033581e-01
 -2.0493839e-05
  1.6589727e-05
 -3.7426195e-01
 -2.2262575e-05
  3.2515129e-01
  7.7396653e-06
  2.0374349e-05
 -4.8081055e-02
 -3.6561485e-06
 -7.0099131e-06
  3.7442504e-03
 -1.3516404e-04
 -9.9780515e-02
 -5.0733840e-01
  4.6116215e-06
  1.6577128e-02
 -1.0583941e-01
  3.3928230e-01
  1.4068548e-05
 -1.0916849e+00
 -3.8939589e-01
 -5.6751424e-01
  2.7765188e-01
  8.6490882e-06
  1.6992167e-04
  5.3133331e-06
  4.2012707e-06
  1.2612844e-06
  7.4824423e-02
 -1.1199749e-04
  2.1540094e-05
 -1.6958913e-01
  1.8852495e-06
  5.0805690e-04
 -6.0289808e-02
  2.5048015e-01
 -2.3277662e-06
 -2.9750863e-01
 -1.5370417e-01
 -3.9583796e-01
  3.7607390e-02
 -5.2863293e-06
  1.4127405e-04
 -1.5491048e-01
  3.7300438e-06
  7.1531567e-06
  1.7373699e-01
 -2.4274312e-01
 -2.5764838e-01
 -1.2445421e-01
 -4.8055326e-06
  4.5762423e-02
  2.2420099e-05
  5.5288823e-05
 -2.5286349e-06
 -2.0535842e-01
 -2.7435222e-05
  3.5340556e-05
  4.1620490e-01
 -7.4150330e-06
 -5.4931482e-03
  4.9776295e-01
  6.3978409e-06
 -3.3593537e-05
  1.1322304e-04
  7.6078349e-01
  2.9132482e-01
 -4.2463675e-01
 -6.6788830e-06
  1.9711815e-06
  1.0461713e-04
  6.8686672e-06
 -1.8828902e-06
  3.0993067e-06
  3.1795742e-06
 -1.5241825e-05
 -4.9812074e-06
 -6.9974254e-07
 -2.4602624e-02
  1.6701402e-01
 -7.3026354e-06
 -4.4596090e-06
 -4.6678604e-05
  4.5368826e-01
  2.9364050e-05
 -6.3930696e-01
 -7.2809312e-06
  7.0108363e-06
  8.6673206e-01
 -9.1987243e-07
 -2.6810082e-07
  4.2451635e-01
  3.5754824e-01
  1.1194327e-01
  1.4367060e-01
  6.8535221e-05
 -1.5373960e-01
  1.8819429e-03
 -1.0524354e-01
 -5.2565483e-06
  1.3496388e-05
  3.1756628e-01
 -9.7899863e-07
 -4.5628187e-01
  4.1871322e-06
  2.0067284e-05
  2.3132991e-02
  2.1544717e-02
  4.2355318e-06
 -4.0138015e-03
  3.9997047e-01
  4.2290062e-02
  1.4320720e-04
  2.2804454e-05
 -2.1141098e-01
  5.1239294e-01
 -1.8163036e-01
  6.7297174e-06
  1.5937293e-02
  2.7495572e-01
  6.2911056e-02
 -3.3303016e-04
  3.3386386e-05
  2.7191994e-05
 -1.4508325e-01
  2.7131684e-02
 -1.2428761e-06
 -3.8086955e-04
  4.7707447e-01
 -1.6604854e-05
 -2.7995110e-01
  2.8428219e-06
 -9.6609771e-02
  1.2377390e+00
 -7.2020650e-02
  1.3051949e-06
  2.7898228e-04
  1.1142742e-01
  5.7318524e-02
 -1.8230602e-01
  6.2392086e-05
 -2.0289926e-05
  6.5111536e-01
 -1.6045697e-05
 -7.2621619e-06
 -7.2367422e-02
  6.9177854e-01
  4.4503456e-01
  7.0616193e-02
  1.9431489e-05
  3.8597550e-06
  1.1828134e-06
 -3.5321435e-07
 -3.7352416e-05
 -3.1437908e-04
  5.7276484e-02
  8.5399717e-02
 -2.1771295e-01
  4.5231641e-03
  1.8707885e-01
 -3.3401360e-04
  2.2811310e-01
  1.1034337e-05
  1.7313156e-01
 -1.0271290e-01
  3.8200381e-01
  1.2328848e+00
  9.4189918e-06
  5.0095746e-06
 -5.6582112e-06
  1.3159673e-05
  1.4430717e-05
  5.5043661e-06
 -1.0530703e-05
  2.9366868e-06
 -3.0672218e-06
  1.0584356e-04
  1.3329995e-01
 -1.2638417e-04
  2.0661063e-01
 -5.2502201e-06
  3.4215532e-02
 -1.4482582e-01
  2.2790047e-05
  1.0260146e+00
  1.4666241e-05
  7.9002439e-07
  5.3477338e-06
 -2.4378387e-06
 -1.8261100e-06
 -8.3702369e-05
  1.1109595e-04
  1.8689403e-01
  8.0874033e-02
  1.9362084e-05
  3.3449076e-05
  4.0754762e-07
  1.2494839e-01
  1.4218392e-06
  3.7183985e-05
 -2.1536824e-01
  4.2105162e-06
  6.8745154e-01
  5.0207536e-06
  7.4090049e-02
 -2.9754590e-02
 -2.3105501e-06
  1.4045117e-06
  9.7370306e-03
 -7.6539021e-05
  1.6887601e-01
  4.3636274e-01
  1.0037799e-05
  9.0417252e-06
  1.9084364e-05
  6.0150534e-02
 -5.2477722e-06
  2.9619318e-05
 -4.8681270e-02
  2.4789521e-01
  2.8603867e-01
  6.7259675e-06
  1.3820136e-01
 -1.5565280e-04
  2.9411801e-04
  3.3035178e-07
  7.1202442e-02
 -5.2312862e-05
 -1.1032972e-03
  1.0422711e+00
  2.2907127e-05
  3.7966993e-06
 -2.6647821e-02
  4.5451820e-02
  2.5945581e-06
  2.7937423e-02
 -2.1567417e-04
  5.8000529e-01
 -1.6842569e-05
  4.5530567e-07
  1.0822462e-03
  2.3144037e-06
  3.3627137e-05
 -4.8415154e-06
  1.6430423e-02
 -1.6560680e-01
  1.3814552e-01
  1.2347442e+00
 -8.1736180e-06
  1.8191159e-01
  5.8141927e-06
  1.2524234e-01
 -2.8204829e-06
 -1.5983716e-02
 -7.7562785e-05
 -4.6914756e-02
  1.2711799e-01
 -3.2891437e-06
  1.3494357e-05
  8.0484194e-01
 -1.9486581e-06
  3.9407855e-06
  9.7578901e-01
 -1.8514209e-05
 -9.8855287e-01
  1.8519504e-01
  7.6547949e-06
  1.6572974e-05
  1.9151374e-05
 -2.0222974e-06
  2.1293690e-06
  1.8725776e-05
 -1.2033877e-06
 -1.2732311e-01
  8.0040189e-07
  2.3620498e-05
  5.4163581e-07
  2.6171067e-01
 -4.0415866e-06
 -9.1540314e-06
  6.4301893e-02
 -6.9952436e-02
  7.7215648e-01
  4.5728847e-02
  3.3461572e-05
  1.3305646e-05
  8.5362405e-01
  3.6657520e-06
 -2.5250558e-06
  1.1569397e+00
  1.9054886e-04
 -6.6105390e-01
  1.4805174e-02
 -3.9573642e-05
  1.2808294e-05
 -2.2487561e-03
 -4.7305397e-07
  7.2866433e-06
  4.4600070e-01
 -2.2250891e-01
 -2.2095957e-01
 -4.3116110e-05
 -1.9201652e-05
  5.7888765e-06
  1.1053470e+00
  4.9585906e-06
  1.8753165e-06
  3.4248513e-01
  6.2519059e-02
 -7.0256090e-01
  1.9283932e-01
 -5.3277381e-06
  6.3708512e-06
  1.2376753e-01
 -1.2196849e-05
 -7.0956116e-06
  1.2447742e+00
 -8.2932234e-02
 -1.3837718e+00
  3.4371708e-06
 -5.0870299e-06
 -6.9168523e-06
  5.8178109e-04
 -2.3021573e-06
  6.7086085e-06
  2.9436278e-01
 -4.6743731e-05
 -3.9723736e-01
  8.4274903e-02
  8.4655164e-07
 -2.3279466e-05
  1.1835701e+00
 -7.3979481e-06
  7.2425200e-06
 -2.2408000e-01
  8.6603286e-03
 -4.8544070e-01
  1.3949905e-01
 -6.2499239e-06
  1.3489879e-06
 -1.0015680e-05
  5.6907043e-06
  3.5179396e-06
  2.2933548e-02
 -1.2533495e-05
 -1.6125834e-03
  1.2616594e-03
 -2.5290519e-05
  2.4428984e-06
 -6.2959084e-06
 -1.4328843e-05
  8.6572627e-06
 -1.2627163e-05
  5.2862009e-07
 -7.2757184e-06
 -1.4023280e-07
 -2.9114642e-06
 -1.5639025e-05
 -2.2856295e-05
  2.6052751e-06
  2.2632816e-05
  2.5073904e-01
 -5.3336412e-06
 -4.3837447e-04
  7.4657466e-05
 -1.3928390e-05
  3.6162005e-06
  2.0783518e-05
  3.3211265e-06
 -7.3504575e-06
  1.1182855e+00
  1.6022796e-06
 -1.5636381e-04
  4.5123006e-06
 -7.2550147e-06
  3.4005627e-06
 -6.0473240e-06
  6.5658696e-06
  1.4077491e-06
  2.0238358e-01
 -2.4274586e-05
 -3.0359747e-06
  6.1975456e-06
  1.8131577e-05
 -2.7656124e-06
 -1.1072354e-05
  5.4997113e-06
  9.3478820e-06
  3.9887467e-01
  2.1114440e-08
 -1.6176520e-01
  7.3304486e-06
 -1.2201886e-05
  1.9752984e-05
  6.9696657e-06
  4.0315745e-06
 -7.7291170e-06
  7.3040444e-01
  2.7292184e-05
  1.8356881e-01
  1.0628351e-05
 -2.3769673e-05
  4.5800538e-05
  1.7116920e-06
 -5.8106825e-06
  2.1119085e-06
  2.4582429e-02
  8.8637917e-06
 -5.3317338e-01
  3.7904689e-03
  8.0489718e-07
 -1.6363056e-06
  2.1328189e-05
  3.1525476e-06
 -4.8535994e-06
  4.4701353e-01
 -2.1364360e-05
  4.4170594e-01
  1.7454924e-05
 -2.3841558e-07
  6.3302969e-06
 -1.2083177e-05
  3.5454384e-05
 -7.0117080e-06
 -1.0421523e+00
 -4.6052442e-06
 -2.2744400e-05
  7.7079276e-06
 -5.3284120e-06
 -6.1785063e-06
  2.4070703e-05
  1.5903014e-06
 -6.2665964e-07
 -6.3304833e-05
 -1.7419747e-05
 -1.4207306e-05
  2.7869875e-05
  1.4788364e-05
  1.1993166e-05
 -6.0560187e-06
  1.5120685e-05
 -6.0481916e-06
 -7.1403575e-01
  6.3682514e-06
  5.3654180e-06
  1.3062239e-06
 -9.0776342e-07
 -1.0079916e-07
  6.0357524e-06
  6.5560612e-06
  3.2115975e-06
 -7.7362567e-01
  3.5135072e-06
 -1.7567456e-06
 -2.9502071e-06
  4.5807010e-06
 -2.0108078e-05
  7.1692461e-06
  1.0624000e-05
 -1.8071021e-06
  3.9153451e-06
  4.6995199e-05
  1.8052966e-05
 -4.5775832e-06
  3.9123347e-06
  3.1584639e-06
  9.1928523e-06
  8.4400915e-07
 -3.8099608e-06
 -1.2352077e+00
  6.8744757e-06
  4.1168198e-07
 -1.2336295e-06
 -4.9785871e-07
 -1.4742679e-05
  2.1664280e-05
 -3.1143436e-06
  2.5333859e-05
 -2.0641565e-01
  2.2847089e-06
 -3.5543517e-06
 -2.0970954e-06
  5.6455428e-06
  9.0273693e-07
  7.4066106e-06
 -7.4095756e-06
  8.9015684e-06
 -1.5282942e-01
  1.7868077e-05
 -1.6655382e-06
 -3.2660705e-06
  2.1598569e-06
 -8.0937716e-06
  1.3725651e-05
 -5.9646582e-06
  4.3389186e-06
 -9.9541396e-01
 -5.0839108e-06
  2.0300076e-06
  2.1428301e-05
  3.0171109e-06
 -9.6481326e-06
 -3.7097223e-06
  5.0007966e-06
  9.8709952e-06
  6.9089634e-05
  6.4474559e-01
 -8.9619547e-02
 -2.2538668e-03
  1.5531888e-05
 -3.6113875e-07
 -6.3636821e-06
  8.9934201e-07
 -1.1817054e-05
  4.7283852e-06
  6.1005918e-05
 -2.6111852e-06
 -1.6819449e-05
  7.7290561e-06
  6.8073796e-06
 -1.4671476e-05
 -7.4851773e-06
 -3.5095763e-05
  1.5281783e-05
  3.9265659e-01
  3.3194616e-02
 -6.4462838e-05
 -3.7512214e-05
 -5.1626880e-06
  9.8156906e-06
 -1.9054484e-06
 -7.2524354e-06
  6.0455200e-08
  1.4644466e-01
 -5.6744203e-02
 -2.2876361e-07
 -5.1974407e-06
  2.0122920e-05
  2.1965493e-06
 -9.8030741e-06
 -1.8341809e-05
 -1.9681558e-05
  1.8937823e-01
  2.7218816e-01
 -1.0535939e-02
  7.7466320e-06
 -6.0585319e-07
  5.3417184e-06
 -1.6208742e-05
 -6.1971732e-06
  3.1910399e-01
  2.5589430e-01
 -4.5696404e-03
  3.9200158e-06
 -5.4449160e-06
 -1.1207091e-05
 -1.9667691e-06
  7.6587901e-05
  6.9079460e-06
 -1.1302859e-01
  2.4783915e-01
 -1.7242788e-05
 -1.4722370e-01
  9.4792023e-07
 -9.2825876e-06
  5.8320325e-06
 -6.5744882e-07
 -5.8369710e-06
  1.4772658e-01
  1.8386367e-01
  4.2438504e-01
  8.4709734e-02
 -1.7969027e-06
 -6.9487771e-07
 -1.5597788e-06
 -4.3573750e-06
  1.9763744e-05
  1.2296547e-01
  4.7255132e-01
 -4.0780652e-01
 -3.6728597e-01
 -2.7485682e-06
  4.6502419e-06
  4.9170180e-06
  5.4464822e-06
 -1.1680202e-05
  1.6612365e-05
  2.0159983e-04
 -3.5300270e-01
 -3.2338211e-01
 -1.2837967e-05
  6.7032561e-06
  4.7002231e-06
 -1.1034355e-05
 -3.3139636e-06
  6.5435252e-06
  4.6527562e-06
 -5.4641123e-06
  2.1503780e-05
 -5.0188160e-06
  3.0263960e-05
 -5.6582630e-06
 -2.0159969e-05
  4.8341085e-06
 -1.7116963e-05
  3.6761325e-04
 -2.9389173e-01
 -2.1321294e-01
  1.6143635e-05
 -2.2638165e-05
  4.2110019e-05
  5.3956551e-06
  5.5552488e-07
 -1.6830961e-06
  2.0431646e-06
 -4.5966819e-02
 -3.9249222e-05
  2.1985916e-06
 -2.1389833e-05
  5.0892409e-06
  7.1396283e-07
  1.5383797e-05
 -6.1350465e-06
  1.3374859e-05
 -5.7832886e-02
 -7.0257850e-02
  2.7973095e-07
  1.3537321e-05
  4.6280297e-06
  2.3898527e-05
 -5.1972452e-06
 -8.5374668e-06
 -5.1998231e-06
 -1.1810647e-01
 -8.8075534e-02
  5.7929428e-06
  3.7245609e-05
 -9.1010970e-06
 -4.7554215e-05
 -1.3157852e-07
  5.3589515e-06
  1.9279007e-06
 -1.7115967e-04
 -4.9027505e-05
  2.1765571e-05
 -2.3065257e-05
  1.6916221e-05
 -3.8097758e-06
  5.0347148e-06
  2.8857789e-06
  3.3020428e-06
 -1.9216725e-01
 -4.4936249e-01
 -5.5325436e-06
  1.1767706e-06
 -1.6103058e-05
 -2.3840714e-06
 -1.9677176e-05
 -7.5608968e-06
 -2.5000861e-06
 -1.6542213e-01
 -4.5786070e-05
  9.9609703e-02
  9.9609703e-02
  9.9609703e-02
  9.9609703e-02
  9.9609703e-02
  9.9609703e-02
  9.9609703e-02
  9.9609703e-02
  9.9609703e-02
  1.0521032e+00
  1.0521032e+00
  1.0521032e+00
  1.0521032e+00
  1.0521032e+00
  3.3672100e-01
  3.3672100e-01
  3.3672100e-01
  3.3672100e-01
  3.3672100e-01
  2.6913127e-01
  2.6913127e-01
  2.6913127e-01
  2.6913127e-01
  2.6913127e-01
  6.1670884e-02
  6.1670884e-02
  6.1670884e-02
  6.1670884e-02
  6.1670884e-02
  7.1712291e-01
  7.1712291e-01
  7.1712291e-01
  7.1712291e-01
  7.1712291e-01
