nep3 3 Cs Pb Cl 
cutoff 5 4 20 12
n_max 8 4
basis_size 10 8
l_max 4 2 0
ANN 50 0
 -7.5695484e-06
  4.8195488e-06
 -2.1231144e-06
 -1.7952567e-05
  1.4101709e-06
  3.2614989e-06
 -3.7731979e-07
  1.4627187e-06
  1.5640187e-05
  1.8131158e-06
 -6.3481605e-07
  8.2334702e-07
 -3.2287277e-05
 -2.2354468e-06
 -4.4567583e-05
  9.5515338e-07
  2.5742409e-06
 -2.8866184e-06
  6.4466276e-06
 -7.5924918e-06
 -1.1414770e-04
  1.7075392e-06
 -9.5311825e-06
  8.5850552e-06
  9.1697018e-07
  1.3751660e-05
  1.3866285e-06
 -1.8880448e-05
 -1.4186571e-06
 -1.5574982e-05
 -1.0322475e-06
 -1.4103857e-05
 -8.8250536e-06
  6.2456172e-07
  2.2993318e-06
  1.3433193e+00
 -8.9627356e-06
  3.1934548e-04
 -5.6017917e-01
  1.6563714e-03
  5.2677409e-04
  1.0772488e+00
 -1.1584993e-02
  4.2019370e-01
 -1.3284848e-02
 -7.8036869e-03
  2.5658241e-01
 -2.3775021e-06
  2.7726442e-02
  7.4820397e-05
  5.7224879e-05
 -1.5386110e-02
 -1.0492540e-06
  1.4598438e-01
 -1.3713822e-01
 -1.0587218e-01
 -2.8921089e-05
  1.6284136e-01
  5.4087224e-03
 -3.8949536e-05
 -2.8794837e-01
  1.1275841e-06
 -3.1860644e-05
 -4.0277660e-05
 -1.3086793e-07
 -6.0431921e-06
 -1.3027368e-05
  1.0080549e-05
 -2.4961685e-07
 -1.3575373e+00
 -2.5792199e-06
 -5.2273893e-01
  5.1167834e-01
 -3.4053913e-01
 -1.0144707e-01
 -5.3590681e-02
  9.3148404e-01
  6.6436338e-01
  2.9892895e-01
  6.0047638e-02
 -6.8723218e-04
 -2.2185739e-06
 -7.7538052e-06
 -7.8732674e-06
 -2.9332399e-01
  2.4008477e-05
  5.7026223e-06
  8.2491136e-01
  1.5097496e-01
  3.7033802e-03
 -3.7929189e-05
 -5.7289617e-06
 -2.5025458e-06
  7.9754800e-06
  7.3111378e-02
 -3.0833191e-06
 -1.6762444e-06
  7.6946926e-06
 -8.8440111e-06
  2.8220074e-02
 -4.7825313e-05
  8.8679860e-07
  1.3788404e-06
  3.8350572e-06
  1.9046831e-05
  7.9419888e-06
 -7.1774579e-05
 -4.8971087e-05
 -7.2998168e-06
 -6.0889156e-06
  9.1681968e-06
  1.5441236e-05
  2.2545164e-06
  1.2431561e-05
 -1.3626245e-05
  8.1167394e-07
 -1.8651920e-06
  3.8601011e-06
 -1.0438924e-05
  6.1386272e-06
  1.5601423e-05
 -3.5952148e-06
 -3.7844264e-05
 -1.5123264e-06
  1.8657876e-06
 -7.9763222e-06
  5.3393283e-06
  2.0428520e-06
  6.9793646e-06
  1.0630368e-05
 -9.5963669e-06
  2.6778889e-06
 -4.9836899e-06
 -1.2532734e-06
 -1.1976226e-05
  1.3748310e-06
  2.9873399e-06
 -5.6626423e-06
  7.1010063e-06
  6.6776875e-07
  1.1018930e-06
 -4.6648993e-06
 -1.3819237e-06
  4.1929702e-06
 -1.2524613e-06
  8.6534856e-06
  1.6706717e-06
  1.6490135e-06
 -1.2351067e-06
 -1.4987348e-06
 -9.0084040e-06
 -6.1455372e-05
 -3.5287039e-06
 -2.7567809e-05
 -4.6529385e-06
 -1.4242619e-06
 -9.2296668e-06
 -7.0342012e-06
  1.3295568e-05
 -2.5205118e-05
 -1.2779651e-05
 -1.9690047e-05
  6.8578579e-06
  1.4582689e-05
 -6.7427166e-08
 -1.1128291e-06
  5.7995831e-06
  3.1039017e-06
  4.7590211e-06
  2.0203947e-06
 -1.3696930e-06
 -1.1010426e-05
  1.4313743e-05
 -1.0144337e-05
 -1.4211983e-05
  2.1223064e-05
 -2.5418434e-05
 -1.1821950e-05
 -3.9205838e-06
  2.0737825e-05
 -3.0424781e-06
 -1.8403620e-05
  8.4615140e-06
 -1.2021364e-06
 -6.2444033e-06
  1.0546937e-05
 -1.5213444e-05
  1.0259932e-05
  3.5147343e-07
  1.0111924e-05
 -6.2637537e-06
 -6.0823641e-06
  1.9118332e-05
  1.1780739e-05
 -1.9733848e-06
 -1.2659526e-06
  2.4742758e-05
  1.7531079e-08
  3.8048747e-06
 -5.0239432e-06
  1.0934605e-05
 -1.6108519e-05
 -1.4956743e-06
  2.2257993e-06
 -2.2398290e-06
  6.4541489e-02
  7.8599642e-06
 -1.3983332e-06
 -2.9452932e-01
 -9.5623720e-05
  6.5627271e-01
 -9.2236602e-01
  1.3715433e-01
 -4.6713415e-01
  5.1239845e-06
 -3.4175389e-02
 -4.4010270e-05
  8.6098789e-06
 -4.4440380e-01
  4.1759031e-06
  2.1165214e-01
  4.3165343e-05
 -1.0817330e-05
 -2.4449953e-01
  2.6619713e-05
  8.3167508e-02
 -6.4460767e-07
  2.5177176e-06
 -4.4023281e-01
 -6.5234435e-06
 -8.5086154e-04
  4.8606807e-06
 -1.3646007e-05
 -1.1097400e-04
  3.6346892e-06
 -1.1787488e-05
 -2.4094534e-05
 -2.7087392e-06
  5.1230370e-07
  3.3744785e-05
  3.0906717e-06
  1.5834556e-05
 -1.1124366e-05
  5.4265945e-07
  6.1002011e-06
 -5.2030464e-06
  4.1567050e-06
  1.0439347e-06
 -1.2775527e-06
 -5.0937879e-06
  2.9863938e-06
 -4.0782634e-05
  9.4223651e-06
  4.0553737e-06
 -4.1383468e-05
 -3.9858433e-06
  2.0363461e-05
  3.0857655e-07
  1.7432217e-06
  2.2818514e-07
  4.6319579e-05
  3.3193178e-06
 -1.3391322e-05
  3.1355476e-06
 -1.1618638e-06
 -3.1738127e-06
 -9.3166154e-06
  7.9953779e-06
  6.1023246e-05
  2.4112053e-06
  3.1054165e-05
 -3.3976867e-06
  4.0329360e-06
 -5.2539319e-02
  2.4584499e-06
 -2.2109815e-01
 -2.8010288e-02
 -2.1916168e-02
  4.6628684e-02
 -6.8838663e-02
 -1.3130517e-01
  2.2138175e-02
  1.3701584e-03
  2.5994074e-02
 -1.9746250e-05
 -7.9819216e-07
 -1.6919993e-01
  7.9224292e-06
  6.2828876e-02
  6.2004569e-06
 -1.2387563e-05
 -2.6303813e-01
  4.9768444e-02
  1.3167235e-01
 -1.0922709e-05
 -1.4906664e-05
 -3.2443509e-02
  2.5859231e-06
  6.3502790e-07
 -1.4994548e-05
  1.6607451e-05
  2.9482667e-06
  2.9508381e-06
  8.6515900e-07
 -1.4040313e-06
 -3.5697783e-06
  1.0612963e-05
 -4.7025437e-06
  2.9988025e-05
 -1.6802761e-06
 -3.2868407e-05
  1.6604627e-05
 -6.0515172e-06
 -1.2671921e-05
  9.0130413e-07
  3.6925912e-06
 -7.0890587e-06
  2.2770791e-06
  2.4074066e-07
 -6.3612792e-06
  1.1855554e-05
 -5.5932273e-06
 -5.3921995e-06
 -1.0052771e-05
  1.9708321e-05
 -1.5286198e-05
 -1.5522901e-05
  4.4543367e-06
  1.6024536e-05
 -1.6318713e-06
 -7.5363600e-06
 -5.7662960e-06
  2.3627159e-05
  1.4856206e-06
  7.9533015e-07
 -7.8000505e-07
 -1.7495478e-05
 -8.6780028e-06
 -3.3321280e-06
 -1.7109199e-06
  7.8258845e-06
  2.7473721e-05
 -8.7415410e-06
 -8.3542136e-06
 -4.3260543e-06
  2.7292120e-07
 -2.0220816e-06
  2.4911100e-05
 -9.0564363e-06
 -8.2527930e-07
 -2.4363400e-05
  2.2272004e-06
 -7.2111106e-06
 -1.0374929e-05
 -3.6936199e-06
 -1.6466651e-06
  5.9263421e-06
  1.1299984e-05
  9.9877261e-06
  2.9528660e-06
  6.8936720e-07
 -2.4898973e-06
  2.9666116e-06
 -3.5526098e-06
  1.0918804e-05
  1.6744629e-05
  4.1417849e-07
 -4.1361186e-06
 -1.4633693e-05
 -2.7998914e-07
  1.9865680e-05
 -1.2550996e-06
 -1.9679941e-05
  9.2695591e-06
  4.5573424e-06
  1.2843512e-06
  4.1139492e-06
 -5.8985934e-06
 -6.9104703e-07
 -2.8098127e-06
 -9.0822223e-06
 -3.5432143e-07
  1.8917186e-07
  9.8583155e-07
  9.3140279e-06
 -9.8561613e-06
 -6.1414084e-06
  6.4956462e-06
  7.3693564e-06
  5.8892929e-06
  1.9280267e-05
 -7.2512744e-06
 -4.9817199e-06
  2.7865462e-06
  1.2090801e-05
 -8.5300671e-06
  7.5953867e-06
  2.3754477e-05
  8.6745549e-06
  2.6999226e-07
  8.6071823e-06
 -2.4886729e-05
  1.2843818e-05
  2.5251085e-05
 -1.7106086e-06
 -9.1023794e-06
  8.9633504e-06
 -6.4914152e-06
 -3.2637802e-06
 -5.3763551e-07
  1.4566373e-05
  2.5749287e-06
 -2.3529258e-06
  3.3463377e-06
 -1.1328114e-05
  6.3618927e-06
 -2.4125459e-06
 -6.3985647e-07
 -5.7021612e-06
 -1.2671479e-06
  6.5882668e-06
 -1.9135859e-05
 -7.2695838e-07
 -1.4699239e-05
 -1.0709397e-05
 -2.5839715e-06
  8.4800904e-06
 -4.0272439e-06
  1.4077198e-05
 -1.1215314e-05
 -2.0449907e-06
 -2.0104874e-06
 -2.1380658e-06
 -6.7700630e-06
  3.9607286e-07
  2.1255651e-06
 -1.0529373e-05
  1.5848660e-06
 -1.3128654e-05
  3.5327816e-06
  4.7578565e-06
  1.3072285e-05
  1.4245546e-05
 -8.0422478e-06
  6.8038439e-06
 -1.8116482e-06
 -2.7113235e-06
  8.4786489e-06
  5.4605944e-06
  1.7120070e-06
 -3.8468711e-06
 -3.0994734e-06
  1.2306271e-05
 -6.2376375e-06
  2.9612952e-06
  6.0602511e-06
 -1.6473408e-06
 -1.0823973e-05
  1.1436414e-06
 -4.8776010e-06
  3.4922741e-06
  2.9770914e-05
  2.0557065e-06
  4.3796008e-06
 -1.3569482e-05
 -7.0020951e-07
 -1.2042400e-05
  3.8115379e-06
  1.0891194e-05
  2.1357951e-05
  5.8169776e-06
 -8.8588422e-06
  4.3143013e-06
  8.3987459e-07
  1.5701386e-05
 -2.4091005e-06
  1.6625701e-06
 -1.1402168e+00
  4.3087080e-06
  4.5349643e-06
 -6.0111177e-01
  8.2384694e-01
  2.0946382e-01
  2.0153001e-01
 -1.8253425e+00
  9.7494245e-02
 -7.1647864e-06
 -1.7119055e-05
  1.1894866e-01
 -3.3174369e-06
 -4.8938060e-01
  7.5942298e-06
 -2.8319342e-05
 -6.9428970e-06
 -1.3594868e-06
  1.8397427e-01
 -1.4047721e-05
 -1.1994109e-05
 -2.6052269e-06
  3.3841808e-03
 -1.1936598e-04
  3.9660608e-06
 -3.9100487e-06
  2.6265803e-05
 -7.2826710e-06
 -7.6898832e-05
 -2.0554246e-07
 -9.7805487e-06
 -7.8507846e-06
 -8.5822194e-06
 -3.2821026e-06
 -5.1221102e-01
  4.5658744e-06
 -1.7791082e-01
  1.9277426e+00
 -1.7283100e-01
 -1.1660559e+00
  8.5097671e-01
 -1.5787394e+00
  8.5775055e-02
  1.7124349e-01
 -5.9162430e-02
 -6.4825827e-01
 -1.2497749e-05
  6.8206526e-02
 -6.2999643e-05
 -4.2109156e-01
  7.5468374e-04
 -2.7684453e-06
  2.8046338e-02
  2.9331574e-01
  1.1938879e-02
  6.9755997e-06
 -5.2655810e-01
  6.3885465e-02
  4.1173831e-02
  2.2530596e-01
 -6.7461689e-05
  1.1410756e-02
  1.8873429e-01
  7.4622058e-06
  1.6098779e-04
 -3.8331331e-05
  1.1452248e-04
  1.5373596e-06
 -3.8364096e-06
  1.6949954e-05
  1.9072275e-05
 -3.8274436e-07
 -5.9813988e-07
  7.1503259e-06
 -3.7521800e-06
  1.6440174e-06
 -7.0519214e-05
 -8.3894736e-07
  1.6659573e-05
  1.2883775e-06
 -2.2106940e-05
  2.0771201e-06
 -6.0735783e-06
 -4.3628843e-05
  3.9000006e-06
 -3.5162739e-06
 -1.0610171e-05
 -1.6796450e-05
 -6.6636217e-06
  1.7696890e-06
 -6.9402327e-06
 -3.3085462e-06
 -1.3241026e-05
 -1.9153114e-05
 -2.7126600e-06
  2.7980125e-06
  1.1919165e-05
  1.5304653e-06
 -9.7056873e-06
  1.1777554e-06
  3.7011066e-06
 -3.8992027e-07
  1.5768399e-05
  6.0661648e-07
  1.6959202e-05
 -3.3128181e-06
 -8.0908430e-06
 -9.9709632e-07
  3.1690022e-05
  6.5894187e-06
 -5.6470326e-06
  1.3350867e-05
  3.3404476e-07
  1.0771726e-05
  7.7408795e-06
 -1.3151207e-06
  1.1283657e-05
  2.1240079e-05
 -2.2436063e-05
  3.6136237e-06
  3.0462238e-06
  1.3795692e-05
  3.6508154e-06
  2.2813585e-05
 -1.1593231e-06
 -1.4340560e-06
 -8.2757424e-06
  1.2656817e-05
 -1.7510769e-05
 -1.7175966e-05
 -2.5707118e-06
 -8.5979109e-06
 -1.6763627e-04
 -2.1267401e-06
  6.1632124e-07
  3.9120196e-06
 -1.7678448e-06
  2.7137762e-06
 -4.7585186e-06
 -4.8654056e-06
  1.8303701e-05
  1.8320146e-06
 -2.8577515e-06
  1.6585547e-05
 -1.0349590e-05
 -5.6287797e-07
 -8.8426523e-06
  9.2343964e-07
  1.9674651e-05
 -1.0480335e-05
  1.2670447e-05
 -1.1423583e-05
  2.8021732e-06
  6.0797888e-06
 -3.4304154e-05
 -2.0851254e-05
 -1.3839890e-05
  1.2519976e-05
 -1.5126411e-06
  4.7897447e-07
  1.4087251e-06
  1.6607024e-05
  9.5759260e-06
  1.1407790e-05
 -7.7884570e-06
  5.5886790e-07
  2.1126849e-05
 -1.2218095e-05
 -2.6420728e-06
 -9.4123016e-06
 -3.5152648e-06
 -2.1343380e-06
  9.0199984e-07
  5.0789740e-06
  1.5599198e-05
 -1.3025243e-05
 -5.0766648e-06
 -1.1970481e-06
 -1.1848986e-05
 -4.9503697e-06
  3.4393008e-05
 -2.8210216e-06
 -5.7890211e-06
 -1.1451103e-05
  4.4780545e-06
  3.4425486e-06
  4.4884418e-06
 -1.5872780e-05
 -2.6150431e-06
 -8.7607968e-06
  9.1401745e-07
  1.3407771e-06
 -2.7093520e-06
  6.6196180e-06
  1.2500933e-06
  2.1091926e-06
 -9.0857793e-06
 -8.6813970e-06
 -1.2564448e-06
  1.1457151e-06
 -2.9610874e-07
  1.8511178e-05
  7.2418798e-06
  3.2005653e-07
 -8.9536567e-05
 -1.0131100e-05
  2.0424977e-05
  1.7674947e-05
  6.7678531e-07
 -3.5549961e-05
  1.0734712e-05
  7.8193880e-05
  1.8735251e-06
 -6.0027766e-08
 -5.9323964e-05
  6.0175566e-06
 -1.6746173e-05
  5.3991783e-07
  1.0040309e-05
  5.6567169e-06
  1.9296804e-05
  7.4486150e-07
 -5.4128134e-07
  6.6917610e-06
  2.4306575e-05
  3.9727447e-06
  4.2718975e-06
  7.8561861e-06
  5.3436503e-07
  8.4771900e-06
  5.6199588e-06
 -8.9022633e-06
  1.8071893e-05
  7.6741990e-06
  3.7047968e-07
 -7.1155614e-06
 -3.7911009e-06
 -1.0245770e-05
 -1.4825835e-02
  1.0786805e-05
 -2.6131868e-01
 -4.3624010e-02
 -5.8180076e-01
  1.7448148e-02
 -6.3220565e-03
 -4.5323715e-02
 -5.4134883e-02
  9.4840266e-02
  2.2087200e-02
 -2.8996199e-01
 -2.3555876e-06
 -6.8430066e-01
 -9.0534516e-02
 -7.5912869e-01
  3.5730289e-05
 -4.5518177e-06
 -1.0001470e-01
  1.8774419e-01
 -4.0305302e-01
 -1.7282844e-04
 -1.1130017e-01
 -1.4159742e-01
 -1.0623781e-04
  5.2121435e-03
  5.4629845e-06
  2.6501787e-06
  2.2063114e-06
  2.5818754e-05
 -2.7396195e-04
 -4.5589454e-06
 -7.8545764e-07
  1.7452088e-05
 -1.3834395e+00
 -1.2445372e-06
  1.9227971e-01
  1.0779113e+00
  2.2232886e-02
 -1.1969266e+00
  8.7444705e-01
 -1.3449177e-02
 -4.0645310e-01
 -1.1638161e-01
 -2.9536556e-02
  5.2717525e-01
 -4.9263231e-06
  1.3964016e+00
 -2.7246986e-04
 -5.2092612e-01
 -1.7039981e-01
  4.2524149e-05
  7.9479724e-01
 -8.6576492e-01
  5.3022590e-02
  2.7244565e-05
  2.7115017e-01
  2.3069519e-01
  8.0888882e-02
 -2.1254466e-01
  3.5165795e-04
 -1.3598647e-05
  7.0152268e-02
 -1.5247053e-05
 -2.1150921e-01
  3.1756415e-05
 -8.9782225e-06
  9.2339851e-06
  1.2893995e-06
  2.3487954e-05
 -1.2718810e-06
  4.1695994e-06
 -2.9410581e-05
 -1.4759173e-05
 -1.9430101e-05
  1.6293377e-06
 -1.1121658e-06
  1.9248380e-06
 -4.0290917e-07
  2.1668593e-06
 -6.6327248e-06
 -1.6112593e-06
 -2.9382946e-07
  4.0258550e-05
  4.0580580e-06
 -3.5818175e-06
 -1.2546671e-05
 -1.4181110e-06
  1.6827335e-06
 -4.8485717e-06
 -8.7807521e-06
 -1.6880866e-05
 -1.2910111e-06
 -5.2098785e-06
  1.8986442e-05
 -6.9740113e-06
 -3.0463507e-06
  7.0447281e-06
 -7.2075977e-07
 -1.0323299e-06
  5.5894407e-06
 -2.6699122e-06
 -2.5958307e-03
  6.2088191e-07
  3.3072403e-01
 -3.5482940e-06
  6.4086601e-02
 -2.9859611e-01
  1.2995036e-01
  2.0007854e-02
 -3.0461485e-02
 -1.0222842e-01
 -6.0393818e-02
  1.2419008e-01
  2.6649286e-06
  1.7533630e-01
  6.0662483e-06
 -2.3209120e-01
 -2.4284204e-06
  6.1236140e-05
  2.1334217e-05
 -1.3822210e-01
 -5.8437299e-02
 -1.3386609e-06
  2.0615164e-02
  1.0346433e-01
 -1.2221154e-05
 -4.9321402e-02
  4.9962523e-07
 -4.4087781e-05
  1.3172340e-05
  1.3820257e-06
  1.5912108e-06
  5.8460541e-06
  2.0594605e-05
  1.0164443e-05
  4.6458820e-04
  7.8662206e-06
  4.8677152e-01
  1.4443394e-02
  6.7502834e-02
 -1.7932563e-01
  1.4424571e-01
  7.0332536e-03
 -4.9726223e-04
 -8.0390126e-02
 -4.2880312e-02
  6.4579427e-02
 -1.6654980e-05
  2.6959097e-01
  4.8107536e-06
 -7.3101744e-02
 -7.0176065e-05
  1.1204910e-07
 -1.5097798e-06
 -1.7684802e-01
 -2.2050576e-02
 -4.7302376e-05
  3.4893467e-04
  6.7582242e-02
  9.1741940e-06
 -1.9135145e-02
  2.9992673e-06
  1.6948688e-06
 -5.1123179e-06
  4.3755081e-06
 -5.4146085e-06
  8.5892088e-06
  1.3951028e-06
  5.2228811e-06
 -4.0589657e-05
  1.6639317e-06
  6.6231191e-06
 -1.1579174e-05
  4.3827376e-06
 -1.0311874e-05
 -7.1519690e-07
  5.6381400e-06
 -1.6834267e-05
 -5.7680331e-06
 -3.9463539e-06
  7.6616499e-07
  2.9604658e-05
 -2.0101993e-06
 -7.0858175e-07
  3.4791312e-05
 -6.8585864e-06
  3.9918837e-06
 -1.7145683e-05
  4.0318304e-05
 -4.7464855e-06
 -1.8016534e-06
  2.7550053e-07
 -2.0577403e-05
 -5.7900195e-07
  1.6222689e-06
  1.1675746e-05
 -1.2433538e-06
 -2.3677228e-07
  1.4162019e-05
  5.5095465e-05
 -5.0454792e-06
  3.9864181e-06
  1.0961646e-05
  1.3119852e-05
 -5.3592225e-07
 -5.2185628e-06
  4.2330416e-06
 -1.5709140e-05
  2.0693253e-05
  2.8006255e-06
 -5.3098211e-06
  5.5999358e-06
  1.1901784e-07
 -2.9528761e-05
 -2.5725121e-06
  2.4576298e-06
 -1.0768135e-06
 -4.9798978e-06
  3.6050872e-06
 -5.5617847e-06
 -1.0621840e-05
 -2.5390775e-06
 -8.2380138e-06
 -1.0684674e-05
 -5.4295701e-06
 -4.1720068e-07
  7.8473677e-06
  4.3876138e-05
  1.3047005e-05
  1.4024168e-05
 -5.2470327e-06
  1.0501443e-06
  1.0379888e-05
 -2.4316669e-06
 -5.2308696e-06
 -6.2480035e-07
  5.5589644e-06
  5.8773949e-06
  2.6021784e-05
 -3.3857941e-06
 -7.2693083e-06
 -1.1308722e-05
 -8.6153841e-06
 -1.0453745e-06
 -1.1085896e-05
 -2.2789636e-06
 -5.5476939e-06
  2.1858473e-06
 -1.3759654e-05
  2.1291125e-06
 -5.4986399e-06
  5.3555491e-06
  1.3834986e-06
  2.9776438e-06
 -5.8716378e-06
 -1.0051443e-05
 -4.9215905e-06
  6.8636189e-07
 -1.1146580e-05
 -5.6889712e-06
  2.8982727e-06
  2.0019759e-06
  1.0796840e-05
  2.8009047e-06
  3.5807573e-06
 -1.5626149e-06
 -1.2869760e-06
  1.8224654e-06
  1.4899713e-05
  5.2782661e-06
 -9.0053391e-06
 -6.6352106e-07
  3.5188241e-06
 -2.4131108e-07
 -1.4293884e-06
 -1.2219843e-05
  6.9527987e-06
  4.2336787e-06
 -9.2804667e-06
  4.8388006e-06
 -1.5198466e-06
  2.2265785e-06
  1.2534205e-06
  6.5006827e-07
 -2.1059717e-05
 -3.4122768e-05
 -3.7501948e-07
 -5.5408179e-08
 -5.4793514e-07
  1.1697057e-07
 -2.0884802e-06
  9.8171995e-06
  5.1598890e-06
 -1.7242779e-05
 -6.9017560e-06
 -2.1638849e-05
 -8.6033015e-07
  4.5322972e-06
 -1.8377591e-06
  4.6851792e-06
  1.0620566e-06
 -7.3329911e-06
  1.3969975e-06
 -1.0035224e-05
 -1.9279462e-06
 -1.3305804e-01
 -2.6893164e-05
  1.4360516e-01
  1.3592166e-01
 -1.6932075e-06
  1.6205518e-01
 -8.8514149e-01
  8.9452170e-02
 -6.9481599e-01
 -9.1443253e-05
 -2.2326733e-01
 -1.2716606e-02
  6.4194632e-05
 -5.4779011e-01
 -2.4529985e-05
  6.7719854e-02
  4.1978121e-05
 -1.0826441e-05
 -5.0875276e-01
  8.0075316e-02
  4.5499432e-01
  5.2863634e-06
 -1.6267484e-05
 -2.1825527e-01
 -5.5818973e-06
  2.0505011e-01
 -3.9546776e-06
 -5.7786252e-08
 -1.6659545e-04
 -2.4934752e-06
  1.0648111e-04
  3.9544202e-06
  1.1187906e-06
 -1.3473953e-05
 -4.6738110e-06
  4.9862388e-07
 -1.1727608e-05
 -1.3046367e-06
 -2.7649476e-05
  8.3915154e-07
 -1.2358671e-05
  1.2060074e-05
  1.3271995e-07
  6.4283495e-07
  6.1299279e-06
  3.2693749e-06
  4.8473230e-06
  3.4744603e-06
 -2.1664814e-06
 -1.0411699e-05
  1.3100398e-06
 -1.2532718e-05
 -1.2939759e-05
  1.1359916e-06
  1.6977761e-05
 -1.0979927e-06
  6.8300733e-06
  2.0993396e-06
 -1.5115539e-05
 -8.7164117e-06
  1.4313947e-05
 -4.6554789e-05
 -1.2780120e-05
  1.3977719e-05
  6.5182790e-06
  3.4058285e-06
 -8.4431240e-06
  1.8118959e-05
 -1.6431712e-06
 -7.4000018e-06
 -3.3744675e-06
  7.9325366e-07
  4.8058788e-05
  2.8500922e-06
 -1.2379484e-06
 -2.1296864e-07
  3.1225388e-06
  7.3797632e-06
 -4.5114889e-06
 -9.1551628e-06
 -1.0691553e-05
  1.4110361e-05
  6.5784852e-06
  5.7713436e-07
 -4.9238870e-06
 -6.8840154e-06
  1.0563463e-06
  8.7002931e-08
 -3.1202328e-06
 -6.5106337e-06
  6.5593131e-06
  9.3786703e-06
 -1.6165515e-05
  3.2346884e-07
  1.2156236e-05
 -7.1613709e-07
 -3.5112760e-07
  2.3744671e-05
 -1.1542618e-05
 -9.2046093e-08
  2.1109387e-05
  6.3296047e-06
  6.0316511e-06
 -1.8636711e-05
  9.0762405e-06
 -6.8820276e-07
 -2.2822123e-06
 -3.7948000e-06
  1.9787710e-06
  4.8955194e-06
  2.0949378e-06
  1.4213560e-05
  1.1494821e-05
 -3.3014185e-05
  9.3193864e-07
 -3.6146296e-06
  9.0058684e-06
  2.6760003e-06
  2.0393858e-05
  1.2569323e-05
 -1.8929659e-06
 -3.5307721e-06
  2.2251411e-06
 -2.1864146e-06
  5.4180697e-07
  1.6514943e-05
 -9.4912994e-06
  7.9109459e-06
 -2.4137441e-06
 -8.7302942e-07
 -1.0582691e-05
 -1.9836571e-05
 -2.6533523e-06
  5.5201035e-06
  5.2836334e-05
  9.9630461e-07
  6.8071463e-06
 -3.2648757e-06
 -5.7164816e-06
  2.7741402e-05
  9.4976776e-06
 -2.6855281e-07
  4.9462237e-06
  1.3305902e-06
  2.9951384e-06
  4.2643978e-06
  3.5982305e-07
  2.3068876e-06
  3.4330522e-05
  1.1475950e-06
  3.5228604e-06
 -1.8506214e-06
 -5.9499289e-06
 -6.7886026e-07
  6.2622439e-06
 -8.6114653e-08
 -5.5881748e-07
 -2.5957084e-05
 -5.4258286e-05
 -2.9396522e-06
  1.4401028e-05
 -3.2529776e-06
 -2.5559914e-06
 -1.8747496e-06
  1.1944626e-05
  7.6906517e-06
 -2.4000834e-05
 -1.9795598e-05
  2.4624827e-05
  8.6670461e-06
  2.9589226e-06
 -5.9540330e-06
 -5.7660825e-05
 -2.4272966e-05
 -1.0672166e-05
  1.9774176e-05
 -7.6812066e-06
  1.4836009e-05
 -4.9097816e-05
  1.4019541e-05
  2.0472415e-05
  2.2593458e-06
 -4.4833537e-06
 -1.1698948e-05
  1.5887232e-06
 -2.4444941e-07
  2.3055563e-05
  1.2620623e-05
  6.2661566e-05
  8.8642410e-06
  5.8397723e-05
 -5.6305328e-07
  1.1241915e-05
  1.8119570e-06
  2.3534669e-05
  1.2013415e-05
 -6.1249125e-06
 -1.5648326e-05
  2.2376171e-05
 -6.6544708e-06
  4.3555530e-05
  8.0152036e-05
  1.4288456e-06
 -8.0475417e-07
  8.6760447e-06
 -1.7921386e-05
  5.5546400e-07
 -1.0130318e-05
 -9.1519651e-06
 -9.4856014e-06
  6.2248309e-06
  8.1603810e-07
 -1.0219323e-06
  5.5776950e-06
 -1.3365835e-06
 -6.6463758e-06
  8.5389074e-06
  2.0985373e-05
  4.6982325e-07
 -1.0851152e-06
 -1.1319127e-05
  1.1507930e-07
 -3.2861585e-06
  2.2119343e-06
  2.1178305e-06
  4.7266230e-06
  3.7604932e-06
  8.6814152e-06
 -1.2470735e-05
  1.4681234e-06
  1.2059569e-05
  3.3303272e-07
  6.0672478e-06
  2.5347393e-07
 -6.0270231e-06
  8.3568775e-06
  1.2888693e-05
  2.4490123e-06
 -3.9425311e-05
 -4.7078223e-07
 -2.2393318e-02
 -1.3075168e-03
 -1.4043038e-06
  4.0716213e-01
 -1.6424163e-01
 -5.2898800e-01
  3.5966414e-01
  1.4729964e-04
 -3.2186463e-02
 -6.2042556e-05
  3.7485526e-05
 -1.6063431e-01
  2.5311597e-06
  9.5026314e-02
  5.0957638e-06
  8.7451745e-06
  3.2082605e-01
  8.3747841e-03
  1.2752667e-01
 -1.9319561e-05
 -3.0733445e-05
 -3.7178680e-02
  1.1206108e-05
  1.0886084e-01
 -7.6511128e-07
 -6.0183779e-06
 -1.2412870e-04
 -6.0926750e-06
 -3.7397481e-06
 -1.2361588e-05
 -8.6277596e-06
 -2.0444104e-06
 -3.4099910e-06
  4.9274549e-06
  5.8442481e-07
 -3.7997287e-07
  3.8082244e-06
  4.9694484e-07
  2.5933314e-06
 -1.3421417e-05
  2.3708581e-06
 -1.1193778e-05
 -1.9236744e-05
  4.2549495e-06
 -9.0736048e-06
  1.5091509e-05
  9.1703851e-06
 -1.6457489e-05
  2.2790330e-06
 -1.0264655e-05
 -1.6234164e-05
 -4.3847172e-07
  1.0989861e-05
 -7.6587339e-06
  8.4360272e-06
 -1.1968623e-06
  9.7059201e-06
 -4.6273319e-05
 -2.0393762e-05
 -1.4992783e-05
 -7.1443410e-06
  2.5561492e-05
  2.7308337e-07
  5.9161762e-06
 -5.5225810e-06
 -4.0625282e-06
 -3.5464345e-06
  4.3125883e-06
  1.5194873e-06
  8.4070263e-07
 -1.1738893e-05
  3.5946756e-05
  1.9196672e-05
 -9.6459389e-06
  4.2254424e-06
 -2.5554065e-05
  1.6100748e-06
  2.5839320e-06
  1.5601272e-05
  3.8534226e-06
  6.1063747e-06
  1.0676092e-06
  6.2387458e-06
 -1.2623303e-05
 -1.4396987e-06
  5.4346442e-06
  2.5274810e-06
 -1.8827202e-06
 -1.6479021e-06
 -6.7856122e-06
  1.0565976e-05
  3.0110614e-06
  1.0599048e-05
  4.9093691e-05
  9.5621981e-06
 -7.9312158e-06
  5.9363288e-06
 -2.1320746e-05
 -6.4415726e-06
  2.8085051e-06
  1.6684988e-05
  2.2598606e-06
  7.2430016e-04
  2.0779034e-05
  1.4819200e-05
 -2.0137593e-05
  3.0815917e-01
  2.3632272e-05
 -4.4453606e-02
 -2.6504043e-05
 -1.0189148e-02
  7.4325189e-06
 -3.4289817e-06
  4.5673216e-05
 -3.9317420e-06
 -1.1777106e-02
  4.9695277e-06
 -5.0263543e-06
  1.9887461e-06
  9.0337326e-06
 -1.2783985e-05
  5.2134319e-06
  6.6907945e-05
  3.8845270e-04
  1.4489902e-06
 -1.1907049e-04
 -1.1467302e-05
 -1.2245229e-05
  5.0959902e-06
  4.4249182e-06
 -5.0533049e-06
 -4.5669226e-06
 -2.5086672e-05
  7.3564033e-06
  9.3296194e-06
  6.8443292e-06
 -8.2690121e-09
  2.3741111e-05
  1.6248167e-05
  8.9644595e-07
 -6.8346171e-06
 -8.1865539e-07
  4.4284070e-06
  1.6606258e-06
  8.4906178e-06
  1.2904469e-06
 -4.6757282e-06
 -8.6313939e-06
  7.0641627e-06
  5.2271853e-06
 -4.0688792e-06
 -8.4271214e-06
 -3.1425157e-06
 -1.0896019e-05
  4.7887847e-06
  2.0410414e-06
  2.6591830e-05
 -1.4165265e-05
  5.8110027e-06
  4.7116532e-06
  1.4639363e-06
 -8.1019465e-07
 -4.1781714e-06
  1.3021624e-05
 -4.5956824e-08
  2.0637594e-06
  5.1349371e-06
  2.2976308e-05
 -2.6369926e-01
  1.1648150e-05
 -4.3509070e-02
  4.9210373e-01
 -7.9539567e-02
  1.6189793e-04
 -2.3448320e-02
  1.4275391e-02
  1.6083682e-01
  6.2757730e-02
  2.1028234e-02
 -1.2979229e-02
  5.2163495e-07
 -5.9870672e-07
 -9.3815688e-06
  2.7854112e-03
  7.5838150e-05
  9.5872485e-07
 -3.2289157e-05
  7.0900405e-03
  1.8233819e-02
 -9.2970220e-07
 -7.3180945e-06
 -5.8190459e-03
 -2.9916232e-06
  5.2656084e-02
  7.7537397e-06
 -1.3715012e-06
  1.2035903e-05
  1.7869845e-05
 -9.0959666e-06
 -1.5632286e-05
 -2.4442443e-06
 -2.4675305e-06
  6.8212239e-07
 -2.2014797e-06
  1.0925637e-05
  4.6626446e-06
 -1.6536465e-05
  1.5979456e-05
 -1.9652149e-05
 -1.3174287e-05
  7.6751921e-06
 -8.9441158e-08
 -1.7417291e-05
 -3.9784783e-07
 -7.7219852e-07
  2.8238651e-06
 -1.3468265e-06
  9.4425923e-06
 -6.9116932e-06
  9.1934635e-06
  6.1536696e-07
  9.8672672e-07
 -8.3695513e-06
 -3.2316009e-05
 -2.9122668e-06
  4.4201665e-06
  2.8085294e-06
 -2.6597077e-06
  6.7599177e-07
 -1.3076567e-06
 -1.6262311e-05
 -5.2417058e-06
 -1.9418059e-05
  2.2882462e-06
  1.2235820e-06
 -6.1060618e-06
  1.9884999e-06
 -1.0929271e-05
 -5.1915713e-06
  8.1320550e-06
  1.2066794e-05
  5.5360908e-07
 -7.6578108e-06
 -3.3160395e-05
  4.0835171e-06
 -1.5069557e-07
  5.4974930e-07
 -5.3198073e-06
  2.3164486e-05
  4.2133365e-07
 -3.4999143e-06
  1.6385169e-05
 -4.0763048e-06
  4.2843458e-06
  4.4624062e-06
 -6.2516133e-06
  4.5648426e-06
  8.0080790e-06
  6.3386335e-07
 -4.2353981e-06
  1.4967887e-06
  1.0734830e-06
  1.8334808e-06
  5.6976414e-06
  1.0013540e-05
 -7.3391789e-07
  2.7162203e-06
  9.5572541e-06
 -3.0129030e-07
 -7.9659122e-07
  3.2510186e-05
  1.3580844e-05
 -4.5108368e-06
 -1.5173722e-05
 -3.7680020e-06
 -5.0666363e-06
  2.7747988e-06
  1.5489821e-05
 -2.2240840e-07
 -8.1344240e-07
 -3.4572925e-06
 -4.3070104e-05
 -9.7603543e-06
 -9.5861187e-06
  5.1945580e-07
 -1.1845200e-05
 -2.8623133e-05
  1.1676123e-05
  3.3969625e-06
 -5.5431010e-06
  9.7093186e-07
 -4.8996022e-05
  3.5356199e-05
 -1.4886054e-06
  3.9142783e-06
  1.2032333e-05
  1.6162840e-05
 -1.1279426e-06
  4.3995319e-06
 -1.4701483e-05
 -1.2514367e-05
 -1.9824824e-05
 -1.5124406e-05
  1.9058549e-06
 -7.4323807e-06
 -1.5126201e-06
 -3.2201115e-07
 -4.9936275e-06
 -1.0348419e-05
  2.5728545e-05
 -5.0755780e-06
 -3.5827325e-05
  3.7950360e-06
 -6.0519687e-07
 -1.5464300e-07
 -2.5208578e-07
  2.0307054e-06
  1.8535775e-06
  6.9041089e-06
  5.9826630e-06
  5.4157908e-06
 -1.2873224e-05
  1.0576156e-05
 -5.8951414e-06
  3.2187133e-06
  2.6837941e-07
  1.2194047e-06
 -9.1051588e-06
 -3.3427809e-06
 -2.3990315e-06
 -2.2208842e-06
 -5.2329578e-06
 -2.5407442e-06
  1.7837515e-06
  4.7040685e-06
  4.0596378e-06
  8.7063390e-06
 -2.7657397e-06
 -1.6800899e-05
  3.8883136e-06
  2.0596899e-06
  4.3144300e-06
  8.7162995e-08
  8.6962979e-07
 -1.6841536e-06
 -2.5286704e-07
 -1.5158314e-06
 -1.5974593e-06
 -1.0391634e-05
  2.1859421e-05
 -1.0188935e-05
  1.4612835e-05
  1.4339782e-06
 -7.3835440e-06
 -7.5486187e-06
 -1.0147713e-05
 -3.2681055e-06
 -8.8455818e-07
  4.2476481e-06
 -1.0256123e-05
 -5.1607067e-06
 -7.4046693e-06
  1.4074856e-05
 -3.2779051e-06
 -3.7628747e-06
 -6.5090685e-06
 -4.0212581e-06
 -2.3072029e-05
 -1.6064470e-05
  2.6808497e-05
  5.4909437e-05
  1.7447496e-06
  4.7558290e-01
  1.6642872e-06
  1.6918158e-02
 -7.6015902e-01
  8.3586639e-03
  6.5155998e-02
  9.1368362e-02
  2.2315332e-01
 -3.3609204e-02
 -2.8793897e-02
 -5.1643487e-02
  2.8063159e-02
 -3.7663476e-06
  5.5160578e-02
  5.5102419e-07
  1.1691413e-02
 -1.2109437e-05
  2.7866885e-05
  6.1085939e-07
 -5.7598138e-03
 -1.5633518e-03
 -5.6517606e-06
  1.2693529e-05
  8.4321466e-05
  2.3136079e-06
 -6.9097459e-02
  5.1183629e-06
  8.6805488e-07
 -9.2770288e-06
 -1.6578658e-06
 -2.8134334e-06
  5.5935323e-07
  2.0862133e-07
 -2.3739689e-05
  5.9122940e-05
 -1.0882620e-06
  2.3698198e-05
 -1.9117363e-06
  1.5381660e-05
 -3.6605863e-06
  3.8685380e-06
  2.1836882e-04
 -6.9931439e-06
  1.8491913e-06
  2.9882638e-05
 -6.2611457e-07
 -8.9957657e-06
 -6.2079416e-06
 -3.0113097e-07
  9.7194325e-06
 -2.3840174e-05
  1.9525014e-06
 -3.0695076e-06
 -9.3417839e-06
  1.0714268e-05
  8.7604249e-06
  6.6238936e-06
 -3.6353961e-06
 -5.3073090e-06
  3.9342681e-06
 -3.1843272e-06
 -6.7490936e-07
 -3.9553470e-07
  1.8005644e-06
 -3.4473042e-06
 -6.9672337e-06
  6.7788769e-06
 -9.4607549e-06
  2.5542638e-01
  4.7553727e-01
  4.6386594e-06
  2.0281441e-05
 -7.1682553e-06
 -9.4641507e-01
  3.9013153e-06
 -1.0665332e-05
  2.8617267e-06
  7.7108944e-06
  9.1168422e-06
 -2.8379156e-06
 -8.5645937e-05
 -1.0874368e+00
 -2.4997513e-01
  1.5645834e-06
  2.8790460e-05
  9.0030170e-07
 -1.6019987e-05
 -2.5686194e-04
  5.9785813e-01
  1.4916687e+00
  1.2551265e-05
 -2.3204630e-06
 -3.1023935e-06
 -1.7769800e-05
  2.5267764e-06
  3.0103332e-05
  1.9821169e-05
 -7.1273208e-01
 -4.6762134e-06
  1.7089556e-05
 -1.0195220e-05
  3.8195531e-06
 -7.0882206e-06
 -3.3854367e-06
  8.4818445e-02
  4.7383937e-06
 -1.6791297e-06
  6.8499908e-06
 -1.3622319e-05
 -6.4233337e-03
 -3.8545281e-06
  7.7815121e-06
  1.3581001e-05
 -1.3621876e-05
 -1.2550309e-04
  1.3219270e-01
 -3.1865049e-05
  2.3311723e-06
  1.3516598e+00
 -4.3964186e-01
  7.4378622e-05
  6.0997354e-06
  1.6180963e-06
 -4.4235140e-01
  3.8761647e-07
 -2.7702087e-01
 -2.2448383e-02
  6.8397771e-05
  1.3845188e-05
 -2.7020883e-07
 -3.5848409e-06
  6.0611099e-01
 -2.3077900e+00
  1.4736305e-05
  2.3265357e-06
 -1.7610113e-05
 -4.2452057e-06
  1.1164324e-03
 -9.5949072e-01
  1.2706838e+00
 -1.9025361e-05
  5.2881753e-01
  4.0966129e-01
  2.1496271e-05
  4.0869104e-06
  3.3259255e-06
  2.4234707e-05
 -6.4269894e-01
 -3.2697185e-06
 -1.1213790e-05
  2.3417272e-06
  7.5501553e-06
 -8.3261169e-02
 -3.5173055e-06
 -3.0636248e-01
  1.0735604e-05
 -4.5211896e-06
  2.0025118e-01
 -1.4913601e-06
 -3.7645414e-01
 -4.6280993e-06
 -8.6115648e-07
  3.6063147e-06
  7.4726677e-07
 -2.9086204e-06
  4.5778152e-01
 -3.1512388e-06
 -2.7689488e+00
 -2.1625353e-06
 -7.2526200e-07
  7.5515723e-06
 -1.7708413e-05
 -1.8757501e-05
  5.0227379e-07
  4.9182364e-07
  1.8522711e-05
  8.4108888e-06
 -1.6305699e-05
  1.2602437e-05
  3.1263191e-06
  1.1467836e-05
 -1.0068254e-05
  1.8548108e-05
 -5.4108989e-07
  4.5160509e-06
 -1.4479110e-05
 -2.3142338e-06
 -2.6732275e-06
  2.5693798e-06
  1.8947624e-06
 -3.5607724e-07
 -4.8022248e-06
  9.8208029e-06
 -2.8088355e-06
  2.9219935e-05
  7.7495670e-06
  9.4196992e-07
 -2.4197159e-05
  1.6181366e-05
 -1.8156599e-05
 -3.2892749e-06
 -1.9919513e-05
  2.3593962e-05
  5.7886978e-06
 -8.6375940e-06
 -6.6304739e-07
 -8.3489567e-07
  1.7543069e-04
  6.3967923e-07
 -2.3131790e-06
  1.4941026e-05
  4.1640192e-06
 -2.3762239e-05
 -1.1102901e-05
  4.5325592e-06
 -4.0918508e-08
 -3.0671783e-06
  9.0881158e-06
  1.7994874e-06
 -8.9410778e-06
  1.5181700e-05
  2.3884313e-06
 -1.3646477e-05
  1.1368287e-05
 -6.4547444e-06
  1.5684522e-05
 -1.4435267e-06
 -7.3189021e-06
  1.8134182e-05
  2.8300642e-06
 -4.9167611e-06
 -7.4900386e-06
 -4.7227168e-06
  4.8492836e-07
  9.3629924e-06
 -1.0868882e-05
  1.4835914e-05
 -7.9445326e-06
 -3.2808407e-06
 -1.0754911e-05
  1.6448976e-07
 -2.6252942e-06
 -2.4382075e-06
 -2.0181542e-06
  3.2556298e-05
  2.5252934e-06
  5.9849185e-07
  2.8146119e-06
 -5.7428351e-06
  2.1207377e-06
 -1.4029486e-06
 -1.4848315e-06
 -1.7383230e-06
  3.3757058e-07
 -2.0639764e-06
 -1.8939052e-05
 -3.4200846e-06
  1.5195393e-06
 -8.3220530e-06
  2.5718033e-05
 -5.3375195e-05
  6.0325792e-06
 -3.6711285e-06
  3.4155232e-06
 -1.0278673e-06
  7.9487461e-07
  2.2654274e-06
  7.3600963e-02
  2.1325414e-01
 -2.3181142e-06
  2.8119144e-01
 -4.1269386e-06
 -1.0939403e+00
  1.1228997e-01
 -1.3480521e+00
  5.8421320e-01
 -1.6347061e-06
 -1.1358376e-05
  3.4295188e-06
 -3.4181387e-05
  3.8272407e-07
 -2.7543417e-04
  2.4245881e-05
 -8.7491293e-03
  1.9405767e-05
  6.0383346e-02
  1.1366668e-01
 -1.7234309e-03
  2.9471067e-01
  3.4610581e-05
  1.1086379e-03
  1.4653072e-02
 -3.5873151e-01
  2.0558758e-01
  6.3654561e-06
  4.3743180e-06
  6.5811852e-05
 -6.4701558e-06
  1.9743238e-06
 -1.2102352e+00
  1.6640256e-01
 -1.3137184e+00
  1.4977890e-01
  3.2726210e-02
  7.0464863e-05
 -5.7814214e-05
  2.8786534e-01
 -4.8843682e-05
 -2.8030918e-06
  3.0891024e-06
 -8.0125938e-06
  2.3091325e-01
  6.6313155e-06
  1.4871341e-01
 -1.1749381e-01
  1.6874234e-05
 -5.1759826e-06
  6.6789955e-01
  1.9927476e-02
 -7.5087953e-01
  2.7090195e-01
  3.5748311e-04
 -3.0272961e-06
  5.5484861e-01
  2.6568690e-01
  3.3348006e-06
 -9.8283720e-01
 -2.6671703e-06
 -8.8530600e-01
  4.1273645e-01
  7.2582543e-06
  2.1412252e-01
 -2.1236838e-01
  5.8022219e-06
 -1.1889439e-06
  4.4899050e-05
  2.0623172e-02
  2.0697598e-06
 -5.2772589e-06
  1.0844544e-06
  2.5678139e-06
 -4.6924442e-01
  2.4024081e-01
 -4.9637360e-06
  3.9699763e-01
 -6.8678685e-02
 -8.4893560e-01
  2.8395820e-01
  1.4627959e-05
  3.7316200e-05
 -3.7491292e-05
  4.7565125e-05
  2.5587118e-05
 -3.2478729e-01
  3.5008943e-01
 -6.5943482e-04
  3.0660132e-01
  2.9719466e-05
  1.7512462e-01
 -2.5744092e-01
  1.7123517e-01
 -5.9210088e-06
 -8.7482768e-01
  1.5360229e-05
 -4.5706692e-01
  2.3278144e-01
 -9.0123676e-06
 -2.3862333e-06
  4.9504242e-06
  9.9489546e-07
 -2.9382354e-06
  4.0291652e-06
 -3.4026823e-06
 -1.7301224e-01
  1.0048554e-05
  1.2830392e-05
  1.8473069e-05
 -3.0959482e-06
 -3.2052700e-05
 -3.1461741e-06
 -1.0473869e-06
  7.6650249e-06
 -3.6054132e-06
  5.9809195e-06
 -1.7861643e-05
 -1.1982525e-05
  1.6299669e-05
  1.9646293e-06
 -1.6529450e-05
  4.1146413e-05
  5.9864681e-07
 -1.0538486e-05
 -6.1543765e-06
 -8.0461286e-06
  4.3842388e-06
  1.0688185e-06
 -3.7125011e-07
 -1.6008975e-05
  9.3931058e-06
 -1.1809823e-06
  1.3026434e-05
 -1.5769290e-05
 -8.1027029e-06
  1.0161211e-05
 -1.1320423e-05
  1.6417263e-06
 -1.4563507e-06
  7.8502569e-07
  8.0926711e-06
  1.2953191e-07
 -2.2506697e-06
  1.8220782e-05
 -1.6647826e-05
  1.4433656e-05
  1.3030710e-05
  1.6747509e-06
 -8.1771004e-06
  1.0805344e-05
 -1.3296451e-05
  3.8474673e-06
 -3.7273471e-06
 -2.5955467e-05
  7.1992963e-07
  8.6001410e-06
  2.7619869e-06
  1.7552029e-06
  2.1298631e-06
  1.0088168e-05
  3.0382466e-06
  2.3275203e-05
  6.9484945e-06
  4.8473426e-06
 -2.8916388e-06
 -1.3727215e-05
 -2.5850082e-05
 -1.1031208e-05
 -1.7870112e-05
 -6.9550274e-06
  3.0580522e-06
 -7.9307074e-07
 -1.1813888e-06
 -6.5299048e-07
  1.7007435e-06
  5.1053594e-06
  4.6932655e-06
  8.9128407e-06
 -1.2518107e-05
 -1.1842713e-05
 -1.5860551e-05
  1.2803137e-06
  1.3596614e-06
  1.5776141e-06
 -1.6823904e-05
  5.8145806e-06
  1.0172934e-05
  1.4278292e-05
  1.9072744e-05
  4.5788893e-06
  3.2621940e-06
  3.3548454e-06
 -1.0132461e-05
 -7.5374351e-06
  1.8047356e-06
  1.5406531e-05
  1.6348323e-02
 -9.8143582e-06
  2.7498250e-05
  1.3555112e-05
  2.8651230e-06
  2.8883492e-06
  7.4537696e-05
  1.7563920e-05
 -1.1325203e-06
  3.4386060e-01
  2.3031080e-05
  3.8474145e-06
  2.3842440e-05
 -7.7996783e-06
  4.2222073e-06
 -7.0064975e-06
  7.4066679e-06
  3.4378474e-05
  7.8418570e-06
  9.4270863e-06
  7.0291794e-06
  1.0917098e-05
  1.3030546e-05
 -1.3899069e-05
  1.7626023e-04
 -6.8450972e-05
 -4.2102326e-07
 -1.5744879e-03
 -1.9658876e-06
 -1.3550222e-05
  4.2220838e-03
  2.5602187e-06
  5.6414166e-07
  1.2792188e-06
  3.1676870e-03
 -9.9026274e-06
  4.7828162e-01
  7.1792747e-06
 -5.1418028e-06
 -9.8047321e-06
 -4.5350607e-06
  5.2842352e-06
 -3.6176823e-06
 -1.6685739e-05
 -9.9119075e-07
 -2.4044767e-01
  1.6429512e-05
  1.8686103e-05
  3.6498271e-02
  3.3913762e-05
  9.7430457e-06
  9.6037437e-04
  1.4022955e-07
 -2.6988559e-05
  4.1189608e-01
  4.1229854e-05
  1.2773266e-05
  7.0434883e-02
 -1.1130868e-05
  9.0786825e-06
  1.2001740e-01
  1.1134522e-01
  6.4576721e-05
  6.3179941e-05
  3.7961895e-06
  2.2969332e-05
 -3.6052408e-04
  2.5058360e-05
 -1.5159487e-05
 -5.7591428e-06
 -5.2239046e-02
 -2.4672612e-03
 -1.5591557e-01
  1.5002645e-04
  4.8826523e-06
  4.1913667e-05
 -3.3981356e-05
 -2.3269813e-05
  2.9905650e-01
  3.0292578e-03
  2.7486766e-03
  1.1513130e-01
  3.3767967e-05
 -2.0602677e-06
  1.0166274e-05
  1.0457339e-05
  1.8398803e-05
  1.4296420e-04
 -8.9740897e-06
 -5.0966806e-05
  2.6327120e-03
 -5.4689590e-05
  1.7507135e-05
  3.7995089e-02
  1.1799753e-04
  8.9701771e-06
 -3.0593970e-03
  4.4042963e-01
 -1.7330857e-01
  7.9601419e-01
 -2.2871636e-01
 -4.7545144e-01
  7.0323781e-03
 -6.2359172e-01
  1.0799613e-07
  1.1069735e+00
  5.8955979e-01
  9.4895011e-01
  5.7519591e-01
 -8.6210321e-06
 -1.6012073e-06
 -1.5517821e-07
 -1.1573672e-05
 -1.1285329e-05
  5.1357812e-05
  5.1717311e-06
  6.4116656e-03
 -3.3485499e-04
 -2.1235153e-01
 -3.9399341e-01
  1.2844202e-01
 -6.4602429e-01
 -4.0323525e-06
 -1.0213846e+00
  9.9636358e-01
  8.6751079e-06
 -2.0583504e-01
  1.8836829e-05
 -5.9783004e-02
 -9.2506823e-05
  1.1689667e-05
 -1.0540797e-05
  9.8537409e-04
 -1.1594494e-01
  5.3986293e-01
 -5.2403706e-01
 -1.6090135e-01
 -2.1618845e-02
  2.1518239e-05
 -5.1529914e-01
  1.0725792e-05
 -5.0060585e-06
  7.1371633e-01
  8.3572730e-02
  1.8023547e-05
 -5.0225630e-05
 -3.5775045e-01
  7.7814765e-02
 -6.3923719e-05
 -4.7714361e-06
 -1.6668504e+00
 -1.9192934e-04
 -2.4191777e-03
  4.8236972e-01
 -9.7122073e-02
  9.1737820e-06
 -1.1750921e-02
 -3.9951858e-01
 -2.4174349e-05
  1.3225590e+00
  4.4258836e-01
  3.7828612e-01
 -5.9337962e-01
 -2.8970451e-06
 -4.7101220e-01
  1.0452613e+00
 -2.9383453e-02
  1.4729561e-07
 -7.2625853e-02
  1.2188241e-02
  2.8058144e-01
  1.6987278e-01
 -2.6110569e-02
 -4.8055848e-05
  5.0152683e-01
 -3.5959205e-01
  1.9231133e-05
  3.6127308e-01
  7.8372508e-01
  8.3445317e-01
  1.1063487e-01
 -2.0629967e-02
 -1.5438399e-01
 -1.1462101e-01
 -5.6618508e-03
  6.6380803e-06
 -2.5181334e-02
  5.3559291e-01
  9.4677436e-01
 -1.3888103e-01
 -8.9073856e-06
 -4.9623844e-01
 -5.6344897e-01
 -4.4288445e-01
  5.9604090e-06
  3.3920068e-01
  4.7301024e-01
  1.6608347e-01
 -2.7643511e-02
  1.6102789e-05
  1.8604135e-06
  1.7061994e-06
  2.4337501e-06
  7.7749592e-06
 -6.6977223e-06
 -1.5280430e-01
 -5.6008816e-02
 -5.0308418e-01
  1.6079153e-07
  1.2497774e-04
 -8.0061809e-06
 -3.8951734e-06
  7.2831408e-06
 -1.3654294e-07
  3.4297839e-06
  9.7097818e-06
  2.0215763e-05
  1.1362397e-06
  1.0334183e-05
 -3.2702777e-05
  1.0801061e-05
  2.2144200e-06
 -4.2908956e-05
 -6.0671095e-02
 -1.1139612e-05
 -2.9027256e-01
  7.6464767e-06
  6.7222200e-06
  1.1986934e-04
  2.5954705e-08
  5.6273770e-06
  1.0664397e-05
  2.0684278e-02
 -6.1184783e-02
  4.2383128e-01
 -1.4936853e-06
 -3.4255190e-06
 -2.4230840e-06
  2.5401667e-07
  1.8161999e-06
 -3.1917216e-06
 -1.6416090e-05
  3.0926369e-06
 -3.8150743e-01
  6.1088072e-06
  7.8297257e-05
 -1.6778687e-05
  6.8589775e-06
  1.2424323e-06
  6.3397747e-06
 -1.0655831e-05
  4.4981789e-06
  4.3127567e-01
  1.5257415e-05
 -2.1024713e-05
  8.1901401e-03
 -5.9503634e-08
 -3.8176227e-06
  3.0292058e-06
  3.2537687e-03
 -8.8313743e-02
  5.9236270e-05
 -6.9278190e-06
  3.9789934e-06
 -5.9327139e-03
 -2.4031867e-06
 -1.9463068e-05
 -3.8697158e-06
 -1.2681253e-01
  9.7636894e-06
 -3.6691105e-01
  3.9844922e-06
 -2.3877206e-05
  6.7421155e-05
  4.5418351e-06
  3.2762351e-04
 -1.4544338e-01
  9.2526823e-03
  6.1016134e-03
  3.6565191e-01
 -1.8462035e-05
  3.4681275e-06
 -2.1219535e-05
 -2.0924522e-06
 -9.1608745e-06
  7.2248140e-06
 -4.0258117e-05
 -1.8766068e-01
 -2.5433066e-01
  2.0386426e-05
  1.2204615e-04
 -4.5103199e-05
  2.1699672e-05
 -7.4401814e-06
 -4.2022383e-04
  1.4818171e-01
  2.2132161e-05
  6.6280238e-02
  3.2932840e-06
  1.8378277e-01
 -2.6833016e-01
  2.1164654e-01
 -3.6951089e-06
  7.1894777e-01
 -5.3730005e-01
 -6.3288951e-01
  9.5825480e-06
 -2.3550633e-06
  3.6046245e-06
 -6.4297186e-05
  4.6022287e-06
 -2.2049529e-05
 -2.1291377e-04
 -2.1836892e-07
 -3.5134983e-07
  2.1564516e-05
  7.0325888e-07
  1.5608972e-01
 -4.0145248e-02
  2.4910636e-01
 -4.9696000e-06
  4.3324627e-02
 -4.7363687e-01
 -1.8926816e-05
  2.3453603e-02
 -1.9244924e-06
 -2.5835261e-06
 -7.0594765e-02
 -1.9402025e-06
  8.7771878e-07
 -7.7536869e-01
  7.4300033e-06
 -5.9198362e-01
 -2.0073399e-01
 -2.6635655e-06
  9.1171831e-02
  1.8856908e-05
  3.1033981e-01
  1.3976438e-06
  1.7536619e-05
 -3.7425238e-01
 -2.1837328e-05
  3.2515043e-01
 -9.2643886e-06
  1.8101407e-05
 -4.8080195e-02
 -1.1206691e-06
 -1.9911917e-05
  3.7442385e-03
 -1.3556947e-04
 -9.9780716e-02
 -5.0733840e-01
 -5.4187808e-06
  1.6614262e-02
 -1.0584152e-01
  3.3929136e-01
 -6.2718123e-06
 -1.0916849e+00
 -3.8939357e-01
 -5.6751424e-01
  2.7765083e-01
 -9.5710839e-06
  2.3720608e-04
  6.3844163e-06
 -2.0476435e-07
 -3.0406261e-06
  7.4822001e-02
 -1.1141758e-04
  2.1731395e-05
 -1.6958989e-01
 -8.6794023e-07
  5.3056452e-04
 -6.0293257e-02
  2.5047916e-01
 -1.5767408e-05
 -2.9750863e-01
 -1.5370415e-01
 -3.9583868e-01
  3.7607204e-02
 -3.2728881e-06
  1.2076218e-04
 -1.5491271e-01
  3.7411080e-06
  5.0225112e-06
  1.7373699e-01
 -2.4274372e-01
 -2.5764850e-01
 -1.2445434e-01
  3.9777005e-06
  4.5736518e-02
  2.2371958e-05
  6.7714034e-05
 -4.4933013e-06
 -2.0535707e-01
 -3.0044688e-05
  3.4159853e-05
  4.1620472e-01
 -4.4787334e-06
 -5.4895901e-03
  4.9776292e-01
 -2.0985922e-06
 -4.7940863e-05
  1.1388296e-04
  7.6078349e-01
  2.9132482e-01
 -4.2463675e-01
 -1.1550035e-05
 -2.2855115e-06
  1.0299496e-04
  4.5281549e-06
 -4.9181790e-06
  2.8093559e-06
  3.3222580e-06
 -1.5225415e-05
 -6.9162820e-06
  6.7923960e-05
 -2.4618039e-02
  1.6701405e-01
 -2.0801056e-06
  1.7284476e-05
 -4.5905534e-05
  4.5368823e-01
  3.0002033e-05
 -6.3930696e-01
 -3.1824075e-06
  1.8169972e-06
  8.6673206e-01
  5.1847051e-06
 -3.3240642e-06
  4.2451635e-01
  3.5754830e-01
  1.1194305e-01
  1.4367063e-01
  4.1168737e-06
 -1.5374006e-01
  1.8829935e-03
 -1.0525186e-01
 -7.2536227e-06
  1.3467820e-05
  3.1756666e-01
 -1.2806386e-06
 -4.5628184e-01
 -1.1317278e-06
  1.8568369e-05
  2.3133194e-02
  2.1544496e-02
 -2.7952904e-06
 -4.0136757e-03
  3.9997032e-01
  4.2290341e-02
  1.4269687e-04
  3.0925421e-05
 -2.1140988e-01
  5.1239210e-01
 -1.8163021e-01
  2.7606059e-06
  1.5937408e-02
  2.7495822e-01
  6.2910840e-02
 -3.3395848e-04
 -5.6362619e-06
  2.1717044e-05
 -1.4508338e-01
  2.7135586e-02
 -3.9129909e-06
 -3.8085590e-04
  4.7707447e-01
 -1.6820906e-05
 -2.7995110e-01
  3.5958703e-07
 -9.6610360e-02
  1.2377390e+00
 -7.2039239e-02
 -4.9066343e-06
  2.7892628e-04
  1.1142647e-01
  5.7318356e-02
 -1.8230517e-01
  1.0932770e-06
 -3.1568125e-05
  6.5111476e-01
 -1.6732532e-05
 -2.0246375e-06
 -7.2368041e-02
  6.9177854e-01
  4.4503456e-01
  7.0616193e-02
  1.9385350e-05
  5.0777853e-06
  1.0674871e-06
 -6.1781038e-06
 -2.1535869e-05
 -3.1508764e-04
  5.7277542e-02
  8.5399687e-02
 -2.1771294e-01
  4.5234752e-03
  1.8708378e-01
 -3.3427737e-04
  2.2810854e-01
 -7.1375157e-06
  1.7313179e-01
 -1.0271349e-01
  3.8200366e-01
  1.2328848e+00
  2.0664364e-05
 -3.4157526e-06
  5.4642956e-06
  1.7559209e-05
  5.6072651e-07
  4.2263259e-06
  1.1482475e-05
  2.9567263e-06
 -2.2947215e-06
  1.8117967e-04
  1.3330248e-01
 -1.2716874e-04
  2.0661242e-01
 -8.8023216e-06
  3.4215454e-02
 -1.4482489e-01
  2.2214797e-05
  1.0260146e+00
  1.4735803e-05
 -1.3409144e-06
  6.4475003e-06
  1.4032108e-06
  1.8494480e-06
 -8.3453662e-05
  1.1061045e-04
  1.8689358e-01
  8.0874674e-02
  4.8117075e-05
  3.3776614e-05
  1.4050739e-06
  1.2495072e-01
 -5.6739223e-06
  1.7455333e-05
 -2.1536906e-01
  7.2825997e-06
  6.8745154e-01
  6.4593146e-06
  7.4090533e-02
 -2.9755659e-02
  4.6485047e-06
  6.1433675e-06
  9.7359167e-03
 -7.6680568e-05
  1.6887616e-01
  4.3636274e-01
  1.9786901e-05
 -2.3405375e-06
  2.1496866e-05
  6.0156360e-02
 -1.7745871e-05
  2.9663037e-05
 -4.8682231e-02
  2.4789542e-01
  2.8603899e-01
  2.1567225e-06
  1.3817428e-01
 -1.5525005e-04
  3.1519507e-04
 -6.5109343e-06
  7.1202025e-02
 -5.2159743e-05
 -1.1005863e-03
  1.0422711e+00
  1.7508864e-05
  4.5477250e-06
 -2.6648289e-02
  4.5444768e-02
  3.0731021e-06
  2.7937485e-02
 -2.1251824e-04
  5.8000529e-01
 -1.6879221e-05
  3.8980575e-06
  1.0851364e-03
  5.8999314e-07
  2.2256272e-05
  2.0213288e-06
  1.6431672e-02
 -1.6560696e-01
  1.3814536e-01
  1.2347442e+00
 -1.2164656e-06
  1.8190403e-01
  5.3115141e-06
  1.2525322e-01
  4.2103552e-06
 -1.5984606e-02
 -7.9705103e-05
 -4.6914194e-02
  1.2711807e-01
  3.4697264e-06
  2.0573560e-05
  8.0484122e-01
  1.5057939e-05
  1.3266815e-06
  9.7578901e-01
 -1.7313134e-05
 -9.8855287e-01
  1.8519659e-01
  2.7884562e-07
 -4.7373746e-06
  2.1576763e-05
  9.4072050e-07
  1.9327711e-06
  1.8624847e-05
  6.1174060e-06
 -1.2732311e-01
  4.1432622e-06
 -5.4924303e-06
 -1.3675546e-05
  2.6171383e-01
  9.5561800e-06
 -8.5561733e-06
  6.4301893e-02
 -6.9952548e-02
  7.7215648e-01
  4.5731273e-02
  7.0766232e-06
 -3.1613845e-06
  8.5361922e-01
  4.2329089e-06
 -5.8558226e-07
  1.1569397e+00
  1.8952502e-04
 -6.6105390e-01
  1.4806692e-02
  5.1276133e-06
 -2.4565888e-06
 -2.2495750e-03
 -4.6618597e-06
 -6.8387194e-06
  4.4600070e-01
 -2.2251004e-01
 -2.2095957e-01
 -4.4428707e-05
 -1.8411316e-05
 -1.4455113e-06
  1.1053401e+00
 -3.5458411e-06
 -2.5632485e-06
  3.4248513e-01
  6.2519498e-02
 -7.0256090e-01
  1.9283092e-01
  6.9441307e-07
 -1.3007540e-06
  1.2376465e-01
  1.7075909e-06
 -6.8732270e-06
  1.2447742e+00
 -8.2933627e-02
 -1.3837718e+00
  3.7091968e-06
 -6.7899991e-06
 -4.8828506e-06
  5.8112748e-04
  5.7463994e-06
 -5.8096616e-06
  2.9436278e-01
 -4.7402697e-05
 -3.9723736e-01
  8.4277362e-02
  9.7858606e-07
 -5.4468010e-06
  1.1835701e+00
 -1.5720778e-07
  6.9199937e-06
 -2.2408000e-01
  8.6578801e-03
 -4.8544070e-01
  1.3949908e-01
 -1.4455609e-05
  2.6522234e-06
 -3.5752767e-06
 -3.8011772e-06
 -1.4820788e-05
  2.2933433e-02
 -1.2499752e-05
 -1.6135777e-03
  1.2297888e-03
 -2.3994899e-06
 -1.0062474e-06
  6.3805642e-06
  1.0478866e-05
 -1.7140573e-07
 -1.4575612e-05
  8.5437141e-06
 -4.3123841e-06
  3.1950187e-06
 -4.5199677e-06
  6.8953827e-06
  8.3280829e-06
  6.2074100e-06
  2.1736696e-05
  2.5073916e-01
 -7.2413463e-06
 -4.3866286e-04
  7.7811696e-05
 -6.8008990e-06
  3.6946451e-06
  2.1270398e-05
  7.4101895e-06
 -1.8932866e-05
  1.1182855e+00
 -6.0749539e-06
 -1.5666040e-04
 -7.1293903e-06
 -5.1928964e-08
 -5.6606150e-06
 -4.4992144e-06
  1.9799221e-05
 -9.0547273e-06
  2.0238210e-01
  8.2494762e-06
 -9.7053271e-06
  6.1914907e-06
 -1.6262631e-05
  2.4272863e-06
 -2.1725250e-06
  7.8036337e-06
 -1.1928613e-05
  3.9887467e-01
  5.4579965e-07
 -1.6176520e-01
  2.3481596e-05
 -1.9808129e-05
  2.6923244e-05
 -2.1794297e-06
 -1.3480221e-06
 -2.2031525e-05
  7.3040444e-01
  2.6919122e-06
  1.8356706e-01
  4.8314741e-06
 -2.6703607e-05
 -2.3019233e-05
 -5.8944914e-07
 -4.0390578e-06
  7.6243632e-06
  2.4582397e-02
  1.5601518e-05
 -5.3317273e-01
  3.8191110e-03
 -5.9975314e-06
 -3.6113370e-06
  6.5009472e-06
  4.0415463e-05
  3.8364865e-06
  4.4701353e-01
 -1.2531785e-05
  4.4170764e-01
  2.6482499e-05
 -6.0335988e-06
  1.4820679e-07
  2.0519321e-05
  3.5407080e-05
 -5.7161024e-06
 -1.0421523e+00
 -4.5057359e-06
 -5.8400187e-06
  7.8723787e-08
  3.1110740e-06
 -6.4246055e-06
 -2.1096826e-06
 -7.9270758e-06
 -2.5950854e-07
 -6.2143466e-05
 -2.5108142e-05
 -1.7100159e-05
  2.2681737e-05
 -7.3654355e-06
  5.4651464e-06
 -6.9819330e-06
 -7.6498600e-06
 -5.6470758e-06
 -7.1403575e-01
  2.9707865e-06
 -5.0304366e-06
 -1.1068216e-06
 -9.9932856e-07
  1.7969503e-06
  5.5204519e-06
 -1.6539298e-06
  9.9588142e-06
 -7.7362567e-01
 -9.6353233e-06
 -7.6376718e-06
 -1.5684062e-06
  1.0099837e-05
 -5.6541518e-07
 -9.9303190e-07
 -6.7127908e-06
  4.6180753e-06
  3.9210854e-06
  6.1359528e-06
 -2.9409284e-07
  8.2940751e-06
 -1.4741920e-07
  4.9051750e-06
  2.9999005e-06
  5.0362775e-07
 -1.8534831e-05
 -1.2352077e+00
 -2.1821688e-06
  8.0225305e-05
  2.2599411e-06
 -6.4333304e-05
  5.4963766e-06
 -2.0900234e-05
  7.7874398e-07
 -2.0311587e-05
 -2.0641579e-01
  9.6405702e-06
  3.0152487e-06
 -1.4933676e-06
 -4.1250232e-06
  5.5698442e-06
 -2.0363609e-06
 -4.5876372e-06
  2.2339023e-05
 -1.5282942e-01
  2.2429691e-05
  3.8476483e-06
 -2.4804211e-07
 -3.4933193e-05
 -6.6300208e-06
  1.7121680e-05
  2.0801441e-05
  4.8939637e-06
 -9.9541396e-01
 -6.1835331e-06
 -7.6162887e-06
 -4.4752564e-06
  2.9792957e-06
  7.8021549e-06
  2.8447312e-06
  7.0240226e-06
 -1.9503618e-06
  7.2165327e-05
  6.4474672e-01
 -8.9619614e-02
 -2.2739153e-03
 -2.8091043e-05
 -1.6815937e-05
 -1.0669200e-05
  5.4694431e-07
 -9.6282811e-06
 -1.9380625e-05
  1.1149517e-04
 -9.9859290e-07
 -2.0375346e-05
  8.8184265e-07
  1.4664110e-06
 -3.6139252e-06
 -3.3844035e-06
 -3.4192213e-05
  1.7512517e-05
  3.9265910e-01
  3.3194724e-02
 -5.5538567e-05
 -4.9737500e-05
  3.6448355e-06
  1.2634833e-05
 -2.7310498e-06
 -4.1634331e-07
  3.2137139e-06
  1.4644162e-01
 -5.6743689e-02
  5.9071808e-06
 -8.5012675e-07
 -6.0524435e-06
 -2.1824688e-05
 -1.8573948e-05
 -7.5099285e-07
 -3.0524563e-05
  1.8937941e-01
  2.7218869e-01
 -1.0532226e-02
 -4.0328714e-06
 -6.9308453e-06
  1.7361486e-05
  1.2014980e-06
 -3.1947548e-07
  3.1910416e-01
  2.5589553e-01
 -4.5698527e-03
  3.7126858e-06
 -6.9427565e-06
 -3.0072918e-06
  1.0216513e-07
  1.1466647e-04
  1.9372595e-05
 -1.1303693e-01
  2.4783723e-01
 -1.7561231e-05
 -1.4722082e-01
 -7.2747721e-06
  2.3928433e-06
 -1.7457077e-06
 -6.1215758e-07
  5.8306791e-06
  1.4772615e-01
  1.8385969e-01
  4.2438793e-01
  8.4705956e-02
 -2.2597817e-06
  3.1516724e-06
  9.3927110e-06
  6.7180292e-07
  5.2357000e-06
  1.2296549e-01
  4.7255132e-01
 -4.0780511e-01
 -3.6727941e-01
 -9.9980821e-07
 -2.0080459e-05
 -3.4679922e-06
  6.8767590e-06
  1.5180719e-05
 -2.8447082e-06
  1.9931915e-04
 -3.5300189e-01
 -3.2338187e-01
 -3.9478628e-06
 -2.1917494e-06
 -1.6099746e-05
 -3.3336288e-05
  9.4635328e-07
  5.1845236e-06
 -3.5256544e-06
 -2.9939547e-06
  2.2151289e-05
  5.5010146e-06
  3.0139152e-05
  1.5653941e-06
 -8.4773355e-06
  5.8648197e-06
  4.1308581e-06
  3.8186778e-04
 -2.9389140e-01
 -2.1321830e-01
 -2.2602966e-05
 -7.9242500e-06
  1.0300581e-05
  6.3766361e-06
 -2.1128537e-06
 -5.3234626e-06
  3.5575413e-06
 -4.5966696e-02
 -5.6946534e-05
  4.3195173e-06
 -2.1926904e-05
 -2.5081556e-06
  1.8584913e-06
  2.7737167e-07
 -2.0920754e-05
  1.1830304e-05
 -5.7838164e-02
 -7.0256449e-02
  2.8912248e-06
 -5.1762686e-06
  2.8135248e-06
  8.8623210e-06
  1.0504644e-06
  2.5559871e-07
 -1.0833990e-05
 -1.1810692e-01
 -8.8051736e-02
 -2.0900567e-05
  3.7196893e-05
  2.2982022e-06
  1.2157184e-06
 -3.2488377e-05
  4.3166779e-06
  3.1409982e-06
 -1.6950488e-04
 -6.3886524e-05
  2.6095173e-05
  6.2630529e-06
 -8.3701307e-06
 -3.4826218e-05
 -5.2815362e-06
 -4.1710297e-07
 -9.3082974e-07
 -1.9216512e-01
 -4.4936529e-01
  2.2596023e-06
  8.9346128e-07
  2.0871157e-06
 -3.8762469e-06
 -7.7380437e-06
 -3.1319607e-06
 -1.1896361e-05
 -1.6542183e-01
 -1.4311049e-06
  9.9609703e-02
  9.9609703e-02
  9.9609703e-02
  9.9609703e-02
  9.9609703e-02
  9.9609703e-02
  9.9609703e-02
  9.9609703e-02
  9.9609703e-02
  1.0521032e+00
  1.0521032e+00
  1.0521032e+00
  1.0521032e+00
  1.0521032e+00
  3.3672100e-01
  3.3672100e-01
  3.3672100e-01
  3.3672100e-01
  3.3672100e-01
  2.6913127e-01
  2.6913127e-01
  2.6913127e-01
  2.6913127e-01
  2.6913127e-01
  6.1670884e-02
  6.1670884e-02
  6.1670884e-02
  6.1670884e-02
  6.1670884e-02
  7.1712291e-01
  7.1712291e-01
  7.1712291e-01
  7.1712291e-01
  7.1712291e-01
